{
  "<EOS>": 0,
  "<GO>": 1,
  "<UNK>": 2,
  "的": 3,
  ",": 4,
  "。": 5,
  "，": 6,
  "&quot;": 7,
  "在": 8,
  "、": 9,
  "了": 10,
  "和": 11,
  "是": 12,
  ".": 13,
  "我": 14,
  "他": 15,
  "有": 16,
  "：": 17,
  "对": 18,
  "你": 19,
  "也": 20,
  "中": 21,
  "将": 22,
  "为": 23,
  "我们": 24,
  "上": 25,
  "年": 26,
  "(": 27,
  ")": 28,
  "人": 29,
  "不": 30,
  "与": 31,
  "月": 32,
  "就": 33,
  "都": 34,
  ":": 35,
  "一个": 36,
  "说": 37,
  "到": 38,
  "这": 39,
  "中国": 40,
  "会": 41,
  "日": 42,
  "并": 43,
  "等": 44,
  "她": 45,
  "而": 46,
  "-": 47,
  "但": 48,
  "他们": 49,
  "要": 50,
  "被": 51,
  "从": 52,
  "可以": 53,
  "没有": 54,
  "%": 55,
  "问题": 56,
  "》": 57,
  "《": 58,
  "时": 59,
  "发展": 60,
  "以": 61,
  "还": 62,
  "后": 63,
  "个": 64,
  "工作": 65,
  "地": 66,
  "进行": 67,
  "来源": 68,
  "标题": 69,
  "?": 70,
  ";": 71,
  "记者": 72,
  "自己": 73,
  "来": 74,
  "很": 75,
  "公司": 76,
  "把": 77,
  "国家": 78,
  "或": 79,
  "一": 80,
  "着": 81,
  "让": 82,
  "其": 83,
  "及": 84,
  "新": 85,
  "这个": 86,
  "能": 87,
  "多": 88,
  "这些": 89,
  "表示": 90,
  "下": 91,
  "已经": 92,
  "更": 93,
  "1": 94,
  "可能": 95,
  "给": 96,
  "3": 97,
  "它": 98,
  "向": 99,
  "市场": 100,
  "经济": 101,
  "于": 102,
  "所": 103,
  "如果": 104,
  "已": 105,
  "？": 106,
  "美国": 107,
  "去": 108,
  "该": 109,
  "政府": 110,
  "通过": 111,
  "好": 112,
  "5": 113,
  "企业": 114,
  "认为": 115,
  "需要": 116,
  "一些": 117,
  "大": 118,
  "可": 119,
  "里": 120,
  "提供": 121,
  "目前": 122,
  "国际": 123,
  "社会": 124,
  "10": 125,
  "用": 126,
  "2": 127,
  "做": 128,
  "又": 129,
  "4": 130,
  "情况": 131,
  "由": 132,
  "就是": 133,
  "研究": 134,
  "最": 135,
  "因为": 136,
  "开始": 137,
  "方面": 138,
  "以及": 139,
  "现在": 140,
  "影响": 141,
  "使": 142,
  "得": 143,
  "但是": 144,
  "时间": 145,
  "6": 146,
  "重要": 147,
  "什么": 148,
  "成为": 149,
  "前": 150,
  "有关": 151,
  "/": 152,
  "主要": 153,
  "其他": 154,
  "这样": 155,
  "组织": 156,
  "内": 157,
  "项目": 158,
  "这种": 159,
  "不是": 160,
  "过": 161,
  "那": 162,
  "活动": 163,
  "要求": 164,
  "使用": 165,
  "（": 166,
  "）": 167,
  "；": 168,
  "想": 169,
  "北京": 170,
  "元": 171,
  "们": 172,
  "7": 173,
  "新华网": 174,
  "包括": 175,
  "同时": 176,
  "管理": 177,
  "8": 178,
  "吗": 179,
  "出": 180,
  "必须": 181,
  "建设": 182,
  "·": 183,
  "一种": 184,
  "作为": 185,
  "所有": 186,
  "服务": 187,
  "今年": 188,
  "世界": 189,
  "出现": 190,
  "技术": 191,
  "安全": 192,
  "委员会": 193,
  "知道": 194,
  "生活": 195,
  "发现": 196,
  "会议": 197,
  "对于": 198,
  "其中": 199,
  "当": 200,
  "价格": 201,
  "大@@": 202,
  "比": 203,
  "孩子": 204,
  "至": 205,
  "9": 206,
  "不能": 207,
  "系统": 208,
  "地区": 209,
  "计划": 210,
  "由于": 211,
  "第": 212,
  "发生": 213,
  "产品": 214,
  "合作": 215,
  "机构": 216,
  "希望": 217,
  "规定": 218,
  "一@@": 219,
  "时候": 220,
  "据": 221,
  "却": 222,
  "报告": 223,
  "提出": 224,
  "政策": 225,
  "性": 226,
  "根据": 227,
  "12": 228,
  "则": 229,
  "高": 230,
  "还是": 231,
  "投资": 232,
  "者": 233,
  "称": 234,
  "特别": 235,
  "方式": 236,
  "城市": 237,
  "...": 238,
  "人员": 239,
  "教育": 240,
  "11": 241,
  "应": 242,
  "应该": 243,
  "不@@": 244,
  "再": 245,
  "因此": 246,
  "关于": 247,
  "很多": 248,
  "文化": 249,
  "看": 250,
  "地方": 251,
  "决定": 252,
  "继续": 253,
  "20": 254,
  "方法": 255,
  "或者": 256,
  "非常": 257,
  "不会": 258,
  "实现": 259,
  "正在": 260,
  "学生": 261,
  "!": 262,
  "部门": 263,
  "增长": 264,
  "不同": 265,
  "相关": 266,
  "增加": 267,
  "任何": 268,
  "小@@": 269,
  "部分": 270,
  "家": 271,
  "了解": 272,
  "点": 273,
  "小": 274,
  "人们": 275,
  "为了": 276,
  "名": 277,
  "得到": 278,
  "信息": 279,
  "之": 280,
  "能力": 281,
  "提高": 282,
  "才": 283,
  "能够": 284,
  "显示": 285,
  "像": 286,
  "一直": 287,
  "生产": 288,
  "号": 289,
  "分析": 290,
  "支持": 291,
  "许多": 292,
  "全国": 293,
  "关系": 294,
  "而且": 295,
  "中心": 296,
  "联合国": 297,
  "只": 298,
  "行动": 299,
  "设计": 300,
  "您": 301,
  "2011": 302,
  "2010": 303,
  "环境": 304,
  "看到": 305,
  "建立": 306,
  "岁": 307,
  "我国": 308,
  "30": 309,
  "具有": 310,
  "本": 311,
  "各": 312,
  "接受": 313,
  "万元": 314,
  "调查": 315,
  "不过": 316,
  "执行": 317,
  "起": 318,
  "获得": 319,
  "告诉": 320,
  "存在": 321,
  "日本": 322,
  "所以": 323,
  "还有": 324,
  "过程": 325,
  "呢": 326,
  "选择": 327,
  "这是": 328,
  "一定": 329,
  "之间": 330,
  "建议": 331,
  "较": 332,
  "如何": 333,
  "目标": 334,
  "之后": 335,
  "加强": 336,
  "介绍": 337,
  "代表": 338,
  "作用": 339,
  "中@@": 340,
  "解决": 341,
  "标准": 342,
  "达到": 343,
  "数据": 344,
  "全球": 345,
  "请": 346,
  "事": 347,
  "虽然": 348,
  "区": 349,
  "是否": 350,
  "一样": 351,
  "！": 352,
  "成": 353,
  "方案": 354,
  "走": 355,
  "你们": 356,
  "两个": 357,
  "参加": 358,
  "结果": 359,
  "银行": 360,
  "亿元": 361,
  "那么": 362,
  "仍": 363,
  "因": 364,
  "先生": 365,
  "学校": 366,
  "上海": 367,
  "造成": 368,
  "市": 369,
  "超过": 370,
  "进一步": 371,
  "行为": 372,
  "国内": 373,
  "曾": 374,
  "约": 375,
  "15": 376,
  "销售": 377,
  "资金": 378,
  "只有": 379,
  "最后": 380,
  "措施": 381,
  "那些": 382,
  "它们": 383,
  "一起": 384,
  "原因": 385,
  "最大": 386,
  "未来": 387,
  "努力": 388,
  "处理": 389,
  "一次": 390,
  "进入": 391,
  "网络": 392,
  "去年": 393,
  "领域": 394,
  "如": 395,
  "制度": 396,
  "只是": 397,
  "保护": 398,
  "甚至": 399,
  "完成": 400,
  "没": 401,
  "实施": 402,
  "大学": 403,
  "资源": 404,
  "帮助": 405,
  "以上": 406,
  "行业": 407,
  "起来": 408,
  "举行": 409,
  "期间": 410,
  "报道": 411,
  "万": 412,
  "香港": 413,
  "吧": 414,
  "法律": 415,
  "集团": 416,
  "王@@": 417,
  "人民": 418,
  "子": 419,
  "车": 420,
  "采取": 421,
  "喜欢": 422,
  "区域": 423,
  "基本": 424,
  "产生": 425,
  "关注": 426,
  "基金": 427,
  "法": 428,
  "吃": 429,
  "分": 430,
  "控制": 431,
  "有效": 432,
  "持续": 433,
  "过去": 434,
  "保障": 435,
  "张@@": 436,
  "不断": 437,
  "达": 438,
  "水": 439,
  "基础": 440,
  "比较": 441,
  "三@@": 442,
  "处": 443,
  "单位": 444,
  "指出": 445,
  "导致": 446,
  "非": 447,
  "无@@": 448,
  "媒体": 449,
  "考虑": 450,
  "钱": 451,
  "按照": 452,
  "高@@": 453,
  "以来": 454,
  "专家": 455,
  "汽车": 456,
  "多@@": 457,
  "促进": 458,
  "今天": 459,
  "一位": 460,
  "利用": 461,
  "直接": 462,
  "受到": 463,
  "历史": 464,
  "目的": 465,
  "条件": 466,
  "新@@": 467,
  "和平": 468,
  "带": 469,
  "正": 470,
  "外": 471,
  "成功": 472,
  "不要": 473,
  "李@@": 474,
  "之一": 475,
  "开发": 476,
  "网": 477,
  "国": 478,
  "带来": 479,
  "资料": 480,
  "同": 481,
  "来说": 482,
  "事件": 483,
  "均": 484,
  "改革": 485,
  "之前": 486,
  "水平": 487,
  "占": 488,
  "业务": 489,
  "学习": 490,
  "来自": 491,
  "跟": 492,
  "化": 493,
  "觉得": 494,
  "需求": 495,
  "网站": 496,
  "路": 497,
  "这一": 498,
  "各种": 499,
  "应当": 500,
  "严重": 501,
  "参与": 502,
  "大家": 503,
  "人@@": 504,
  "自": 505,
  "准备": 506,
  "受": 507,
  "出来": 508,
  "减少": 509,
  "朋友": 510,
  "并且": 511,
  "日电": 512,
  "无法": 513,
  "完全": 514,
  "取得": 515,
  "发布": 516,
  "内容": 517,
  "站": 518,
  "个人": 519,
  "美元": 520,
  "收入": 521,
  "作": 522,
  "注意": 523,
  "家庭": 524,
  "此外": 525,
  "随着": 526,
  "然后": 527,
  "这里": 528,
  "事情": 529,
  "新闻": 530,
  "东西": 531,
  "50": 532,
  "范围": 533,
  "健康": 534,
  "英国": 535,
  "某": 536,
  "任务": 537,
  "次": 538,
  "消费者": 539,
  "住": 540,
  "工程": 541,
  "政治": 542,
  "未": 543,
  "爱": 544,
  "结构": 545,
  "机会": 546,
  "金@@": 547,
  "道": 548,
  "天": 549,
  "水@@": 550,
  "拥有": 551,
  "采用": 552,
  "部": 553,
  "形成": 554,
  "公布": 555,
  "保持": 556,
  "上@@": 557,
  "间": 558,
  "压力": 559,
  "有@@": 560,
  "然而": 561,
  "更加": 562,
  "&apos;": 563,
  "式": 564,
  "当地": 565,
  "因素": 566,
  "队": 567,
  "两@@": 568,
  "马@@": 569,
  "作出": 570,
  "人士": 571,
  "明显": 572,
  "18": 573,
  "积极": 574,
  "住房": 575,
  "应用": 576,
  "县": 577,
  "食品": 578,
  "的话": 579,
  "表现": 580,
  "有些": 581,
  "副": 582,
  "调整": 583,
  "变化": 584,
  "分别": 585,
  "责任": 586,
  "尽管": 587,
  "确定": 588,
  "规划": 589,
  "条": 590,
  "一切": 591,
  "品牌": 592,
  "图": 593,
  "不少": 594,
  "小时": 595,
  "买": 596,
  "之@@": 597,
  "一般": 598,
  "传统": 599,
  "谁": 600,
  "开展": 601,
  "即": 602,
  "16": 603,
  "改变": 604,
  "类": 605,
  "25": 606,
  "主席": 607,
  "房": 608,
  "每": 609,
  "房地产": 610,
  "医院": 611,
  "稳定": 612,
  "不仅": 613,
  "申请": 614,
  "土地": 615,
  "当时": 616,
  "近": 617,
  "14": 618,
  "办法": 619,
  "月份": 620,
  "天@@": 621,
  "下降": 622,
  "长": 623,
  "型": 624,
  "刘@@": 625,
  "整个": 626,
  "全面": 627,
  "领导": 628,
  "用户": 629,
  "量": 630,
  "决议": 631,
  "重点": 632,
  "价值": 633,
  "专业": 634,
  "左右": 635,
  "讨论": 636,
  "一点": 637,
  "13": 638,
  "产业": 639,
  "每个": 640,
  "那个": 641,
  "陈@@": 642,
  "文件": 643,
  "消息": 644,
  "比赛": 645,
  "此": 646,
  "共同": 647,
  "一名": 648,
  "经": 649,
  "最终": 650,
  "100": 651,
  "总统": 652,
  "交易": 653,
  "经过": 654,
  "另": 655,
  "生": 656,
  "除了": 657,
  "最近": 658,
  "费用": 659,
  "大量": 660,
  "自@@": 661,
  "公开": 662,
  "风险": 663,
  "两": 664,
  "上涨": 665,
  "意见": 666,
  "确保": 667,
  "地@@": 668,
  "成本": 669,
  "质量": 670,
  "精神": 671,
  "儿童": 672,
  "一年": 673,
  "空间": 674,
  "如此": 675,
  "结束": 676,
  "旅游": 677,
  "正式": 678,
  "推动": 679,
  "花": 680,
  "一家": 681,
  "机": 682,
  "头": 683,
  "电影": 684,
  "负责": 685,
  "用于": 686,
  "打": 687,
  "感到": 688,
  "17": 689,
  "及其": 690,
  "按": 691,
  "购买": 692,
  "另外": 693,
  "妇女": 694,
  "怎么": 695,
  "种": 696,
  "大会": 697,
  "设备": 698,
  "A": 699,
  "一下": 700,
  "容易": 701,
  "欧洲": 702,
  "同样": 703,
  "真正": 704,
  "安排": 705,
  "仍然": 706,
  "开": 707,
  "问": 708,
  "21": 709,
  "现场": 710,
  "有人": 711,
  "为什么": 712,
  "实际": 713,
  "低": 714,
  "二": 715,
  "运动": 716,
  "机制": 717,
  "便": 718,
  "19": 719,
  "行政": 720,
  "项": 721,
  "网友": 722,
  "三": 723,
  "越来越": 724,
  "程度": 725,
  "发": 726,
  "程序": 727,
  "工作人员": 728,
  "预计": 729,
  "心": 730,
  "这次": 731,
  "战略": 732,
  "款": 733,
  "有限公司": 734,
  "经营": 735,
  "群众": 736,
  "第一": 737,
  "太": 738,
  "成员": 739,
  "全部": 740,
  "位": 741,
  "相信": 742,
  "才能": 743,
  "创新": 744,
  "这么": 745,
  "宣布": 746,
  "保证": 747,
  "米": 748,
  "面临": 749,
  "科学": 750,
  "门": 751,
  "感觉": 752,
  "老@@": 753,
  "无": 754,
  "引起": 755,
  "黄@@": 756,
  "贷款": 757,
  "总": 758,
  "推出": 759,
  "可@@": 760,
  "24": 761,
  "找到": 762,
  "针对": 763,
  "需": 764,
  "局": 765,
  "具体": 766,
  "功能": 767,
  "昨日": 768,
  "双方": 769,
  "模式": 770,
  "海@@": 771,
  "成立": 772,
  "开@@": 773,
  "几乎": 774,
  "此次": 775,
  "2009": 776,
  "40": 777,
  "人口": 778,
  "心@@": 779,
  "线": 780,
  "其实": 781,
  "级": 782,
  "强调": 783,
  "负责人": 784,
  "听": 785,
  "段": 786,
  "上市": 787,
  "仅": 788,
  "每天": 789,
  "以下": 790,
  "主任": 791,
  "山": 792,
  "检查": 793,
  "治疗": 794,
  "各国": 795,
  "学": 796,
  "制定": 797,
  "权": 798,
  "下@@": 799,
  "西@@": 800,
  "协议": 801,
  "期": 802,
  "经验": 803,
  "找": 804,
  "22": 805,
  "尤其": 806,
  "利益": 807,
  "电话": 808,
  "方": 809,
  "官员": 810,
  "拉@@": 811,
  "形式": 812,
  "德": 813,
  "说明": 814,
  "令": 815,
  "城": 816,
  "推进": 817,
  "写": 818,
  "现象": 819,
  "采访": 820,
  "人类": 821,
  "十分": 822,
  "最高": 823,
  "几个": 824,
  "叫": 825,
  "效果": 826,
  "白@@": 827,
  "困难": 828,
  "强": 829,
  "拿": 830,
  "原则": 831,
  "秘书长": 832,
  "行": 833,
  "很大": 834,
  "规模": 835,
  "重大": 836,
  "手机": 837,
  "一天": 838,
  "台湾": 839,
  "啊": 840,
  "文@@": 841,
  "阿@@": 842,
  "发@@": 843,
  "率": 844,
  "长期": 845,
  "进": 846,
  "协调": 847,
  "四@@": 848,
  "手": 849,
  "坚持": 850,
  "意义": 851,
  "度": 852,
  "最好": 853,
  "老师": 854,
  "权利": 855,
  "23": 856,
  "费": 857,
  "当然": 858,
  "综合": 859,
  "认识": 860,
  "似乎": 861,
  "每年": 862,
  "人民币": 863,
  "经常": 864,
  "改善": 865,
  "28": 866,
  "数量": 867,
  "3@@": 868,
  "报": 869,
  "五@@": 870,
  "科技": 871,
  "国@@": 872,
  "平台": 873,
  "死": 874,
  "再次": 875,
  "见": 876,
  "消费": 877,
  "提升": 878,
  "书": 879,
  "农村": 880,
  "材料": 881,
  "共": 882,
  "儿子": 883,
  "快": 884,
  "联系": 885,
  "离开": 886,
  "安@@": 887,
  "美@@": 888,
  "首先": 889,
  "涉及": 890,
  "以后": 891,
  "必要": 892,
  "省": 893,
  "只要": 894,
  "长@@": 895,
  "体系": 896,
  "表明": 897,
  "车型": 898,
  "话": 899,
  "客户": 900,
  "培训": 901,
  "明确": 902,
  "时代": 903,
  "多少": 904,
  "简单": 905,
  "父母": 906,
  "台": 907,
  "斯": 908,
  "60": 909,
  "阶段": 910,
  "版": 911,
  "警方": 912,
  "扩大": 913,
  "微博": 914,
  "2@@": 915,
  "近日": 916,
  "父亲": 917,
  "以前": 918,
  "自然": 919,
  "亿美元": 920,
  "维持": 921,
  "全@@": 922,
  "证明": 923,
  "对@@": 924,
  "重新": 925,
  "支付": 926,
  "出口": 927,
  "通常": 928,
  "至少": 929,
  "26": 930,
  "市民": 931,
  "巨大": 932,
  "联合": 933,
  "贸易": 934,
  "居民": 935,
  "一项": 936,
  "80": 937,
  "死亡": 938,
  "当前": 939,
  "力": 940,
  "援助": 941,
  "而是": 942,
  "地震": 943,
  "昨天": 944,
  "理论": 945,
  "医生": 946,
  "公众": 947,
  "红@@": 948,
  "以@@": 949,
  "村": 950,
  "南@@": 951,
  "2008": 952,
  "组": 953,
  "对此": 954,
  "透露": 955,
  "解释": 956,
  "面对": 957,
  "克": 958,
  "位于": 959,
  "分@@": 960,
  "且": 961,
  "打@@": 962,
  "万@@": 963,
  "指": 964,
  "首次": 965,
  "来看": 966,
  "文": 967,
  "通知": 968,
  "俄罗斯": 969,
  "老": 970,
  "理事会": 971,
  "监督": 972,
  "投资者": 973,
  "外@@": 974,
  "事故": 975,
  "迅速": 976,
  "拉": 977,
  "5@@": 978,
  "网上": 979,
  "内@@": 980,
  "愿意": 981,
  "光": 982,
  "利": 983,
  "4@@": 984,
  "工业": 985,
  "商品": 986,
  "美": 987,
  "英语": 988,
  "金": 989,
  "降低": 990,
  "法国": 991,
  "德@@": 992,
  "总是": 993,
  "计算": 994,
  "比例": 995,
  "一份": 996,
  "难": 997,
  "自由": 998,
  "场": 999,
  "器": 1000,
  "只能": 1001,
  "部队": 1002,
  "干部": 1003,
  "同比": 1004,
  "限制": 1005,
  "力量": 1006,
  "状态": 1007,
  "集中": 1008,
  "团": 1009,
  "生命": 1010,
  "反映": 1011,
  "房价": 1012,
  "女性": 1013,
  "那里": 1014,
  "卡": 1015,
  "张": 1016,
  "面": 1017,
  "危机": 1018,
  "中央": 1019,
  "罗@@": 1020,
  "27": 1021,
  "也许": 1022,
  "交流": 1023,
  "6@@": 1024,
  "女": 1025,
  "处于": 1026,
  "体": 1027,
  "双@@": 1028,
  "属于": 1029,
  "正常": 1030,
  "上述": 1031,
  "二@@": 1032,
  "法院": 1033,
  "下午": 1034,
  "华@@": 1035,
  "华": 1036,
  "东@@": 1037,
  "S@@": 1038,
  "母亲": 1039,
  "完善": 1040,
  "给予": 1041,
  "犯罪": 1042,
  "能源": 1043,
  "恢复": 1044,
  "设立": 1045,
  "鼓励": 1046,
  "杨@@": 1047,
  "少": 1048,
  "林": 1049,
  "军": 1050,
  "预期": 1051,
  "广州": 1052,
  "同意": 1053,
  "相比": 1054,
  "状况": 1055,
  "花@@": 1056,
  "特@@": 1057,
  "加@@": 1058,
  "游戏": 1059,
  "先": 1060,
  "8@@": 1061,
  "不到": 1062,
  "日@@": 1063,
  "全": 1064,
  "a": 1065,
  "一条": 1066,
  "时期": 1067,
  "监管": 1068,
  "亿": 1069,
  "特": 1070,
  "资产": 1071,
  "尔": 1072,
  "出@@": 1073,
  "正@@": 1074,
  "满足": 1075,
  "评价": 1076,
  "这项": 1077,
  "7@@": 1078,
  "三个": 1079,
  "90": 1080,
  "方向": 1081,
  "口": 1082,
  "案件": 1083,
  "别人": 1084,
  "就业": 1085,
  "附近": 1086,
  "实行": 1087,
  "相对": 1088,
  "肯定": 1089,
  "广泛": 1090,
  "经历": 1091,
  "即使": 1092,
  "女人": 1093,
  "同@@": 1094,
  "优势": 1095,
  "商业": 1096,
  "合同": 1097,
  "真的": 1098,
  "调控": 1099,
  "良好": 1100,
  "气": 1101,
  "日前": 1102,
  "金融": 1103,
  "1994": 1104,
  "29": 1105,
  "多年": 1106,
  "发挥": 1107,
  "身体": 1108,
  "地位": 1109,
  "员": 1110,
  "物": 1111,
  "成@@": 1112,
  "员工": 1113,
  "利比亚": 1114,
  "食物": 1115,
  "数": 1116,
  "业": 1117,
  "印度": 1118,
  "送": 1119,
  "转@@": 1120,
  "不得": 1121,
  "人权": 1122,
  "风": 1123,
  "31": 1124,
  "平均": 1125,
  "理解": 1126,
  "国务院": 1127,
  "前@@": 1128,
  "艺术": 1129,
  "投入": 1130,
  "担心": 1131,
  "运行": 1132,
  "加入": 1133,
  "上升": 1134,
  "作品": 1135,
  "创造": 1136,
  "比如": 1137,
  "社区": 1138,
  "意味着": 1139,
  "召开": 1140,
  "周@@": 1141,
  "例如": 1142,
  "广告": 1143,
  "教师": 1144,
  "这@@": 1145,
  "世纪": 1146,
  "统计": 1147,
  "组成": 1148,
  "M@@": 1149,
  "从而": 1150,
  "充分": 1151,
  "加": 1152,
  "飞机": 1153,
  "州": 1154,
  "语言": 1155,
  "办公室": 1156,
  "承诺": 1157,
  "设施": 1158,
  "店": 1159,
  "连续": 1160,
  "符合": 1161,
  "发行": 1162,
  "避免": 1163,
  "那样": 1164,
  "生@@": 1165,
  "家@@": 1166,
  "学院": 1167,
  "速度": 1168,
  "截至": 1169,
  "套": 1170,
  "现代": 1171,
  "建筑": 1172,
  "批准": 1173,
  "加快": 1174,
  "手段": 1175,
  "更好": 1176,
  "非洲": 1177,
  "训练": 1178,
  "片": 1179,
  "本文": 1180,
  "房子": 1181,
  "变得": 1182,
  "妈妈": 1183,
  "制造": 1184,
  "明": 1185,
  "代表团": 1186,
  "教授": 1187,
  "预算": 1188,
  "独立": 1189,
  "信": 1190,
  "资本": 1191,
  "关键": 1192,
  "做出": 1193,
  "及时": 1194,
  "新华社": 1195,
  "本@@": 1196,
  "重@@": 1197,
  "整体": 1198,
  "挑战": 1199,
  "随后": 1200,
  "竞争": 1201,
  "统一": 1202,
  "时@@": 1203,
  "内部": 1204,
  "平": 1205,
  "不再": 1206,
  "下来": 1207,
  "股份": 1208,
  "知识": 1209,
  "依然": 1210,
  "评估": 1211,
  "既": 1212,
  "事务": 1213,
  "机场": 1214,
  "男人": 1215,
  "B@@": 1216,
  "吸引": 1217,
  "制": 1218,
  "维护": 1219,
  "件": 1220,
  "农业": 1221,
  "最新": 1222,
  "表": 1223,
  "C@@": 1224,
  "选举": 1225,
  "9@@": 1226,
  "为@@": 1227,
  "各地": 1228,
  "而@@": 1229,
  "当天": 1230,
  "穿": 1231,
  "举办": 1232,
  "女儿": 1233,
  "来到": 1234,
  "照片": 1235,
  "其它": 1236,
  "我@@": 1237,
  "70": 1238,
  "面积": 1239,
  "曾经": 1240,
  "电视": 1241,
  "这位": 1242,
  "回答": 1243,
  "T@@": 1244,
  "进程": 1245,
  "大型": 1246,
  "事业": 1247,
  "其@@": 1248,
  "讲": 1249,
  "斯@@": 1250,
  "大部分": 1251,
  "光@@": 1252,
  "进口": 1253,
  "党": 1254,
  "手@@": 1255,
  "可是": 1256,
  "利@@": 1257,
  "引发": 1258,
  "如@@": 1259,
  "热": 1260,
  "发表": 1261,
  "位置": 1262,
  "大多数": 1263,
  "林@@": 1264,
  "石油": 1265,
  "军事": 1266,
  "特点": 1267,
  "互联网": 1268,
  "加大": 1269,
  "意识": 1270,
  "享受": 1271,
  "危险": 1272,
  "马": 1273,
  "案": 1274,
  "记录": 1275,
  "此前": 1276,
  "承认": 1277,
  "干": 1278,
  "趋势": 1279,
  "连": 1280,
  "D@@": 1281,
  "启动": 1282,
  "1.@@": 1283,
  "电脑": 1284,
  "人才": 1285,
  "适当": 1286,
  "态度": 1287,
  "车辆": 1288,
  "1993": 1289,
  "如今": 1290,
  "电@@": 1291,
  "将会": 1292,
  "亚@@": 1293,
  "财政": 1294,
  "机关": 1295,
  "跑": 1296,
  "宣传": 1297,
  "审查": 1298,
  "管": 1299,
  "办": 1300,
  "规范": 1301,
  "快速": 1302,
  "德国": 1303,
  "200": 1304,
  "亚洲": 1305,
  "相@@": 1306,
  "合理": 1307,
  "确实": 1308,
  "王": 1309,
  "供应": 1310,
  "掉": 1311,
  "故事": 1312,
  "使得": 1313,
  "下跌": 1314,
  "草案": 1315,
  "数字": 1316,
  "检测": 1317,
  "P@@": 1318,
  "系": 1319,
  "单@@": 1320,
  "海": 1321,
  "人数": 1322,
  "普通": 1323,
  "一场": 1324,
  "职业": 1325,
  "思想": 1326,
  "而言": 1327,
  "公共": 1328,
  "入": 1329,
  "令人": 1330,
  "各项": 1331,
  "十@@": 1332,
  "战争": 1333,
  "收到": 1334,
  "那@@": 1335,
  "论坛": 1336,
  "山@@": 1337,
  "第二": 1338,
  "科": 1339,
  "还要": 1340,
  "L@@": 1341,
  "过@@": 1342,
  "普遍": 1343,
  "相当": 1344,
  "特殊": 1345,
  "谈判": 1346,
  "债务": 1347,
  "欢迎": 1348,
  "球": 1349,
  "卡@@": 1350,
  "幸福": 1351,
  "中国@@": 1352,
  "百@@": 1353,
  "动物": 1354,
  "几@@": 1355,
  "苹果": 1356,
  "道路": 1357,
  "回": 1358,
  "近期": 1359,
  "指数": 1360,
  "结合": 1361,
  "反应": 1362,
  "红": 1363,
  "农民": 1364,
  "她们": 1365,
  "H@@": 1366,
  "公里": 1367,
  "核心": 1368,
  "出台": 1369,
  "基于": 1370,
  "突然": 1371,
  "风@@": 1372,
  "某些": 1373,
  "允许": 1374,
  "妻子": 1375,
  "监测": 1376,
  "家长": 1377,
  "于是": 1378,
  "原": 1379,
  "探讨": 1380,
  "测试": 1381,
  "别": 1382,
  "B": 1383,
  "考试": 1384,
  "清楚": 1385,
  "神": 1386,
  "发出": 1387,
  "登记": 1388,
  "收费": 1389,
  "色": 1390,
  "一部分": 1391,
  "不足": 1392,
  "多个": 1393,
  "除": 1394,
  "分钟": 1395,
  "在于": 1396,
  "往往": 1397,
  "指导": 1398,
  "派": 1399,
  "车@@": 1400,
  "刚": 1401,
  "怎样": 1402,
  "古@@": 1403,
  "病": 1404,
  "根本": 1405,
  "类似": 1406,
  "0.@@": 1407,
  "气@@": 1408,
  "会@@": 1409,
  "班": 1410,
  "后@@": 1411,
  "完": 1412,
  "清@@": 1413,
  "从事": 1414,
  "后来": 1415,
  "小组": 1416,
  "板": 1417,
  "男子": 1418,
  "热@@": 1419,
  "声": 1420,
  "天气": 1421,
  "年轻": 1422,
  "冲突": 1423,
  "立即": 1424,
  "协会": 1425,
  "A@@": 1426,
  "黑@@": 1427,
  "实际上": 1428,
  "L": 1429,
  "感": 1430,
  "主题": 1431,
  "500": 1432,
  "所@@": 1433,
  "韩国": 1434,
  "现实": 1435,
  "若": 1436,
  "吴@@": 1437,
  "民族": 1438,
  "2000": 1439,
  "&#91;": 1440,
  "油": 1441,
  "优惠": 1442,
  "年度": 1443,
  "软件": 1444,
  "倍": 1445,
  "很快": 1446,
  "动力": 1447,
  "以便": 1448,
  "从@@": 1449,
  "镇": 1450,
  "以色列": 1451,
  "有所": 1452,
  "安": 1453,
  "变成": 1454,
  "缺乏": 1455,
  "值": 1456,
  "石@@": 1457,
  "威胁": 1458,
  "价": 1459,
  "第一次": 1460,
  "事实": 1461,
  "工具": 1462,
  "语": 1463,
  "基地": 1464,
  "音乐": 1465,
  "患者": 1466,
  "流": 1467,
  "房屋": 1468,
  "深圳": 1469,
  "证券": 1470,
  "层": 1471,
  "污染": 1472,
  "上午": 1473,
  "「": 1474,
  "巴@@": 1475,
  "正是": 1476,
  "」": 1477,
  "逐渐": 1478,
  "座": 1479,
  "对象": 1480,
  "开放": 1481,
  "N@@": 1482,
  "拒绝": 1483,
  "唯一": 1484,
  "永远": 1485,
  "经费": 1486,
  "开发商": 1487,
  "重庆": 1488,
  "承担": 1489,
  "操作": 1490,
  "西": 1491,
  "丰富": 1492,
  "交通": 1493,
  "是因为": 1494,
  "明@@": 1495,
  "老人": 1496,
  "咨询": 1497,
  "表达": 1498,
  "指标": 1499,
  "卖": 1500,
  "应对": 1501,
  "&#93;": 1502,
  "大幅": 1503,
  "公约": 1504,
  "免费": 1505,
  "看看": 1506,
  "C": 1507,
  "变": 1508,
  "反对": 1509,
  "想要": 1510,
  "G@@": 1511,
  "靠": 1512,
  "增强": 1513,
  "名@@": 1514,
  "头@@": 1515,
  "电子": 1516,
  "不可": 1517,
  "边": 1518,
  "一旦": 1519,
  "融资": 1520,
  "警察": 1521,
  "大约": 1522,
  "一系列": 1523,
  "平@@": 1524,
  "来@@": 1525,
  "e": 1526,
  "本身": 1527,
  "审议": 1528,
  "北京市": 1529,
  "平方米": 1530,
  "越": 1531,
  "做好": 1532,
  "．": 1533,
  "真": 1534,
  "一致": 1535,
  "早": 1536,
  "严格": 1537,
  "晚上": 1538,
  "制作": 1539,
  "身上": 1540,
  "发展中国家": 1541,
  "高级": 1542,
  "建@@": 1543,
  "复杂": 1544,
  "模型": 1545,
  "法@@": 1546,
  "成交": 1547,
  "总@@": 1548,
  "龙": 1549,
  "任": 1550,
  "即将": 1551,
  "协助": 1552,
  "好@@": 1553,
  "成绩": 1554,
  "声音": 1555,
  "进展": 1556,
  "远": 1557,
  "正确": 1558,
  "有着": 1559,
  "摄": 1560,
  "预测": 1561,
  "展开": 1562,
  "贡献": 1563,
  "错误": 1564,
  "值得": 1565,
  "河": 1566,
  "今后": 1567,
  "近年来": 1568,
  "担任": 1569,
  "动": 1570,
  "装": 1571,
  "观点": 1572,
  "条例": 1573,
  "自身": 1574,
  "课程": 1575,
  "防止": 1576,
  "回到": 1577,
  "达成": 1578,
  "儿": 1579,
  "源": 1580,
  "E@@": 1581,
  "损失": 1582,
  "非法": 1583,
  "打击": 1584,
  "回@@": 1585,
  "现有": 1586,
  "300": 1587,
  "2007": 1588,
  "适用": 1589,
  "楼": 1590,
  "提交": 1591,
  "停止": 1592,
  "爱@@": 1593,
  "公@@": 1594,
  "高校": 1595,
  "观众": 1596,
  "R@@": 1597,
  "疾病": 1598,
  "室": 1599,
  "联": 1600,
  "北@@": 1601,
  "地产": 1602,
  "连@@": 1603,
  "概念": 1604,
  "神@@": 1605,
  "建": 1606,
  "放在": 1607,
  "子@@": 1608,
  "住宅": 1609,
  "帮": 1610,
  "楼市": 1611,
  "拍": 1612,
  "部长": 1613,
  "移动": 1614,
  "两年": 1615,
  "反@@": 1616,
  "格": 1617,
  "空@@": 1618,
  "八@@": 1619,
  "紧张": 1620,
  "超@@": 1621,
  "权力": 1622,
  "适合": 1623,
  "工资": 1624,
  "观察": 1625,
  "酒": 1626,
  "重": 1627,
  "发言": 1628,
  "回家": 1629,
  "体现": 1630,
  "背景": 1631,
  "真@@": 1632,
  "股": 1633,
  "民众": 1634,
  "利率": 1635,
  "力度": 1636,
  "主@@": 1637,
  "办理": 1638,
  "些": 1639,
  "培养": 1640,
  "海外": 1641,
  "鱼": 1642,
  "原@@": 1643,
  "物质": 1644,
  "字": 1645,
  "医疗": 1646,
  "身份": 1647,
  "流@@": 1648,
  "行@@": 1649,
  "听到": 1650,
  "环保": 1651,
  "事实上": 1652,
  "低@@": 1653,
  "实验": 1654,
  "学@@": 1655,
  "并非": 1656,
  "比@@": 1657,
  "访问": 1658,
  "布@@": 1659,
  "非@@": 1660,
  "遇到": 1661,
  "寻找": 1662,
  "较大": 1663,
  "武器": 1664,
  "教": 1665,
  "南": 1666,
  "女士": 1667,
  "大学生": 1668,
  "专门": 1669,
  "视频": 1670,
  "看来": 1671,
  "看见": 1672,
  "奥巴马": 1673,
  "利润": 1674,
  "文章": 1675,
  "结婚": 1676,
  "眼睛": 1677,
  "六@@": 1678,
  "名字": 1679,
  "东": 1680,
  "年@@": 1681,
  "对方": 1682,
  "节目": 1683,
  "一件": 1684,
  "赵@@": 1685,
  "理由": 1686,
  "普@@": 1687,
  "倒": 1688,
  "酒店": 1689,
  "药": 1690,
  "票": 1691,
  "先@@": 1692,
  "税": 1693,
  "衣服": 1694,
  "女孩": 1695,
  "落实": 1696,
  "伦敦": 1697,
  "加上": 1698,
  "江": 1699,
  "千@@": 1700,
  "重视": 1701,
  "分配": 1702,
  "出席": 1703,
  "节": 1704,
  "民": 1705,
  "律师": 1706,
  "更是": 1707,
  "公民": 1708,
  "没@@": 1709,
  "一张": 1710,
  "收购": 1711,
  "35": 1712,
  "禁止": 1713,
  "终于": 1714,
  "难以": 1715,
  "油@@": 1716,
  "试验": 1717,
  "新华": 1718,
  "供": 1719,
  "证": 1720,
  "高兴": 1721,
  "何@@": 1722,
  "伊拉克": 1723,
  "里面": 1724,
  "规则": 1725,
  "四": 1726,
  "估计": 1727,
  "协商": 1728,
  "龙@@": 1729,
  "快乐": 1730,
  "周": 1731,
  "传播": 1732,
  "游客": 1733,
  "广东": 1734,
  "克@@": 1735,
  "外国": 1736,
  "科@@": 1737,
  "门@@": 1738,
  "方@@": 1739,
  "定": 1740,
  "领导人": 1741,
  "年代": 1742,
  "确认": 1743,
  "朱@@": 1744,
  "我要": 1745,
  "特色": 1746,
  "F@@": 1747,
  "家里": 1748,
  "港": 1749,
  "超": 1750,
  "股票": 1751,
  "罪": 1752,
  "回应": 1753,
  "铁@@": 1754,
  "各@@": 1755,
  "波": 1756,
  "岛": 1757,
  "展示": 1758,
  "回来": 1759,
  "两人": 1760,
  "受@@": 1761,
  "奖": 1762,
  "进@@": 1763,
  "或许": 1764,
  "s": 1765,
  "民主": 1766,
  "直到": 1767,
  "厅": 1768,
  "剂": 1769,
  "每@@": 1770,
  "放": 1771,
  "保险": 1772,
  "平衡": 1773,
  "户": 1774,
  "时尚": 1775,
  "一只": 1776,
  "为主": 1777,
  "入@@": 1778,
  "限购": 1779,
  "太@@": 1780,
  "发言人": 1781,
  "生物": 1782,
  "形象": 1783,
  "尔@@": 1784,
  "涨幅": 1785,
  "永@@": 1786,
  "失去": 1787,
  "2012": 1788,
  "半@@": 1789,
  "众多": 1790,
  "通@@": 1791,
  "欧盟": 1792,
  "年底": 1793,
  "000": 1794,
  "选": 1795,
  "工人": 1796,
  "出去": 1797,
  "图片": 1798,
  "十二五": 1799,
  "自动": 1800,
  "K@@": 1801,
  "纽约": 1802,
  "之外": 1803,
  "系列": 1804,
  "做法": 1805,
  "自主": 1806,
  "显然": 1807,
  "实践": 1808,
  "强@@": 1809,
  "丈夫": 1810,
  "各级": 1811,
  "资格": 1812,
  "界": 1813,
  "里@@": 1814,
  "读": 1815,
  "品": 1816,
  "构成": 1817,
  "对话": 1818,
  "主": 1819,
  "作@@": 1820,
  "1000": 1821,
  "不得不": 1822,
  "亦": 1823,
  "题": 1824,
  "依法": 1825,
  "最佳": 1826,
  "女@@": 1827,
  "逐步": 1828,
  "火@@": 1829,
  "得@@": 1830,
  "大陆": 1831,
  "谈": 1832,
  "S": 1833,
  "性能": 1834,
  "临时": 1835,
  "不错": 1836,
  "放弃": 1837,
  "设置": 1838,
  "沙@@": 1839,
  "取消": 1840,
  "有时": 1841,
  "突出": 1842,
  "成果": 1843,
  "青年": 1844,
  "特征": 1845,
  "高度": 1846,
  "足够": 1847,
  "著名": 1848,
  "最@@": 1849,
  "意思": 1850,
  "国外": 1851,
  "声明": 1852,
  "胡@@": 1853,
  "当@@": 1854,
  "联盟": 1855,
  "明年": 1856,
  "明星": 1857,
  "内地": 1858,
  "结论": 1859,
  "基": 1860,
  "原来": 1861,
  "用@@": 1862,
  "徐@@": 1863,
  "据悉": 1864,
  "社会主义": 1865,
  "须": 1866,
  "运输": 1867,
  "战": 1868,
  "体育": 1869,
  "包": 1870,
  "低于": 1871,
  "合": 1872,
  "类型": 1873,
  "应@@": 1874,
  "1995": 1875,
  "船": 1876,
  "经理": 1877,
  "相应": 1878,
  "飞": 1879,
  "转变": 1880,
  "多次": 1881,
  "电": 1882,
  "违法": 1883,
  "货币": 1884,
  "面前": 1885,
  "火": 1886,
  "老板": 1887,
  "词": 1888,
  "基@@": 1889,
  "破坏": 1890,
  "干@@": 1891,
  "采购": 1892,
  "改进": 1893,
  "呼吁": 1894,
  "放@@": 1895,
  "余@@": 1896,
  "方便": 1897,
  "获悉": 1898,
  "房间": 1899,
  "风格": 1900,
  "充满": 1901,
  "变@@": 1902,
  "西方": 1903,
  "商": 1904,
  "就要": 1905,
  "细胞": 1906,
  "在内": 1907,
  "夫": 1908,
  "画": 1909,
  "铁路": 1910,
  "预防": 1911,
  "尊重": 1912,
  "补贴": 1913,
  "云": 1914,
  "有点": 1915,
  "地球": 1916,
  "航空": 1917,
  "核": 1918,
  "身": 1919,
  "主动": 1920,
  "工": 1921,
  "药物": 1922,
  "业绩": 1923,
  "我会": 1924,
  "总理": 1925,
  "未@@": 1926,
  "打算": 1927,
  "强烈": 1928,
  "哈@@": 1929,
  "深@@": 1930,
  "之中": 1931,
  "无论": 1932,
  "青@@": 1933,
  "48": 1934,
  "提醒": 1935,
  "深入": 1936,
  "情绪": 1937,
  "合@@": 1938,
  "关心": 1939,
  "笑": 1940,
  "旅客": 1941,
  "证据": 1942,
  "团队": 1943,
  "五": 1944,
  "到底": 1945,
  "意大利": 1946,
  "邀请": 1947,
  "考生": 1948,
  "所谓": 1949,
  "伊朗": 1950,
  "民警": 1951,
  "人物": 1952,
  "2006": 1953,
  "45": 1954,
  "推广": 1955,
  "违反": 1956,
  "股东": 1957,
  "形势": 1958,
  "转移": 1959,
  "策略": 1960,
  "通胀": 1961,
  "难@@": 1962,
  "和@@": 1963,
  "更为": 1964,
  "同学": 1965,
  "签署": 1966,
  "孙@@": 1967,
  "布": 1968,
  "接近": 1969,
  "单": 1970,
  "试图": 1971,
  "尚未": 1972,
  "起@@": 1973,
  "渠道": 1974,
  "角色": 1975,
  "在线": 1976,
  "心理": 1977,
  "雷@@": 1978,
  "新闻网": 1979,
  "当局": 1980,
  "义务": 1981,
  "皮": 1982,
  "称为": 1983,
  "首@@": 1984,
  "块": 1985,
  "协定": 1986,
  "距离": 1987,
  "1996": 1988,
  "牌": 1989,
  "直@@": 1990,
  "紧急": 1991,
  "成长": 1992,
  "收@@": 1993,
  "接触": 1994,
  "苏@@": 1995,
  "感受": 1996,
  "突破": 1997,
  "桥": 1998,
  "至今": 1999,
  "质疑": 2000,
  "七@@": 2001,
  "公平": 2002,
  "财产": 2003,
  "支出": 2004,
  "为此": 2005,
  "刚刚": 2006,
  "要@@": 2007,
  "补充": 2008,
  "树": 2009,
  "伤": 2010,
  "坐在": 2011,
  "V@@": 2012,
  "不想": 2013,
  "消除": 2014,
  "底": 2015,
  "保@@": 2016,
  "受伤": 2017,
  "菜": 2018,
  "满意": 2019,
  "说法": 2020,
  "不管": 2021,
  "相": 2022,
  "数@@": 2023,
  "第一个": 2024,
  "感谢": 2025,
  "转": 2026,
  "肉": 2027,
  "安装": 2028,
  "性@@": 2029,
  "西藏": 2030,
  "公务员": 2031,
  "达@@": 2032,
  "优先": 2033,
  "信心": 2034,
  "e@@": 2035,
  "官方": 2036,
  "前往": 2037,
  "发动机": 2038,
  "再@@": 2039,
  "立@@": 2040,
  "想法": 2041,
  "军@@": 2042,
  "代@@": 2043,
  "颜色": 2044,
  "留下": 2045,
  "习惯": 2046,
  "运用": 2047,
  "已有": 2048,
  "出版": 2049,
  "十年": 2050,
  "几年": 2051,
  "以为": 2052,
  "明白": 2053,
  "该@@": 2054,
  "赛": 2055,
  "厂": 2056,
  "坐": 2057,
  "家人": 2058,
  "详细": 2059,
  "师": 2060,
  "万人": 2061,
  "绿色": 2062,
  "往": 2063,
  "列": 2064,
  "打开": 2065,
  "提@@": 2066,
  "春节": 2067,
  "维@@": 2068,
  "委员": 2069,
  "尼": 2070,
  "2005": 2071,
  "排@@": 2072,
  "部署": 2073,
  "主义": 2074,
  "街": 2075,
  "多数": 2076,
  "江@@": 2077,
  "履行": 2078,
  "提到": 2079,
  "做到": 2080,
  "奥运会": 2081,
  "股市": 2082,
  "s@@": 2083,
  "收益": 2084,
  "伊@@": 2085,
  "公告": 2086,
  "重建": 2087,
  "尼@@": 2088,
  "期待": 2089,
  "提前": 2090,
  "基层": 2091,
  "予以": 2092,
  "情": 2093,
  "有助于": 2094,
  "调@@": 2095,
  "看起来": 2096,
  "评论": 2097,
  "角度": 2098,
  "现金": 2099,
  "--": 2100,
  "南京": 2101,
  "奥@@": 2102,
  "石": 2103,
  "能@@": 2104,
  "真实": 2105,
  "配置": 2106,
  "书记": 2107,
  "体@@": 2108,
  "盘": 2109,
  "军队": 2110,
  "共和国": 2111,
  "格@@": 2112,
  "拍摄": 2113,
  "地点": 2114,
  "手术": 2115,
  "革命": 2116,
  "金额": 2117,
  "满": 2118,
  "运营": 2119,
  "适应": 2120,
  "大规模": 2121,
  "共有": 2122,
  "工@@": 2123,
  "矛盾": 2124,
  "t@@": 2125,
  "今日": 2126,
  "三年": 2127,
  "卫生": 2128,
  "点@@": 2129,
  "乐@@": 2130,
  "飞@@": 2131,
  "遭遇": 2132,
  "机@@": 2133,
  "架": 2134,
  "降": 2135,
  "皮@@": 2136,
  "工厂": 2137,
  "生态": 2138,
  "秘书": 2139,
  "o": 2140,
  "加工": 2141,
  "年龄": 2142,
  "追求": 2143,
  "份": 2144,
  "化@@": 2145,
  "各方": 2146,
  "澳大利亚": 2147,
  "效率": 2148,
  "信号": 2149,
  "米@@": 2150,
  "升级": 2151,
  "玩": 2152,
  "证实": 2153,
  "空": 2154,
  "教学": 2155,
  "纳": 2156,
  "进步": 2157,
  "央行": 2158,
  "推荐": 2159,
  "相同": 2160,
  "有限": 2161,
  "春@@": 2162,
  "纷纷": 2163,
  "用来": 2164,
  "蔬菜": 2165,
  "优秀": 2166,
  "定@@": 2167,
  "i@@": 2168,
  "说话": 2169,
  "具备": 2170,
  "白": 2171,
  "罗": 2172,
  "已@@": 2173,
  "纳@@": 2174,
  "科学家": 2175,
  "第三": 2176,
  "口@@": 2177,
  "防@@": 2178,
  "显得": 2179,
  "下去": 2180,
  "10@@": 2181,
  "人生": 2182,
  "波@@": 2183,
  "是不是": 2184,
  "阅读": 2185,
  "两种": 2186,
  "不好": 2187,
  "理想": 2188,
  "涨": 2189,
  "或是": 2190,
  "注册": 2191,
  "差": 2192,
  "W@@": 2193,
  "皮肤": 2194,
  "修改": 2195,
  "获": 2196,
  "反": 2197,
  "研发": 2198,
  "阳": 2199,
  "爱情": 2200,
  "掌握": 2201,
  "引导": 2202,
  "绝对": 2203,
  "阿富汗": 2204,
  "持有": 2205,
  "乐": 2206,
  "黑": 2207,
  "请求": 2208,
  "院": 2209,
  "娱乐": 2210,
  "美丽": 2211,
  "伤害": 2212,
  "粮食": 2213,
  "九@@": 2214,
  "理念": 2215,
  "不够": 2216,
  "载": 2217,
  "喝": 2218,
  "~": 2219,
  "海洋": 2220,
  "各类": 2221,
  "i": 2222,
  "看@@": 2223,
  "0": 2224,
  "云@@": 2225,
  "常常": 2226,
  "血@@": 2227,
  "复@@": 2228,
  "接@@": 2229,
  "仅仅": 2230,
  "常@@": 2231,
  "第一@@": 2232,
  "年轻人": 2233,
  "损害": 2234,
  "2.@@": 2235,
  "表面": 2236,
  "力@@": 2237,
  "报@@": 2238,
  "+": 2239,
  "居住": 2240,
  "村民": 2241,
  "失败": 2242,
  "攻击": 2243,
  "经@@": 2244,
  "于@@": 2245,
  "英@@": 2246,
  "本次": 2247,
  "木@@": 2248,
  "他@@": 2249,
  "通": 2250,
  "境内": 2251,
  "园": 2252,
  "出售": 2253,
  "I": 2254,
  "赔偿": 2255,
  "属": 2256,
  "首都": 2257,
  "远@@": 2258,
  "他人": 2259,
  "收": 2260,
  "农@@": 2261,
  "病人": 2262,
  "全新": 2263,
  "执法": 2264,
  "飞行": 2265,
  "网@@": 2266,
  "改造": 2267,
  "公园": 2268,
  "公路": 2269,
  "司机": 2270,
  "初步": 2271,
  "小区": 2272,
  "失@@": 2273,
  "眼": 2274,
  "道德": 2275,
  "先进": 2276,
  "多种": 2277,
  "微@@": 2278,
  "球员": 2279,
  "表演": 2280,
  "群体": 2281,
  "尝试": 2282,
  "楼盘": 2283,
  "难民": 2284,
  "当日": 2285,
  "冷@@": 2286,
  "日益": 2287,
  "有利于": 2288,
  "探索": 2289,
  "节能": 2290,
  "加拿大": 2291,
  "标志": 2292,
  "群": 2293,
  "全省": 2294,
  "一套": 2295,
  "集体": 2296,
  "象": 2297,
  "作者": 2298,
  "越@@": 2299,
  "峰": 2300,
  "最低": 2301,
  "配合": 2302,
  "委": 2303,
  "信@@": 2304,
  "博@@": 2305,
  "角": 2306,
  "传@@": 2307,
  "台@@": 2308,
  "课": 2309,
  "成都": 2310,
  "离": 2311,
  "寻求": 2312,
  "英": 2313,
  "星": 2314,
  "指定": 2315,
  "面@@": 2316,
  "空气": 2317,
  "y": 2318,
  "体制": 2319,
  "描述": 2320,
  "毛@@": 2321,
  "红色": 2322,
  "汉@@": 2323,
  "狗": 2324,
  "动@@": 2325,
  "集": 2326,
  "吉@@": 2327,
  "日子": 2328,
  "几天": 2329,
  "体验": 2330,
  "局势": 2331,
  "处罚": 2332,
  "司法": 2333,
  "装置": 2334,
  "脚": 2335,
  "E": 2336,
  "升": 2337,
  "广@@": 2338,
  "於": 2339,
  "下面": 2340,
  "业主": 2341,
  "例": 2342,
  "很少": 2343,
  "现": 2344,
  "的确": 2345,
  "D": 2346,
  "中国政府": 2347,
  "b": 2348,
  "上面": 2349,
  "法庭": 2350,
  "名单": 2351,
  "沟通": 2352,
  "为何": 2353,
  "认真": 2354,
  "等待": 2355,
  "女子": 2356,
  "电力": 2357,
  "莫@@": 2358,
  "检验": 2359,
  "仪式": 2360,
  "始终": 2361,
  "成熟": 2362,
  "O@@": 2363,
  "人群": 2364,
  "相互": 2365,
  "当中": 2366,
  "血": 2367,
  "事项": 2368,
  "议程": 2369,
  "打造": 2370,
  "治理": 2371,
  "言": 2372,
  "性质": 2373,
  "交@@": 2374,
  "决策": 2375,
  "恩": 2376,
  "杂志": 2377,
  "民@@": 2378,
  "清": 2379,
  "亚": 2380,
  "精@@": 2381,
  "哪里": 2382,
  "错": 2383,
  "伟": 2384,
  "可能性": 2385,
  "上市公司": 2386,
  "判断": 2387,
  "别@@": 2388,
  "私人": 2389,
  "上半年": 2390,
  "见到": 2391,
  "股权": 2392,
  "兵": 2393,
  "包@@": 2394,
  "书@@": 2395,
  "顾客": 2396,
  "乡": 2397,
  "先后": 2398,
  "移民": 2399,
  "植物": 2400,
  "武汉": 2401,
  "b@@": 2402,
  "章": 2403,
  "因@@": 2404,
  "广大": 2405,
  "公": 2406,
  "怀疑": 2407,
  "取@@": 2408,
  "能否": 2409,
  "署": 2410,
  "小姐": 2411,
  "办事处": 2412,
  "否则": 2413,
  "各个": 2414,
  "叶@@": 2415,
  "条约": 2416,
  "更大": 2417,
  "优化": 2418,
  "财富": 2419,
  "不用": 2420,
  "刺激": 2421,
  "马上": 2422,
  "尽快": 2423,
  "深": 2424,
  "兰": 2425,
  "依据": 2426,
  "32": 2427,
  "那种": 2428,
  "曝光": 2429,
  "脸": 2430,
  "立法": 2431,
  "真是": 2432,
  "推@@": 2433,
  "好像": 2434,
  "明天": 2435,
  "货": 2436,
  "总体": 2437,
  "驻": 2438,
  "框架": 2439,
  "暴力": 2440,
  "月底": 2441,
  "西部": 2442,
  "情@@": 2443,
  "带@@": 2444,
  "试点": 2445,
  "过来": 2446,
  "并未": 2447,
  "新疆": 2448,
  "当年": 2449,
  "笔": 2450,
  "累计": 2451,
  "一边": 2452,
  "贵": 2453,
  "业内人士": 2454,
  "纳入": 2455,
  "森": 2456,
  "质": 2457,
  "圣@@": 2458,
  "强大": 2459,
  "含": 2460,
  "3000": 2461,
  "赢得": 2462,
  "】": 2463,
  "族": 2464,
  "袭击": 2465,
  "李": 2466,
  "兴趣": 2467,
  "此@@": 2468,
  "幼儿园": 2469,
  "保留": 2470,
  "小学": 2471,
  "团体": 2472,
  "意": 2473,
  "毕业": 2474,
  "浙江": 2475,
  "宝@@": 2476,
  "易@@": 2477,
  "结@@": 2478,
  "接到": 2479,
  "吨": 2480,
  "活": 2481,
  "死@@": 2482,
  "学会": 2483,
  "收集": 2484,
  "旅行": 2485,
  "俱乐部": 2486,
  "首席": 2487,
  "计算机": 2488,
  "货物": 2489,
  "万美元": 2490,
  "审计": 2491,
  "这件": 2492,
  "到达": 2493,
  "哪": 2494,
  "埃及": 2495,
  "痛苦": 2496,
  "森林": 2497,
  "400": 2498,
  "伟大": 2499,
  "塔": 2500,
  "世@@": 2501,
  "劳动": 2502,
  "超市": 2503,
  "山东": 2504,
  "奇": 2505,
  "看法": 2506,
  "细节": 2507,
  "客": 2508,
  "另一方面": 2509,
  "轮": 2510,
  "少@@": 2511,
  "包含": 2512,
  "1@@": 2513,
  "展": 2514,
  "J@@": 2515,
  "武@@": 2516,
  "五年": 2517,
  "眼@@": 2518,
  "信任": 2519,
  "杭州": 2520,
  "遵守": 2521,
  "塔@@": 2522,
  "遭到": 2523,
  "T": 2524,
  "演员": 2525,
  "这场": 2526,
  "两岸": 2527,
  "平等": 2528,
  "一半": 2529,
  "状": 2530,
  "谢@@": 2531,
  "梦想": 2532,
  "职务": 2533,
  "成就": 2534,
  "药品": 2535,
  "条款": 2536,
  "5000": 2537,
  "显著": 2538,
  "职工": 2539,
  "男": 2540,
  "满@@": 2541,
  "用地": 2542,
  "工艺": 2543,
  "冰@@": 2544,
  "路@@": 2545,
  "形": 2546,
  "换@@": 2547,
  "l@@": 2548,
  "遭": 2549,
  "婚姻": 2550,
  "黄金": 2551,
  "亮": 2552,
  "球队": 2553,
  "以外": 2554,
  "韩@@": 2555,
  "补@@": 2556,
  "批评": 2557,
  "保障性": 2558,
  "对外": 2559,
  "一方面": 2560,
  "根": 2561,
  "顺利": 2562,
  "3.@@": 2563,
  "管@@": 2564,
  "雪@@": 2565,
  "房@@": 2566,
  "上调": 2567,
  "病@@": 2568,
  "发布会": 2569,
  "婚礼": 2570,
  "每次": 2571,
  "算": 2572,
  "照": 2573,
  "郭@@": 2574,
  "很难": 2575,
  "财务": 2576,
  "购物": 2577,
  "存款": 2578,
  "近@@": 2579,
  "福@@": 2580,
  "志@@": 2581,
  "自我": 2582,
  "民生": 2583,
  "和谐": 2584,
  "一是": 2585,
  "研究所": 2586,
  "英文": 2587,
  "立": 2588,
  "感情": 2589,
  "36": 2590,
  "玉@@": 2591,
  "1992": 2592,
  "博物馆": 2593,
  "m@@": 2594,
  "一辆": 2595,
  "下列": 2596,
  "教@@": 2597,
  "分析师": 2598,
  "周围": 2599,
  "求": 2600,
  "争议": 2601,
  "队伍": 2602,
  "一批": 2603,
  "身@@": 2604,
  "等等": 2605,
  "作业": 2606,
  "耶和华": 2607,
  "土@@": 2608,
  "总部": 2609,
  "【": 2610,
  "想到": 2611,
  "灯": 2612,
  "安理会": 2613,
  "警告": 2614,
  "d@@": 2615,
  "爸爸": 2616,
  "不久": 2617,
  "解@@": 2618,
  "信贷": 2619,
  "一步": 2620,
  "P": 2621,
  "食": 2622,
  "环节": 2623,
  "效应": 2624,
  "杀": 2625,
  "四个": 2626,
  "心里": 2627,
  "投@@": 2628,
  "湖": 2629,
  "高达": 2630,
  "航班": 2631,
  "y@@": 2632,
  "制@@": 2633,
  "不了": 2634,
  "缓解": 2635,
  "运作": 2636,
  "城@@": 2637,
  "实力": 2638,
  "出生": 2639,
  "局面": 2640,
  "背后": 2641,
  "投票": 2642,
  "一块": 2643,
  "官": 2644,
  "增速": 2645,
  "卫星": 2646,
  "农民工": 2647,
  "油价": 2648,
  "全市": 2649,
  "温@@": 2650,
  "取": 2651,
  "犯": 2652,
  "法规": 2653,
  "人民政府": 2654,
  "18@@": 2655,
  "乘客": 2656,
  "许@@": 2657,
  "文明": 2658,
  "联@@": 2659,
  "阳光": 2660,
  "保": 2661,
  "环比": 2662,
  "希腊": 2663,
  "独特": 2664,
  "郑@@": 2665,
  "晓@@": 2666,
  "降价": 2667,
  "艾@@": 2668,
  "四川": 2669,
  "道@@": 2670,
  "董事长": 2671,
  "领土": 2672,
  "元@@": 2673,
  "法官": 2674,
  "退@@": 2675,
  "局长": 2676,
  "走@@": 2677,
  "分子": 2678,
  "照顾": 2679,
  "产": 2680,
  "授权": 2681,
  "高速": 2682,
  "然": 2683,
  "与此同时": 2684,
  "唐@@": 2685,
  "人道主义": 2686,
  "高考": 2687,
  "上周": 2688,
  "新增": 2689,
  "萨@@": 2690,
  "2004": 2691,
  "南部": 2692,
  "关@@": 2693,
  "33": 2694,
  "民间": 2695,
  "至于": 2696,
  "史": 2697,
  "销量": 2698,
  "房产": 2699,
  "答案": 2700,
  "M": 2701,
  "讲话": 2702,
  "游": 2703,
  "物品": 2704,
  "司": 2705,
  "温度": 2706,
  "给出": 2707,
  "在@@": 2708,
  "思@@": 2709,
  "杜@@": 2710,
  "分布": 2711,
  "思考": 2712,
  "论": 2713,
  "纸": 2714,
  "组合": 2715,
  "待": 2716,
  "六": 2717,
  "记得": 2718,
  "差异": 2719,
  "分享": 2720,
  "武装": 2721,
  "一片": 2722,
  "身边": 2723,
  "银@@": 2724,
  "增@@": 2725,
  "周年": 2726,
  "年前": 2727,
  "依照": 2728,
  "驾驶": 2729,
  "实在": 2730,
  "义": 2731,
  "创作": 2732,
  "特性": 2733,
  "只@@": 2734,
  "导演": 2735,
  "影片": 2736,
  "将来": 2737,
  "料": 2738,
  "修@@": 2739,
  "这家": 2740,
  "著": 2741,
  "日期": 2742,
  "团购": 2743,
  "毕业生": 2744,
  "中华人民共和国": 2745,
  "38": 2746,
  "嫌疑人": 2747,
  "租赁": 2748,
  "前景": 2749,
  "鲁@@": 2750,
  "选@@": 2751,
  "完美": 2752,
  "养@@": 2753,
  "梅@@": 2754,
  "时刻": 2755,
  "转让": 2756,
  "一周": 2757,
  "愿": 2758,
  "同事": 2759,
  "转型": 2760,
  "47": 2761,
  "一个月": 2762,
  "准确": 2763,
  "杰": 2764,
  "大众": 2765,
  "抗@@": 2766,
  "动作": 2767,
  "轻@@": 2768,
  "秘密": 2769,
  "足球": 2770,
  "高端": 2771,
  "关": 2772,
  "接": 2773,
  "额": 2774,
  "49": 2775,
  "每月": 2776,
  "连接": 2777,
  "这儿": 2778,
  "职责": 2779,
  "交": 2780,
  "战@@": 2781,
  "装备": 2782,
  "职位": 2783,
  "完整": 2784,
  "宁": 2785,
  "赴": 2786,
  "75": 2787,
  "障碍": 2788,
  "所在": 2789,
  "h@@": 2790,
  "天津": 2791,
  "基金会": 2792,
  "d": 2793,
  "联邦": 2794,
  "男性": 2795,
  "传": 2796,
  "下滑": 2797,
  "彻底": 2798,
  "冠军": 2799,
  "披露": 2800,
  "负担": 2801,
  "一段": 2802,
  "看着": 2803,
  "上帝": 2804,
  "初@@": 2805,
  "34": 2806,
  "招生": 2807,
  "指@@": 2808,
  "脱@@": 2809,
  "c@@": 2810,
  "热情": 2811,
  "无疑": 2812,
  "泰@@": 2813,
  "独@@": 2814,
  "实@@": 2815,
  "落": 2816,
  "覆盖": 2817,
  "流行": 2818,
  "有望": 2819,
  "苦@@": 2820,
  "瑞@@": 2821,
  "兰@@": 2822,
  "管制": 2823,
  "本人": 2824,
  "包装": 2825,
  "宗": 2826,
  "全世界": 2827,
  "朝": 2828,
  "编辑": 2829,
  "含量": 2830,
  "报纸": 2831,
  "未能": 2832,
  "省@@": 2833,
  "兄弟": 2834,
  "意外": 2835,
  "设": 2836,
  "强化": 2837,
  "句": 2838,
  "调": 2839,
  "游@@": 2840,
  "短期": 2841,
  "资助": 2842,
  "声@@": 2843,
  "唱": 2844,
  "搞": 2845,
  "居": 2846,
  "p@@": 2847,
  "旨在": 2848,
  "编制": 2849,
  "途径": 2850,
  "托@@": 2851,
  "a@@": 2852,
  "图@@": 2853,
  "冲击": 2854,
  "日报": 2855,
  "京报": 2856,
  "一款": 2857,
  "常": 2858,
  "星期": 2859,
  "压@@": 2860,
  "建成": 2861,
  "巴基斯坦": 2862,
  "更@@": 2863,
  "智能": 2864,
  "以往": 2865,
  "多家": 2866,
  "作家": 2867,
  "田@@": 2868,
  "本地": 2869,
  "打电话": 2870,
  "整@@": 2871,
  "欧元": 2872,
  "西班牙": 2873,
  "投诉": 2874,
  "释放": 2875,
  "特定": 2876,
  "日起": 2877,
  "共@@": 2878,
  "二是": 2879,
  "洪@@": 2880,
  "被@@": 2881,
  "感染": 2882,
  "中国共产党": 2883,
  "演出": 2884,
  "食品安全": 2885,
  "一句": 2886,
  "哪些": 2887,
  "总结": 2888,
  "病毒": 2889,
  "忙": 2890,
  "加速": 2891,
  "支助": 2892,
  "生存": 2893,
  "救援": 2894,
  "支撑": 2895,
  "查询": 2896,
  "牛@@": 2897,
  "望": 2898,
  "还会": 2899,
  "离婚": 2900,
  "素": 2901,
  "试@@": 2902,
  "－": 2903,
  "地说": 2904,
  "子女": 2905,
  "期限": 2906,
  "运动员": 2907,
  "百分点": 2908,
  "定期": 2909,
  "想@@": 2910,
  "冲@@": 2911,
  "刀": 2912,
  "是从": 2913,
  "假": 2914,
  "要是": 2915,
  "更新": 2916,
  "回落": 2917,
  "主管部门": 2918,
  "定义": 2919,
  "必@@": 2920,
  "假@@": 2921,
  "杯": 2922,
  "发放": 2923,
  "危害": 2924,
  "排": 2925,
  "会员国": 2926,
  "元素": 2927,
  "万吨": 2928,
  "之下": 2929,
  "究竟": 2930,
  "异@@": 2931,
  "送@@": 2932,
  "顿": 2933,
  "见@@": 2934,
  "说@@": 2935,
  "两次": 2936,
  "较为": 2937,
  "黄": 2938,
  "创业": 2939,
  "想象": 2940,
  "尽": 2941,
  "酸": 2942,
  "er": 2943,
  "补偿": 2944,
  "姆": 2945,
  "任@@": 2946,
  "中学": 2947,
  "换": 2948,
  "晚": 2949,
  "参考": 2950,
  "时报": 2951,
  "排放": 2952,
  "顾问": 2953,
  "同志": 2954,
  "实": 2955,
  "核@@": 2956,
  "麦@@": 2957,
  "黑色": 2958,
  "55": 2959,
  "图书馆": 2960,
  "垃圾": 2961,
  "表@@": 2962,
  "卡扎菲": 2963,
  "通信": 2964,
  "争取": 2965,
  "改@@": 2966,
  "中间": 2967,
  "担忧": 2968,
  "总经理": 2969,
  "专@@": 2970,
  "高于": 2971,
  "人民法院": 2972,
  "固定": 2973,
  "持": 2974,
  "瓦@@": 2975,
  "巴": 2976,
  "预@@": 2977,
  "白色": 2978,
  "该国": 2979,
  "到@@": 2980,
  "名称": 2981,
  "测量": 2982,
  "吃@@": 2983,
  "中新网": 2984,
  "胜利": 2985,
  "新型": 2986,
  "朝鲜": 2987,
  "库": 2988,
  "典型": 2989,
  "罚款": 2990,
  "领@@": 2991,
  "返回": 2992,
  "太阳": 2993,
  "雨": 2994,
  "雅@@": 2995,
  "征收": 2996,
  "产量": 2997,
  "亲@@": 2998,
  "应急": 2999,
  "星@@": 3000,
  "养": 3001,
  "一座": 3002,
  "签订": 3003,
  "成员国": 3004,
  "市长": 3005,
  "极大": 3006,
  "差距": 3007,
  "涨价": 3008,
  "提": 3009,
  "呈现": 3010,
  "地铁": 3011,
  "加以": 3012,
  "骨": 3013,
  "涉嫌": 3014,
  "含有": 3015,
  "江苏": 3016,
  "活@@": 3017,
  "莱@@": 3018,
  "求@@": 3019,
  "定位": 3020,
  "密切": 3021,
  "激烈": 3022,
  "记": 3023,
  "巴西": 3024,
  "爆炸": 3025,
  "品质": 3026,
  "4.@@": 3027,
  "叶": 3028,
  "幅度": 3029,
  "网民": 3030,
  "空调": 3031,
  "装@@": 3032,
  "I@@": 3033,
  "海南": 3034,
  "创建": 3035,
  "偏@@": 3036,
  "租房": 3037,
  "化学": 3038,
  "向@@": 3039,
  "迪": 3040,
  "c": 3041,
  "违规": 3042,
  "经典": 3043,
  "男孩": 3044,
  "二十@@": 3045,
  "关闭": 3046,
  "视为": 3047,
  "藏": 3048,
  "品种": 3049,
  "代理": 3050,
  "t": 3051,
  "暂时": 3052,
  "话题": 3053,
  "股价": 3054,
  "债券": 3055,
  "香@@": 3056,
  "制订": 3057,
  "金属": 3058,
  "草": 3059,
  "漂亮": 3060,
  "田": 3061,
  "宗教": 3062,
  "味": 3063,
  "阿": 3064,
  "正如": 3065,
  "流动": 3066,
  "早上": 3067,
  "很@@": 3068,
  "从来": 3069,
  "遭受": 3070,
  "旧": 3071,
  "er@@": 3072,
  "酒@@": 3073,
  "发达": 3074,
  "造型": 3075,
  "步": 3076,
  "地面": 3077,
  "诉讼": 3078,
  "博士": 3079,
  "随@@": 3080,
  "届": 3081,
  "落@@": 3082,
  "走进": 3083,
  "丽@@": 3084,
  "代": 3085,
  "获取": 3086,
  "主体": 3087,
  "最为": 3088,
  "此事": 3089,
  "齐@@": 3090,
  "高铁": 3091,
  "贝@@": 3092,
  "美国@@": 3093,
  "营养": 3094,
  "37": 3095,
  "陷入": 3096,
  "梁@@": 3097,
  "液": 3098,
  "重要性": 3099,
  "600": 3100,
  "青少年": 3101,
  "查@@": 3102,
  "支": 3103,
  "青": 3104,
  "各自": 3105,
  "合适": 3106,
  "g@@": 3107,
  "论文": 3108,
  "煤炭": 3109,
  "兴@@": 3110,
  "专项": 3111,
  "6.@@": 3112,
  "救助": 3113,
  "辆": 3114,
  "校长": 3115,
  "春": 3116,
  "０": 3117,
  "康@@": 3118,
  "人体": 3119,
  "开支": 3120,
  "运": 3121,
  "毛泽东": 3122,
  "观念": 3123,
  "排名": 3124,
  "圈": 3125,
  "800": 3126,
  "事@@": 3127,
  "解": 3128,
  "压": 3129,
  "公正": 3130,
  "雷": 3131,
  "东京": 3132,
  "丽": 3133,
  "松@@": 3134,
  "均价": 3135,
  "土": 3136,
  "0@@": 3137,
  "售价": 3138,
  "宝": 3139,
  "国家@@": 3140,
  "西安": 3141,
  "19@@": 3142,
  "U@@": 3143,
  "跌": 3144,
  "列入": 3145,
  "广场": 3146,
  "河@@": 3147,
  "钢": 3148,
  "39": 3149,
  "算法": 3150,
  "一部": 3151,
  "板块": 3152,
  "歌": 3153,
  "维修": 3154,
  "视": 3155,
  "合格": 3156,
  "陈": 3157,
  "伯@@": 3158,
  "家具": 3159,
  "搭配": 3160,
  "决心": 3161,
  "参观": 3162,
  "n@@": 3163,
  "盖": 3164,
  "翻译": 3165,
  "全年": 3166,
  "一段时间": 3167,
  "其次": 3168,
  "睡": 3169,
  "总量": 3170,
  "东部": 3171,
  "头发": 3172,
  "现代化": 3173,
  "动态": 3174,
  "98": 3175,
  "理": 3176,
  "到来": 3177,
  "市@@": 3178,
  "挂": 3179,
  "食@@": 3180,
  "日至": 3181,
  "有没有": 3182,
  "士": 3183,
  "当事人": 3184,
  "无论是": 3185,
  "福": 3186,
  "新兴": 3187,
  "商@@": 3188,
  "技能": 3189,
  "具": 3190,
  "不愿": 3191,
  "帕@@": 3192,
  "美好": 3193,
  "临床": 3194,
  "航空公司": 3195,
  "旗下": 3196,
  "依靠": 3197,
  "迪@@": 3198,
  "胜": 3199,
  "走向": 3200,
  "短": 3201,
  "士兵": 3202,
  "细@@": 3203,
  "认定": 3204,
  "却是": 3205,
  "腿": 3206,
  "切@@": 3207,
  "总额": 3208,
  "熟悉": 3209,
  "○": 3210,
  "南非": 3211,
  "塞@@": 3212,
  "药@@": 3213,
  "休息": 3214,
  "由@@": 3215,
  "选手": 3216,
  "认可": 3217,
  "大小": 3218,
  "嘉@@": 3219,
  "１": 3220,
  "步骤": 3221,
  "新建": 3222,
  "蓝@@": 3223,
  "新加坡": 3224,
  "文物": 3225,
  "爆发": 3226,
  "商品房": 3227,
  "足": 3228,
  "国际@@": 3229,
  "主管": 3230,
  "约翰": 3231,
  "施工": 3232,
  "粉": 3233,
  "河南": 3234,
  "营销": 3235,
  "46": 3236,
  "深刻": 3237,
  "木": 3238,
  "$": 3239,
  "拿到": 3240,
  "读者": 3241,
  "12@@": 3242,
  "存": 3243,
  "跳": 3244,
  "2003": 3245,
  "证书": 3246,
  "陆@@": 3247,
  "招聘": 3248,
  "w@@": 3249,
  "主持": 3250,
  "气候": 3251,
  "减轻": 3252,
  "F": 3253,
  "侵犯": 3254,
  "庆祝": 3255,
  "文学": 3256,
  "搜索": 3257,
  "密@@": 3258,
  "梦": 3259,
  "留@@": 3260,
  "坏": 3261,
  "夏@@": 3262,
  "谢谢": 3263,
  "否认": 3264,
  "外交": 3265,
  "理@@": 3266,
  "这份": 3267,
  "富@@": 3268,
  "现状": 3269,
  "聚@@": 3270,
  "抓": 3271,
  "7.@@": 3272,
  "服": 3273,
  "副@@": 3274,
  "香": 3275,
  "巴勒斯坦": 3276,
  "巴黎": 3277,
  "能量": 3278,
  "顺@@": 3279,
  "戏": 3280,
  "万平方米": 3281,
  "期望": 3282,
  "极": 3283,
  "广西": 3284,
  "延长": 3285,
  "消失": 3286,
  "秩序": 3287,
  "两名": 3288,
  "提议": 3289,
  "43": 3290,
  "箱": 3291,
  "礼物": 3292,
  "快@@": 3293,
  "翻@@": 3294,
  "场所": 3295,
  "湖南": 3296,
  "好处": 3297,
  "下调": 3298,
  "塞": 3299,
  "潮": 3300,
  "地址": 3301,
  "弄": 3302,
  "索@@": 3303,
  "对手": 3304,
  "运@@": 3305,
  "命": 3306,
  "勇": 3307,
  "校": 3308,
  "纪念": 3309,
  "放松": 3310,
  "清洁": 3311,
  "婴儿": 3312,
  "后面": 3313,
  "出发": 3314,
  "5.@@": 3315,
  "整合": 3316,
  "65": 3317,
  "创": 3318,
  "考": 3319,
  "周期": 3320,
  "分为": 3321,
  "考察": 3322,
  "言@@": 3323,
  "相反": 3324,
  "围绕": 3325,
  "谷歌": 3326,
  "早期": 3327,
  "吸收": 3328,
  "税收": 3329,
  "希@@": 3330,
  "监控": 3331,
  "双": 3332,
  "半": 3333,
  "配套": 3334,
  "短@@": 3335,
  "例子": 3336,
  "必然": 3337,
  "首": 3338,
  "中小企业": 3339,
  "蒙@@": 3340,
  "膜": 3341,
  "糖": 3342,
  "审批": 3343,
  "威@@": 3344,
  "产@@": 3345,
  "贴": 3346,
  "手续": 3347,
  "北": 3348,
  "构建": 3349,
  "丝": 3350,
  "环@@": 3351,
  "肉@@": 3352,
  "重组": 3353,
  "报名": 3354,
  "知名": 3355,
  "某@@": 3356,
  "GDP": 3357,
  "起到": 3358,
  "竞争力": 3359,
  "中介": 3360,
  "别的": 3361,
  "盈利": 3362,
  "年内": 3363,
  "馆": 3364,
  "切实": 3365,
  "现车": 3366,
  "宝宝": 3367,
  "造@@": 3368,
  "42": 3369,
  "丁@@": 3370,
  "8.@@": 3371,
  "治": 3372,
  "58": 3373,
  "服装": 3374,
  "沙": 3375,
  "专电": 3376,
  "通道": 3377,
  "队员": 3378,
  "重申": 3379,
  "麻烦": 3380,
  "岗位": 3381,
  "尽@@": 3382,
  "煤": 3383,
  "添加": 3384,
  "51": 3385,
  "轻松": 3386,
  "u@@": 3387,
  "多名": 3388,
  "计划署": 3389,
  "那儿": 3390,
  "立场": 3391,
  "最初": 3392,
  "诊断": 3393,
  "湾": 3394,
  "候选人": 3395,
  "版本": 3396,
  "抱": 3397,
  "曼": 3398,
  "清理": 3399,
  "信托": 3400,
  "据介绍": 3401,
  "施@@": 3402,
  "信用": 3403,
  "基因": 3404,
  "此时": 3405,
  "手中": 3406,
  "坚决": 3407,
  "智慧": 3408,
  "树@@": 3409,
  "本来": 3410,
  "穿着": 3411,
  "藏@@": 3412,
  "左@@": 3413,
  "小说": 3414,
  "哦": 3415,
  "所说": 3416,
  "伙伴": 3417,
  "啦": 3418,
  "顶": 3419,
  "日常": 3420,
  "临@@": 3421,
  "1.5": 3422,
  "大多": 3423,
  "停@@": 3424,
  "减@@": 3425,
  "参数": 3426,
  "采@@": 3427,
  "奇@@": 3428,
  "合法": 3429,
  "主权": 3430,
  "学者": 3431,
  "亮相": 3432,
  "诺": 3433,
  "人均": 3434,
  "起诉": 3435,
  "41": 3436,
  "查": 3437,
  "同一": 3438,
  "北部": 3439,
  "工作组": 3440,
  "易": 3441,
  "路上": 3442,
  "投": 3443,
  "电视台": 3444,
  "改": 3445,
  "极@@": 3446,
  "那时": 3447,
  "巨@@": 3448,
  "由此": 3449,
  "商店": 3450,
  "即便": 3451,
  "r@@": 3452,
  "抑制": 3453,
  "上网": 3454,
  "乱": 3455,
  "辐射": 3456,
  "院长": 3457,
  "自治区": 3458,
  "破": 3459,
  "娜": 3460,
  "欧@@": 3461,
  "暗@@": 3462,
  "有权": 3463,
  "洗@@": 3464,
  "发射": 3465,
  "询问": 3466,
  "绿@@": 3467,
  "13@@": 3468,
  "注重": 3469,
  "f@@": 3470,
  "如下": 3471,
  "大概": 3472,
  "街道": 3473,
  "富": 3474,
  "便宜": 3475,
  "跌幅": 3476,
  "规律": 3477,
  "横@@": 3478,
  "一线": 3479,
  "得以": 3480,
  "发改委": 3481,
  "第二@@": 3482,
  "存@@": 3483,
  "权益": 3484,
  "速": 3485,
  "中有": 3486,
  "混合": 3487,
  "旧@@": 3488,
  "繁荣": 3489,
  "听说": 3490,
  "随": 3491,
  "勒": 3492,
  "拍卖": 3493,
  "贫困": 3494,
  "男@@": 3495,
  "退出": 3496,
  "呀": 3497,
  "层面": 3498,
  "症": 3499,
  "88": 3500,
  "通讯": 3501,
  "成交量": 3502,
  "微": 3503,
  "若干": 3504,
  "埃@@": 3505,
  "朝@@": 3506,
  "分类": 3507,
  "an": 3508,
  "44": 3509,
  "周末": 3510,
  "遗憾": 3511,
  "喜@@": 3512,
  "不但": 3513,
  "华盛顿": 3514,
  "过度": 3515,
  "费@@": 3516,
  "墙": 3517,
  "素质": 3518,
  "乐观": 3519,
  "卢@@": 3520,
  "印象": 3521,
  "媒体报道": 3522,
  "85": 3523,
  "治@@": 3524,
  "还@@": 3525,
  "茶": 3526,
  "创意": 3527,
  "列@@": 3528,
  "迎来": 3529,
  "牛": 3530,
  "享有": 3531,
  "海军": 3532,
  "随时": 3533,
  "致": 3534,
  "后果": 3535,
  "异常": 3536,
  "鉴于": 3537,
  "凯@@": 3538,
  "退休": 3539,
  "指控": 3540,
  "助理": 3541,
  "宪法": 3542,
  "阳@@": 3543,
  "修订": 3544,
  "稿": 3545,
  "友": 3546,
  "购房": 3547,
  "依赖": 3548,
  "托": 3549,
  "零": 3550,
  "许可证": 3551,
  "样": 3552,
  "夫妇": 3553,
  "地上": 3554,
  "辉": 3555,
  "A股": 3556,
  "宋@@": 3557,
  "95": 3558,
  "现@@": 3559,
  "输入": 3560,
  "核电站": 3561,
  "色彩": 3562,
  "有力": 3563,
  "99": 3564,
  "小孩": 3565,
  "日晚": 3566,
  "泰国": 3567,
  "影响力": 3568,
  "慢慢": 3569,
  "诗": 3570,
  "除@@": 3571,
  "展览": 3572,
  "痛": 3573,
  "评级": 3574,
  "一道": 3575,
  "机械": 3576,
  "X@@": 3577,
  "周边": 3578,
  "成分": 3579,
  "福利": 3580,
  "拟": 3581,
  "农产品": 3582,
  "命令": 3583,
  "学术": 3584,
  "鸟": 3585,
  "之所以": 3586,
  "卖@@": 3587,
  "追@@": 3588,
  "付": 3589,
  "洛@@": 3590,
  "松": 3591,
  "k@@": 3592,
  "吃饭": 3593,
  "云南": 3594,
  "al@@": 3595,
  "钱@@": 3596,
  "床": 3597,
  "汤": 3598,
  "总裁": 3599,
  "记忆": 3600,
  "委托": 3601,
  "杨": 3602,
  "审核": 3603,
  "端": 3604,
  "经销商": 3605,
  "南方": 3606,
  "引@@": 3607,
  "一生": 3608,
  "建造": 3609,
  "堂": 3610,
  "腐败": 3611,
  "线路": 3612,
  "剧": 3613,
  "省委": 3614,
  "圆@@": 3615,
  "草@@": 3616,
  "月@@": 3617,
  "城乡": 3618,
  "配@@": 3619,
  "鱼@@": 3620,
  "平时": 3621,
  "推行": 3622,
  "看上去": 3623,
  "慈善": 3624,
  "鞋": 3625,
  "150": 3626,
  "公安机关": 3627,
  "物业": 3628,
  "机器": 3629,
  "破@@": 3630,
  "防": 3631,
  "20@@": 3632,
  "维": 3633,
  "议会": 3634,
  "坐@@": 3635,
  "保存": 3636,
  "家电": 3637,
  "再度": 3638,
  "冷": 3639,
  "因而": 3640,
  "斗争": 3641,
  "伦": 3642,
  "买@@": 3643,
  "怎么样": 3644,
  "继": 3645,
  "权@@": 3646,
  "水果": 3647,
  "账户": 3648,
  "凌晨": 3649,
  "不敢": 3650,
  "急@@": 3651,
  "每日": 3652,
  "图像": 3653,
  "枪": 3654,
  "有趣": 3655,
  "离@@": 3656,
  "汇率": 3657,
  "音": 3658,
  "曾@@": 3659,
  "党@@": 3660,
  "中方": 3661,
  "定价": 3662,
  "东方": 3663,
  "范@@": 3664,
  "循环": 3665,
  "雨@@": 3666,
  "亏损": 3667,
  "卷": 3668,
  "若@@": 3669,
  "重复": 3670,
  "个别": 3671,
  "饮食": 3672,
  "职": 3673,
  "复苏": 3674,
  "原本": 3675,
  "衣": 3676,
  "供@@": 3677,
  "脑@@": 3678,
  "边@@": 3679,
  "3D": 3680,
  "优质": 3681,
  "原料": 3682,
  "14@@": 3683,
  "村@@": 3684,
  "航": 3685,
  "季": 3686,
  "谨慎": 3687,
  "56": 3688,
  "待遇": 3689,
  "京": 3690,
  "惊@@": 3691,
  "早@@": 3692,
  "阻止": 3693,
  "球@@": 3694,
  "断@@": 3695,
  "毒品": 3696,
  "称@@": 3697,
  "潜在": 3698,
  "开心": 3699,
  "秋@@": 3700,
  "意@@": 3701,
  "停": 3702,
  "交换": 3703,
  "听@@": 3704,
  "诺@@": 3705,
  "本书": 3706,
  "多么": 3707,
  "宣言": 3708,
  "伊": 3709,
  "振@@": 3710,
  "害怕": 3711,
  "天然气": 3712,
  "新浪": 3713,
  "燃料": 3714,
  "北约": 3715,
  "这时": 3716,
  "舞台": 3717,
  "专员": 3718,
  "加息": 3719,
  "亿@@": 3720,
  "回顾": 3721,
  "盘@@": 3722,
  "合约": 3723,
  "京@@": 3724,
  "焦点": 3725,
  "o@@": 3726,
  "生长": 3727,
  "做@@": 3728,
  "归": 3729,
  "排除": 3730,
  "色@@": 3731,
  "列车": 3732,
  "52": 3733,
  "互动": 3734,
  "9.@@": 3735,
  "考@@": 3736,
  "除非": 3737,
  "举报": 3738,
  "蔡@@": 3739,
  "秀": 3740,
  "山西": 3741,
  "布局": 3742,
  "心情": 3743,
  "X": 3744,
  "自行车": 3745,
  "公斤": 3746,
  "配": 3747,
  "生意": 3748,
  "年来": 3749,
  "老百姓": 3750,
  "春晚": 3751,
  "与其": 3752,
  "反而": 3753,
  "玻璃": 3754,
  "关切": 3755,
  "发电": 3756,
  "68": 3757,
  "兹": 3758,
  "基础设施": 3759,
  "常见": 3760,
  "走势": 3761,
  "毛": 3762,
  "年初": 3763,
  "嘴": 3764,
  "对待": 3765,
  "怕": 3766,
  "融合": 3767,
  "叙利亚": 3768,
  "样子": 3769,
  "海上": 3770,
  "促销": 3771,
  "监狱": 3772,
  "at@@": 3773,
  "三大": 3774,
  "调节": 3775,
  "商家": 3776,
  "接着": 3777,
  "尽量": 3778,
  "八": 3779,
  "索": 3780,
  "少数": 3781,
  "厂商": 3782,
  "格局": 3783,
  "前提": 3784,
  "像是": 3785,
  "标": 3786,
  "人民日报": 3787,
  "从未": 3788,
  "曲@@": 3789,
  "致力于": 3790,
  "电子@@": 3791,
  "同期": 3792,
  "得知": 3793,
  "抓住": 3794,
  "京华": 3795,
  "装饰": 3796,
  "敏感": 3797,
  "全体": 3798,
  "判决": 3799,
  "秒": 3800,
  "呈": 3801,
  "文字": 3802,
  "收取": 3803,
  "中文": 3804,
  "所得": 3805,
  "知识产权": 3806,
  "营业": 3807,
  "北京@@": 3808,
  "荣": 3809,
  "矿": 3810,
  "紧@@": 3811,
  "对比": 3812,
  "等@@": 3813,
  "接下来": 3814,
  "面试": 3815,
  "货币政策": 3816,
  "自从": 3817,
  "探@@": 3818,
  "用途": 3819,
  "说道": 3820,
  "难题": 3821,
  "不幸": 3822,
  "甘@@": 3823,
  "CPI": 3824,
  "金融危机": 3825,
  "梅": 3826,
  "演": 3827,
  "博": 3828,
  "赛@@": 3829,
  "物@@": 3830,
  "抵达": 3831,
  "景@@": 3832,
  "引进": 3833,
  "导弹": 3834,
  "考核": 3835,
  "迹象": 3836,
  "区别": 3837,
  "or@@": 3838,
  "下半年": 3839,
  "不仅仅": 3840,
  "指挥": 3841,
  "安置": 3842,
  "折": 3843,
  "打破": 3844,
  "陆续": 3845,
  "in@@": 3846,
  "许可": 3847,
  "诸多": 3848,
  "开通": 3849,
  "两天": 3850,
  "社": 3851,
  "本周": 3852,
  "立刻": 3853,
  "乌@@": 3854,
  "哥": 3855,
  "本月": 3856,
  "战斗": 3857,
  "良": 3858,
  "野@@": 3859,
  "硬@@": 3860,
  "志": 3861,
  "主张": 3862,
  "纠纷": 3863,
  "奥": 3864,
  "毕竟": 3865,
  "不如": 3866,
  "G": 3867,
  "前面": 3868,
  "上班": 3869,
  "救": 3870,
  "轿车": 3871,
  "国会": 3872,
  "猪": 3873,
  "机遇": 3874,
  "餐厅": 3875,
  "透明": 3876,
  "群@@": 3877,
  "深化": 3878,
  "二手房": 3879,
  "金融机构": 3880,
  "戴": 3881,
  "倾向": 3882,
  "调研": 3883,
  "领先": 3884,
  "警@@": 3885,
  "劳@@": 3886,
  "配备": 3887,
  "长时间": 3888,
  "额外": 3889,
  "走出": 3890,
  "回归": 3891,
  "夫人": 3892,
  "篇": 3893,
  "合并": 3894,
  "忘记": 3895,
  "绝@@": 3896,
  "外部": 3897,
  "家中": 3898,
  "不满": 3899,
  "外界": 3900,
  "铁": 3901,
  "烟@@": 3902,
  "威": 3903,
  "断": 3904,
  "波动": 3905,
  "模拟": 3906,
  "地下": 3907,
  "幅": 3908,
  "相当于": 3909,
  "*": 3910,
  "袋": 3911,
  "通报": 3912,
  "恐怕": 3913,
  "审判": 3914,
  "潘@@": 3915,
  "盐": 3916,
  "借": 3917,
  "跳@@": 3918,
  "本报记者": 3919,
  "议员": 3920,
  "或@@": 3921,
  "保健": 3922,
  "公安局": 3923,
  "本法": 3924,
  "记@@": 3925,
  "实验室": 3926,
  "一度": 3927,
  "推": 3928,
  "蓝色": 3929,
  "宇": 3930,
  "海关": 3931,
  "单独": 3932,
  "情感": 3933,
  "世": 3934,
  "可靠": 3935,
  "登@@": 3936,
  "曲": 3937,
  "会员": 3938,
  "2001": 3939,
  "活跃": 3940,
  "53": 3941,
  "冯@@": 3942,
  "城镇": 3943,
  "花费": 3944,
  "七": 3945,
  "回收": 3946,
  "鉴定": 3947,
  "奖励": 3948,
  "毒@@": 3949,
  "太阳能": 3950,
  "董事会": 3951,
  "息": 3952,
  "R": 3953,
  "及@@": 3954,
  "瓦": 3955,
  "招": 3956,
  "美军": 3957,
  "敌人": 3958,
  "1.6": 3959,
  "门口": 3960,
  "16@@": 3961,
  "售": 3962,
  "虫": 3963,
  "过渡": 3964,
  "两位": 3965,
  "缴纳": 3966,
  "某种": 3967,
  "物流": 3968,
  "景": 3969,
  "百姓": 3970,
  "久": 3971,
  "价@@": 3972,
  "总数": 3973,
  "17@@": 3974,
  "本市": 3975,
  "汇@@": 3976,
  "恶化": 3977,
  "心中": 3978,
  "花园": 3979,
  "条@@": 3980,
  "开工": 3981,
  "肌肤": 3982,
  "脚@@": 3983,
  "主流": 3984,
  "并@@": 3985,
  "钢@@": 3986,
  "流动性": 3987,
  "修": 3988,
  "en@@": 3989,
  "回忆": 3990,
  "此后": 3991,
  "经济社会": 3992,
  "共识": 3993,
  "种植": 3994,
  "举措": 3995,
  "新能源": 3996,
  "增幅": 3997,
  "大力": 3998,
  "反弹": 3999,
  "把握": 4000,
  "传递": 4001,
  "延续": 4002,
  "盛@@": 4003,
  "归@@": 4004,
  "专利": 4005,
  "路线": 4006,
  "空中": 4007,
  "果@@": 4008,
  "果": 4009,
  "饮料": 4010,
  "命运": 4011,
  "带动": 4012,
  "传媒": 4013,
  "凡": 4014,
  "什么样": 4015,
  "地块": 4016,
  "可爱": 4017,
  "某个": 4018,
  "个@@": 4019,
  "付出": 4020,
  "外面": 4021,
  "转向": 4022,
  "120": 4023,
  "乱@@": 4024,
  "雅": 4025,
  "术": 4026,
  "字@@": 4027,
  "基本上": 4028,
  "el@@": 4029,
  "印": 4030,
  "一大": 4031,
  "志愿者": 4032,
  "带有": 4033,
  "早已": 4034,
  "尚": 4035,
  "症状": 4036,
  "小型": 4037,
  "河北": 4038,
  "萨": 4039,
  "两国": 4040,
  "撞": 4041,
  "分离": 4042,
  "浮@@": 4043,
  "小心": 4044,
  "N": 4045,
  "义@@": 4046,
  "彼此": 4047,
  "告知": 4048,
  "情形": 4049,
  "期@@": 4050,
  "船@@": 4051,
  "所有人": 4052,
  "耐@@": 4053,
  "画@@": 4054,
  "引入": 4055,
  "拿出": 4056,
  "O": 4057,
  "标@@": 4058,
  "简称": 4059,
  "加剧": 4060,
  "医学": 4061,
  "猪肉": 4062,
  "计": 4063,
  "敏": 4064,
  "观": 4065,
  "15@@": 4066,
  "骨@@": 4067,
  "核武器": 4068,
  "促使": 4069,
  "莉": 4070,
  "懂": 4071,
  "零@@": 4072,
  "透过": 4073,
  "租金": 4074,
  "玛@@": 4075,
  "几": 4076,
  "稀土": 4077,
  "挺": 4078,
  "扩张": 4079,
  "但@@": 4080,
  "么": 4081,
  "事物": 4082,
  "杰@@": 4083,
  "商务": 4084,
  "俄": 4085,
  "削减": 4086,
  "麽": 4087,
  "将@@": 4088,
  "相似": 4089,
  "赫@@": 4090,
  "出于": 4091,
  "数据库": 4092,
  "丁": 4093,
  "线@@": 4094,
  "库存": 4095,
  "管理局": 4096,
  "语@@": 4097,
  "故障": 4098,
  "页": 4099,
  "扩散": 4100,
  "不知": 4101,
  "潜力": 4102,
  "既然": 4103,
  "人力资源": 4104,
  "有机": 4105,
  "贵@@": 4106,
  "贵州": 4107,
  "涛": 4108,
  "录取": 4109,
  "纪录": 4110,
  "猫": 4111,
  "井": 4112,
  "缺陷": 4113,
  "占@@": 4114,
  "储备": 4115,
  "有个": 4116,
  "什": 4117,
  "富有": 4118,
  "少数民族": 4119,
  "更换": 4120,
  "弱": 4121,
  "担保": 4122,
  "至@@": 4123,
  "高峰": 4124,
  "洗": 4125,
  "发起": 4126,
  "农": 4127,
  "患": 4128,
  "库@@": 4129,
  "66": 4130,
  "意愿": 4131,
  "国内外": 4132,
  "不必": 4133,
  "社交": 4134,
  "发达国家": 4135,
  "设计师": 4136,
  "软@@": 4137,
  "注": 4138,
  "干预": 4139,
  "增": 4140,
  "粗@@": 4141,
  "恩@@": 4142,
  "政@@": 4143,
  "讲@@": 4144,
  "电梯": 4145,
  "弹@@": 4146,
  "尺寸": 4147,
  "物价": 4148,
  "谈到": 4149,
  "自愿": 4150,
  "澳门": 4151,
  "净": 4152,
  "舒适": 4153,
  "阴@@": 4154,
  "史@@": 4155,
  "活力": 4156,
  "半年": 4157,
  "54": 4158,
  "岩": 4159,
  "仔细": 4160,
  "─": 4161,
  "茶@@": 4162,
  "华人": 4163,
  "当选": 4164,
  "理性": 4165,
  "大脑": 4166,
  "其余": 4167,
  "拍@@": 4168,
  "瓶": 4169,
  "紧": 4170,
  "识别": 4171,
  "一面": 4172,
  "好好": 4173,
  "案例": 4174,
  "联赛": 4175,
  "延@@": 4176,
  "抽@@": 4177,
  "本届": 4178,
  "观看": 4179,
  "惠@@": 4180,
  "右@@": 4181,
  "验证": 4182,
  "编@@": 4183,
  "公寓": 4184,
  "占据": 4185,
  "演讲": 4186,
  "第三@@": 4187,
  "雪": 4188,
  "附件": 4189,
  "武": 4190,
  "写@@": 4191,
  "78": 4192,
  "中东": 4193,
  "远远": 4194,
  "有时候": 4195,
  "第五": 4196,
  "域": 4197,
  "舆论": 4198,
  "h": 4199,
  "缺少": 4200,
  "务": 4201,
  "校园": 4202,
  "档": 4203,
  "修复": 4204,
  "捐款": 4205,
  "为例": 4206,
  "问@@": 4207,
  "汉": 4208,
  "控": 4209,
  "夫妻": 4210,
  "蒂": 4211,
  "假如": 4212,
  "哭": 4213,
  "聪明": 4214,
  "n": 4215,
  "支@@": 4216,
  "旁边": 4217,
  "付款": 4218,
  "含@@": 4219,
  "技巧": 4220,
  "准则": 4221,
  "宫": 4222,
  "家族": 4223,
  "清晰": 4224,
  "送到": 4225,
  "此类": 4226,
  "夜@@": 4227,
  "招@@": 4228,
  "粉丝": 4229,
  "感兴趣": 4230,
  "经济学家": 4231,
  "出租车": 4232,
  "国际法": 4233,
  "实体": 4234,
  "庆@@": 4235,
  "之内": 4236,
  "读@@": 4237,
  "便利": 4238,
  "交易所": 4239,
  "一季度": 4240,
  "浪费": 4241,
  "办@@": 4242,
  "私@@": 4243,
  "国王": 4244,
  "不利": 4245,
  "第二天": 4246,
  "一支": 4247,
  "窗口": 4248,
  "印@@": 4249,
  "灾害": 4250,
  "余": 4251,
  "作战": 4252,
  "疯狂": 4253,
  "个性": 4254,
  "环": 4255,
  "欲": 4256,
  "净利润": 4257,
  "苏丹": 4258,
  "市委": 4259,
  "数额": 4260,
  "争@@": 4261,
  "兴": 4262,
  "认证": 4263,
  "结": 4264,
  "客人": 4265,
  "任命": 4266,
  "刚@@": 4267,
  "频道": 4268,
  "报价": 4269,
  "％": 4270,
  "财政部": 4271,
  "开车": 4272,
  "ar@@": 4273,
  "级别": 4274,
  "政": 4275,
  "牛奶": 4276,
  "城区": 4277,
  "斌": 4278,
  "功@@": 4279,
  "高速公路": 4280,
  "高层": 4281,
  "种种": 4282,
  "静@@": 4283,
  "依@@": 4284,
  "名为": 4285,
  "v@@": 4286,
  "读书": 4287,
  "57": 4288,
  "原油": 4289,
  "承受": 4290,
  "开盘": 4291,
  "取决于": 4292,
  "火车": 4293,
  "in": 4294,
  "饭": 4295,
  "良@@": 4296,
  "躺": 4297,
  "落后": 4298,
  "接待": 4299,
  "湖北": 4300,
  "愉快": 4301,
  "呆": 4302,
  "供应商": 4303,
  "降@@": 4304,
  "坚定": 4305,
  "守@@": 4306,
  "酸@@": 4307,
  "签约": 4308,
  "温暖": 4309,
  "彭@@": 4310,
  "残疾人": 4311,
  "1991": 4312,
  "查处": 4313,
  "提案": 4314,
  "摘要": 4315,
  "两家": 4316,
  "倒@@": 4317,
  "2002": 4318,
  "留学": 4319,
  "官@@": 4320,
  "数目": 4321,
  "难道": 4322,
  "广": 4323,
  "广州日报": 4324,
  "竟然": 4325,
  "纲领": 4326,
  "环境保护": 4327,
  "琳": 4328,
  "微软": 4329,
  "鹏": 4330,
  "这部": 4331,
  "愿望": 4332,
  "仪": 4333,
  "汤@@": 4334,
  "创@@": 4335,
  "打工": 4336,
  "刑事": 4337,
  "下载": 4338,
  "兼": 4339,
  "外观": 4340,
  "核查": 4341,
  "700": 4342,
  "轨道": 4343,
  "有利": 4344,
  "贫穷": 4345,
  "严@@": 4346,
  "态势": 4347,
  "广东省": 4348,
  "主持人": 4349,
  "过于": 4350,
  "静": 4351,
  "证券报": 4352,
  "外地": 4353,
  "底@@": 4354,
  "宽": 4355,
  "充足": 4356,
  "请@@": 4357,
  "目": 4358,
  "互相": 4359,
  "脸上": 4360,
  "思维": 4361,
  "霍@@": 4362,
  "大大": 4363,
  "交给": 4364,
  "阐述": 4365,
  "声称": 4366,
  "安徽": 4367,
  "救@@": 4368,
  "第二次": 4369,
  "洞": 4370,
  "彩@@": 4371,
  "麻@@": 4372,
  "中华": 4373,
  "露": 4374,
  "购房者": 4375,
  "食用": 4376,
  "防治": 4377,
  "一把": 4378,
  "险": 4379,
  "微笑": 4380,
  "初": 4381,
  "暂停": 4382,
  "名义": 4383,
  "算@@": 4384,
  "人家": 4385,
  "瑞": 4386,
  "指示": 4387,
  "电池": 4388,
  "根@@": 4389,
  "试": 4390,
  "咖啡": 4391,
  "之际": 4392,
  "灾难": 4393,
  "煤矿": 4394,
  "扩展": 4395,
  "认@@": 4396,
  "护@@": 4397,
  "谈话": 4398,
  "抱怨": 4399,
  "为期": 4400,
  "百度": 4401,
  "领": 4402,
  "冬@@": 4403,
  "考验": 4404,
  "魅力": 4405,
  "77": 4406,
  "气氛": 4407,
  "我能": 4408,
  "每周": 4409,
  "新闻@@": 4410,
  "着@@": 4411,
  "部@@": 4412,
  "iPhone": 4413,
  "添加剂": 4414,
  "团@@": 4415,
  "笔者": 4416,
  "档案": 4417,
  "礼": 4418,
  "渴望": 4419,
  "背@@": 4420,
  "卫@@": 4421,
  "步@@": 4422,
  "自信": 4423,
  "取代": 4424,
  "强度": 4425,
  "申报": 4426,
  "比重": 4427,
  "订单": 4428,
  "电子商务": 4429,
  "负": 4430,
  "沈阳": 4431,
  "轮胎": 4432,
  "反对派": 4433,
  "锻炼": 4434,
  "戴@@": 4435,
  "乳@@": 4436,
  "种族": 4437,
  "剩下": 4438,
  "学科": 4439,
  "超越": 4440,
  "院校": 4441,
  "高效": 4442,
  "令人@@": 4443,
  "后续": 4444,
  "江西": 4445,
  "研究生": 4446,
  "展@@": 4447,
  "支援": 4448,
  "校@@": 4449,
  "艰难": 4450,
  "各大": 4451,
  "用品": 4452,
  "64": 4453,
  "夏天": 4454,
  "期货": 4455,
  "示范": 4456,
  "神经": 4457,
  "结果表明": 4458,
  "高中": 4459,
  "整治": 4460,
  "邓@@": 4461,
  "回报": 4462,
  "营": 4463,
  "纸@@": 4464,
  "欧元区": 4465,
  "乡村": 4466,
  "62": 4467,
  "率先": 4468,
  "微博上": 4469,
  "中期": 4470,
  "庞大": 4471,
  "63": 4472,
  "境外": 4473,
  "平米": 4474,
  "虽": 4475,
  "互@@": 4476,
  "川": 4477,
  "血液": 4478,
  "够": 4479,
  "秀@@": 4480,
  "特派": 4481,
  "前后": 4482,
  "平民": 4483,
  "it@@": 4484,
  "去@@": 4485,
  "需@@": 4486,
  "经济@@": 4487,
  "提示": 4488,
  "替代": 4489,
  "筹备": 4490,
  "集@@": 4491,
  "现行": 4492,
  "奶粉": 4493,
  "教练": 4494,
  "&amp;": 4495,
  "烟": 4496,
  "艾滋病": 4497,
  "市区": 4498,
  "职能": 4499,
  "保安": 4500,
  "2.0": 4501,
  "1990": 4502,
  "留": 4503,
  "百": 4504,
  "难度": 4505,
  "末": 4506,
  "太太": 4507,
  "府": 4508,
  "参@@": 4509,
  "主人": 4510,
  "08": 4511,
  "歧视": 4512,
  "流通": 4513,
  "虚@@": 4514,
  "赚": 4515,
  "节日": 4516,
  "２": 4517,
  "an@@": 4518,
  "航线": 4519,
  "央视": 4520,
  "沪": 4521,
  "拓展": 4522,
  "量@@": 4523,
  "丝@@": 4524,
  "喜爱": 4525,
  "平稳": 4526,
  "邦": 4527,
  "保险公司": 4528,
  "热点": 4529,
  "晚报": 4530,
  "影": 4531,
  "进来": 4532,
  "劳动力": 4533,
  "程@@": 4534,
  "依旧": 4535,
  "裁军": 4536,
  "指责": 4537,
  "冰": 4538,
  "评@@": 4539,
  "弗@@": 4540,
  "11.@@": 4541,
  "展现": 4542,
  "地图": 4543,
  "激励": 4544,
  "见面": 4545,
  "照@@": 4546,
  "举": 4547,
  "第四": 4548,
  "即可": 4549,
  "九": 4550,
  "感动": 4551,
  "原理": 4552,
  "上学": 4553,
  "孔": 4554,
  "吹@@": 4555,
  "中午": 4556,
  "丹": 4557,
  "会谈": 4558,
  "59": 4559,
  "信用卡": 4560,
  "应用程序": 4561,
  "滑@@": 4562,
  "道歉": 4563,
  "差@@": 4564,
  "产能": 4565,
  "内蒙古": 4566,
  "不安": 4567,
  "频繁": 4568,
  "保养": 4569,
  "组@@": 4570,
  "记住": 4571,
  "2.5": 4572,
  "荣@@": 4573,
  "出行": 4574,
  "经济体": 4575,
  "月初": 4576,
  "棒": 4577,
  "影@@": 4578,
  "on": 4579,
  "跟踪": 4580,
  "资讯": 4581,
  "足@@": 4582,
  "老年人": 4583,
  "哪个": 4584,
  "巩固": 4585,
  "诚信": 4586,
  "国民": 4587,
  "进去": 4588,
  "气候变化": 4589,
  "千万": 4590,
  "州市": 4591,
  "玉": 4592,
  "技术@@": 4593,
  "磨@@": 4594,
  "董事": 4595,
  "准": 4596,
  "姑娘": 4597,
  "放缓": 4598,
  "拿@@": 4599,
  "市政府": 4600,
  "整理": 4601,
  "剑": 4602,
  "图书": 4603,
  "知@@": 4604,
  "友好": 4605,
  "宁@@": 4606,
  "早晨": 4607,
  "批": 4608,
  "任何人": 4609,
  "伯": 4610,
  "到位": 4611,
  "杆": 4612,
  "假期": 4613,
  "研制": 4614,
  "继@@": 4615,
  "刘": 4616,
  "客观": 4617,
  "制造业": 4618,
  "击": 4619,
  "积累": 4620,
  "多元": 4621,
  "太平洋": 4622,
  "致@@": 4623,
  "衣@@": 4624,
  "辩论": 4625,
  "es": 4626,
  "那天": 4627,
  "会上": 4628,
  "紧缩": 4629,
  "智@@": 4630,
  "效益": 4631,
  "抢@@": 4632,
  "72": 4633,
  "响应": 4634,
  "忘": 4635,
  "审理": 4636,
  "类@@": 4637,
  "紫@@": 4638,
  "失业": 4639,
  "人人": 4640,
  "会见": 4641,
  "客@@": 4642,
  "烧@@": 4643,
  "家属": 4644,
  "偷@@": 4645,
  "软": 4646,
  "众@@": 4647,
  "失望": 4648,
  "讲述": 4649,
  "气体": 4650,
  "团结": 4651,
  "后者": 4652,
  "这名": 4653,
  "网络@@": 4654,
  "散": 4655,
  "可怕": 4656,
  "研究院": 4657,
  "制裁": 4658,
  "太空": 4659,
  "一会儿": 4660,
  "10.@@": 4661,
  "尚@@": 4662,
  "欣赏": 4663,
  "答复": 4664,
  "灰@@": 4665,
  "这座": 4666,
  "英雄": 4667,
  "纯@@": 4668,
  "开幕": 4669,
  "极为": 4670,
  "流程": 4671,
  "1997": 4672,
  "公益": 4673,
  "被告": 4674,
  "抗议": 4675,
  "以此": 4676,
  "代码": 4677,
  "多人": 4678,
  "轮@@": 4679,
  "划@@": 4680,
  "提名": 4681,
  "出色": 4682,
  "精神@@": 4683,
  "货@@": 4684,
  "洋@@": 4685,
  "恶@@": 4686,
  "4000": 4687,
  "深度": 4688,
  "补": 4689,
  "面向": 4690,
  "有用": 4691,
  "屋": 4692,
  "超级": 4693,
  "聚集": 4694,
  "痛@@": 4695,
  "启@@": 4696,
  "未经": 4697,
  "睡眠": 4698,
  "菜@@": 4699,
  "商业银行": 4700,
  "观@@": 4701,
  "数学": 4702,
  "租": 4703,
  "十": 4704,
  "代价": 4705,
  "墨西哥": 4706,
  "而已": 4707,
  "广播": 4708,
  "尽可能": 4709,
  "胜@@": 4710,
  "种类": 4711,
  "赶到": 4712,
  "V": 4713,
  "67": 4714,
  "买卖": 4715,
  "哪儿": 4716,
  "同步": 4717,
  "如同": 4718,
  "蔡": 4719,
  "网页": 4720,
  "党员": 4721,
  "控股": 4722,
  "籍": 4723,
  "受害者": 4724,
  "虚假": 4725,
  "看出": 4726,
  "感@@": 4727,
  "按@@": 4728,
  "共享": 4729,
  "混@@": 4730,
  "节@@": 4731,
  "祥": 4732,
  "中央@@": 4733,
  "申请人": 4734,
  "升@@": 4735,
  "链": 4736,
  "新车": 4737,
  "索马里": 4738,
  "简@@": 4739,
  "12.@@": 4740,
  "冲": 4741,
  "别墅": 4742,
  "一对": 4743,
  "没想到": 4744,
  "教育部": 4745,
  "大使": 4746,
  "中共": 4747,
  "处置": 4748,
  "人民网": 4749,
  "带领": 4750,
  "通用": 4751,
  "其他人": 4752,
  "程": 4753,
  "昨晚": 4754,
  "直升机": 4755,
  "艺术家": 4756,
  "士@@": 4757,
  "豪华": 4758,
  "留在": 4759,
  "就此": 4760,
  "然@@": 4761,
  "练习": 4762,
  "响": 4763,
  "冬季": 4764,
  "替": 4765,
  "沃@@": 4766,
  "天空": 4767,
  "温州": 4768,
  "一台": 4769,
  "盖@@": 4770,
  "装修": 4771,
  "曹@@": 4772,
  "平安": 4773,
  "介入": 4774,
  "海域": 4775,
  "董@@": 4776,
  "善@@": 4777,
  "氏": 4778,
  "心态": 4779,
  "直": 4780,
  "想起": 4781,
  "28@@": 4782,
  "行驶": 4783,
  "怀@@": 4784,
  "母": 4785,
  "国产": 4786,
  "行情": 4787,
  "扎@@": 4788,
  "前来": 4789,
  "三是": 4790,
  "捐赠": 4791,
  "苦": 4792,
  "博客": 4793,
  "夜": 4794,
  "轻": 4795,
  "新鲜": 4796,
  "盛": 4797,
  "蛋": 4798,
  "党委": 4799,
  "Y@@": 4800,
  "交易日": 4801,
  "灵魂": 4802,
  "被迫": 4803,
  "顶@@": 4804,
  "限": 4805,
  "毒": 4806,
  "辞职": 4807,
  "万套": 4808,
  "厨房": 4809,
  "赢": 4810,
  "散@@": 4811,
  "勒@@": 4812,
  "船舶": 4813,
  "曼@@": 4814,
  "极端": 4815,
  "必": 4816,
  "领袖": 4817,
  "约束": 4818,
  "消@@": 4819,
  "了@@": 4820,
  "这方面": 4821,
  "为止": 4822,
  "千": 4823,
  "电器": 4824,
  "一级": 4825,
  "背": 4826,
  "宗@@": 4827,
  "待@@": 4828,
  "牺牲": 4829,
  "女生": 4830,
  "芳": 4831,
  "普": 4832,
  "升值": 4833,
  "总监": 4834,
  "输出": 4835,
  "抢": 4836,
  "居@@": 4837,
  "质@@": 4838,
  "天然": 4839,
  "第二个": 4840,
  "交通@@": 4841,
  "承@@": 4842,
  "提取": 4843,
  "思路": 4844,
  "一体化": 4845,
  "本国": 4846,
  "电网": 4847,
  "泰": 4848,
  "爱心": 4849,
  "会计": 4850,
  "今年以来": 4851,
  "即@@": 4852,
  "神秘": 4853,
  "价格上涨": 4854,
  "停车": 4855,
  "re@@": 4856,
  "今晚": 4857,
  "变动": 4858,
  "on@@": 4859,
  "合成": 4860,
  "胡锦涛": 4861,
  "罪行": 4862,
  "不停": 4863,
  "土耳其": 4864,
  "组图": 4865,
  "味道": 4866,
  "强劲": 4867,
  "最早": 4868,
  "减排": 4869,
  "76": 4870,
  "呼吸": 4871,
  "毫无": 4872,
  "警": 4873,
  "g": 4874,
  "导@@": 4875,
  "标签": 4876,
  "转换": 4877,
  "土壤": 4878,
  "姓名": 4879,
  "61": 4880,
  "交往": 4881,
  "往@@": 4882,
  "派出所": 4883,
  "恐怖主义": 4884,
  "破产": 4885,
  "游泳": 4886,
  "一人": 4887,
  "混乱": 4888,
  "驱动": 4889,
  "赛季": 4890,
  "工程师": 4891,
  "亲自": 4892,
  "愤怒": 4893,
  "获@@": 4894,
  "丰@@": 4895,
  "耶稣": 4896,
  "万辆": 4897,
  "陕西": 4898,
  "祖@@": 4899,
  "收藏": 4900,
  "零售": 4901,
  "恒@@": 4902,
  "井@@": 4903,
  "谈@@": 4904,
  "69": 4905,
  "贴@@": 4906,
  "扮演": 4907,
  "国有": 4908,
  "长沙": 4909,
  "30@@": 4910,
  "显@@": 4911,
  "乡@@": 4912,
  "沈@@": 4913,
  "开设": 4914,
  "怀孕": 4915,
  "奥运": 4916,
  "业界": 4917,
  "纤维": 4918,
  "房源": 4919,
  "护理": 4920,
  "乔@@": 4921,
  "庭": 4922,
  "腾讯": 4923,
  "性别": 4924,
  "乘坐": 4925,
  "就@@": 4926,
  "受理": 4927,
  "性格": 4928,
  "封@@": 4929,
  "赋予": 4930,
  "表格": 4931,
  "发动": 4932,
  "前进": 4933,
  "退": 4934,
  "俄@@": 4935,
  "容@@": 4936,
  "使@@": 4937,
  "恐惧": 4938,
  "形@@": 4939,
  "逻辑": 4940,
  "尾": 4941,
  "提起": 4942,
  "账": 4943,
  "锁": 4944,
  "思": 4945,
  "佳@@": 4946,
  "优@@": 4947,
  "送给": 4948,
  "休闲": 4949,
  "一事": 4950,
  "一路": 4951,
  "73": 4952,
  "吸@@": 4953,
  "铜@@": 4954,
  "凭": 4955,
  "00": 4956,
  "碳": 4957,
  "克服": 4958,
  "耳@@": 4959,
  "蒋@@": 4960,
  "超出": 4961,
  "商场": 4962,
  "en": 4963,
  "夏季": 4964,
  "万科": 4965,
  "青岛": 4966,
  "告@@": 4967,
  "在家": 4968,
  "粉@@": 4969,
  "肖@@": 4970,
  "边界": 4971,
  "胶@@": 4972,
  "母@@": 4973,
  "切": 4974,
  "脂肪": 4975,
  "科技@@": 4976,
  "贾@@": 4977,
  "狂@@": 4978,
  "急": 4979,
  "弹": 4980,
  "逮捕": 4981,
  "峰会": 4982,
  "输@@": 4983,
  "苏": 4984,
  "政府部门": 4985,
  "缓慢": 4986,
  "伤@@": 4987,
  "回去": 4988,
  "两会": 4989,
  "缔约国": 4990,
  "阻碍": 4991,
  "共计": 4992,
  "炎": 4993,
  "严厉": 4994,
  "师@@": 4995,
  "山区": 4996,
  "五个": 4997,
  "00@@": 4998,
  "巨头": 4999,
  "波斯尼亚": 5000,
  "古": 5001,
  "差不多": 5002,
  "鸡": 5003,
  "汤姆": 5004,
  "露@@": 5005,
  "健全": 5006,
  "顺": 5007,
  "桑@@": 5008,
  "菲@@": 5009,
  "伟@@": 5010,
  "业内": 5011,
  "齐": 5012,
  "估值": 5013,
  "Z@@": 5014,
  "席": 5015,
  "瑞士": 5016,
  "事宜": 5017,
  "平板": 5018,
  "等级": 5019,
  "禁@@": 5020,
  "摆脱": 5021,
  "秦@@": 5022,
  "差别": 5023,
  "拆迁": 5024,
  "96": 5025,
  "友谊": 5026,
  "港@@": 5027,
  "体内": 5028,
  "甲": 5029,
  "职@@": 5030,
  "得出": 5031,
  "纲要": 5032,
  "一本": 5033,
  "短信": 5034,
  "电视剧": 5035,
  "大楼": 5036,
  "备@@": 5037,
  "度过": 5038,
  "王子": 5039,
  "银": 5040,
  "宪章": 5041,
  "度@@": 5042,
  "借@@": 5043,
  "占领": 5044,
  "韦@@": 5045,
  "强制": 5046,
  "步伐": 5047,
  "镜": 5048,
  "逾": 5049,
  "助@@": 5050,
  "扣": 5051,
  "首脑": 5052,
  "抓获": 5053,
  "伴随": 5054,
  "观察员": 5055,
  "K": 5056,
  "服@@": 5057,
  "海地": 5058,
  "增多": 5059,
  "销": 5060,
  "应付": 5061,
  "奇怪": 5062,
  "困境": 5063,
  "民主党": 5064,
  "洋": 5065,
  "讯": 5066,
  "玩具": 5067,
  "举@@": 5068,
  "属性": 5069,
  "柱": 5070,
  "和解": 5071,
  "俩": 5072,
  "行使": 5073,
  "13.@@": 5074,
  "丹@@": 5075,
  "报警": 5076,
  "男女": 5077,
  "拖@@": 5078,
  "处在": 5079,
  "大厦": 5080,
  "灾区": 5081,
  "糟糕": 5082,
  "1.8": 5083,
  "当代": 5084,
  "目录": 5085,
  "道理": 5086,
  "本质": 5087,
  "申@@": 5088,
  "债": 5089,
  "饭店": 5090,
  "常规": 5091,
  "研究员": 5092,
  "维生素": 5093,
  "阿拉伯": 5094,
  "房产税": 5095,
  "补助": 5096,
  "楼@@": 5097,
  "文化@@": 5098,
  "冰箱": 5099,
  "鸡@@": 5100,
  "谴责": 5101,
  "寒@@": 5102,
  "资": 5103,
  "电信": 5104,
  "商务部": 5105,
  "供给": 5106,
  "上去": 5107,
  "联络": 5108,
  "邮件": 5109,
  "吉": 5110,
  "县级": 5111,
  "那位": 5112,
  "ri@@": 5113,
  "睡觉": 5114,
  "完@@": 5115,
  "冬天": 5116,
  "种@@": 5117,
  "最多": 5118,
  "没什么": 5119,
  "福建": 5120,
  "建筑物": 5121,
  "甲@@": 5122,
  "板@@": 5123,
  "成效": 5124,
  "遏制": 5125,
  "教堂": 5126,
  "季节": 5127,
  "无人": 5128,
  "主办": 5129,
  "走访": 5130,
  "般": 5131,
  "无奈": 5132,
  "执政": 5133,
  "简直": 5134,
  "矿@@": 5135,
  "不论": 5136,
  "竞选": 5137,
  "福岛": 5138,
  "至关重要": 5139,
  "班@@": 5140,
  "佩@@": 5141,
  "扶持": 5142,
  "目@@": 5143,
  "极其": 5144,
  "变更": 5145,
  "可谓": 5146,
  "两大": 5147,
  "生效": 5148,
  "码": 5149,
  "较@@": 5150,
  "大宗": 5151,
  "机票": 5152,
  "一群": 5153,
  "卢旺达": 5154,
  "吸烟": 5155,
  "态": 5156,
  "音@@": 5157,
  "旁": 5158,
  "乡镇": 5159,
  "惩罚": 5160,
  "金钱": 5161,
  "姜@@": 5162,
  "湖@@": 5163,
  "登": 5164,
  "研讨会": 5165,
  "前期": 5166,
  "亲": 5167,
  "找@@": 5168,
  "一笔": 5169,
  "暴@@": 5170,
  "到处": 5171,
  "泉": 5172,
  "关联": 5173,
  "约定": 5174,
  "足以": 5175,
  "终端": 5176,
  "防范": 5177,
  "泡沫": 5178,
  "兴奋": 5179,
  "针": 5180,
  "一所": 5181,
  "×": 5182,
  "93": 5183,
  "济南": 5184,
  "广州市": 5185,
  "镇@@": 5186,
  "制造商": 5187,
  "左": 5188,
  "帮忙": 5189,
  "守": 5190,
  "希": 5191,
  "张柏芝": 5192,
  "上海@@": 5193,
  "赶@@": 5194,
  "编写": 5195,
  "培育": 5196,
  "争论": 5197,
  "机器人": 5198,
  "摄影": 5199,
  "绿": 5200,
  "选民": 5201,
  "分歧": 5202,
  "政权": 5203,
  "摆@@": 5204,
  "可见": 5205,
  "葡萄酒": 5206,
  "制约": 5207,
  "歌曲": 5208,
  "休@@": 5209,
  "解决方案": 5210,
  "夫@@": 5211,
  "副局长": 5212,
  "高管": 5213,
  "孟@@": 5214,
  "生日": 5215,
  "2015": 5216,
  "帐": 5217,
  "法案": 5218,
  "一篇": 5219,
  "86": 5220,
  "受益": 5221,
  "祖国": 5222,
  "灵活": 5223,
  "医@@": 5224,
  "终止": 5225,
  "上来": 5226,
  "敦促": 5227,
  "制品": 5228,
  "画面": 5229,
  "干扰": 5230,
  "克斯": 5231,
  "书面": 5232,
  "刚才": 5233,
  "流量": 5234,
  "跟着": 5235,
  "方针": 5236,
  "救济": 5237,
  "内心": 5238,
  "本报": 5239,
  "对抗": 5240,
  "写作": 5241,
  "港口": 5242,
  "黑暗": 5243,
  "收获": 5244,
  "气温": 5245,
  "洁": 5246,
  "伦@@": 5247,
  "迷@@": 5248,
  "主力": 5249,
  "被告人": 5250,
  "梁": 5251,
  "秋": 5252,
  "幸运": 5253,
  "激动": 5254,
  "全力": 5255,
  "四年": 5256,
  "奶": 5257,
  "羊@@": 5258,
  "判处": 5259,
  "持久": 5260,
  "宏@@": 5261,
  "体重": 5262,
  "邮票": 5263,
  "损伤": 5264,
  "一百@@": 5265,
  "杀@@": 5266,
  "不可@@": 5267,
  "９": 5268,
  "预警": 5269,
  "斯特": 5270,
  "荷兰": 5271,
  "衡量": 5272,
  "银行业": 5273,
  "慢": 5274,
  "餐": 5275,
  "受欢迎": 5276,
  "就算": 5277,
  "物理": 5278,
  "航@@": 5279,
  "反复": 5280,
  "去世": 5281,
  "05": 5282,
  "省级": 5283,
  "普及": 5284,
  "锋": 5285,
  "屏幕": 5286,
  "浪漫": 5287,
  "怪": 5288,
  "众": 5289,
  "沉@@": 5290,
  "谷": 5291,
  "煤@@": 5292,
  "一处": 5293,
  "答": 5294,
  "册": 5295,
  "组成部分": 5296,
  "养老": 5297,
  "自行": 5298,
  "设定": 5299,
  "上海市": 5300,
  "蛋白": 5301,
  "十大": 5302,
  "健": 5303,
  "74": 5304,
  "约@@": 5305,
  "心灵": 5306,
  "第十@@": 5307,
  "不行": 5308,
  "素@@": 5309,
  "―": 5310,
  "大国": 5311,
  "新年": 5312,
  "残@@": 5313,
  "啤酒": 5314,
  "时说": 5315,
  "减肥": 5316,
  "忽视": 5317,
  "新西兰": 5318,
  "数据@@": 5319,
  "庄": 5320,
  "不住": 5321,
  "舞": 5322,
  "街头": 5323,
  "早就": 5324,
  "110": 5325,
  "推迟": 5326,
  "蒙": 5327,
  "代替": 5328,
  "钟": 5329,
  "继承": 5330,
  "围@@": 5331,
  "干净": 5332,
  "盒": 5333,
  "所述": 5334,
  "密码": 5335,
  "26@@": 5336,
  "套@@": 5337,
  "笔@@": 5338,
  "92": 5339,
  "杂@@": 5340,
  "丰田": 5341,
  "风电": 5342,
  "实质性": 5343,
  "真相": 5344,
  "决赛": 5345,
  "雇员": 5346,
  "仲裁": 5347,
  "舞@@": 5348,
  "玉米": 5349,
  "高温": 5350,
  "姓": 5351,
  "应有": 5352,
  "附@@": 5353,
  "置": 5354,
  "商标": 5355,
  "71": 5356,
  "吸引力": 5357,
  "查看": 5358,
  "管道": 5359,
  "便@@": 5360,
  "搭": 5361,
  "越南": 5362,
  "ST": 5363,
  "长江": 5364,
  "14.@@": 5365,
  "高度重视": 5366,
  "上诉": 5367,
  "对接": 5368,
  "他会": 5369,
  "怎么办": 5370,
  "要么": 5371,
  "社会保障": 5372,
  "纯": 5373,
  "不让": 5374,
  "检": 5375,
  "服务器": 5376,
  "喷@@": 5377,
  "羊": 5378,
  "购": 5379,
  "帮@@": 5380,
  "转化": 5381,
  "奢侈品": 5382,
  "祝福": 5383,
  "父": 5384,
  "目光": 5385,
  "边缘": 5386,
  "另@@": 5387,
  "亲爱": 5388,
  "多边": 5389,
  "各位": 5390,
  "精彩": 5391,
  "课题": 5392,
  "迎@@": 5393,
  "精力": 5394,
  "83": 5395,
  "种子": 5396,
  "社会@@": 5397,
  "鼓@@": 5398,
  "人工": 5399,
  "竟": 5400,
  "减": 5401,
  "姐姐": 5402,
  "故意": 5403,
  "勇气": 5404,
  "结算": 5405,
  "刺@@": 5406,
  "梦@@": 5407,
  "基本@@": 5408,
  "汉语": 5409,
  "手里": 5410,
  "虎": 5411,
  "责令": 5412,
  "癌症": 5413,
  "欢@@": 5414,
  "薄": 5415,
  "携带": 5416,
  "发明": 5417,
  "菲律宾": 5418,
  "上年": 5419,
  "议题": 5420,
  "钟@@": 5421,
  "乘": 5422,
  "H": 5423,
  "乃至": 5424,
  "古巴": 5425,
  "洛": 5426,
  "毫米": 5427,
  "省政府": 5428,
  "观望": 5429,
  "解除": 5430,
  "亩": 5431,
  "均衡": 5432,
  "公示": 5433,
  "坛": 5434,
  "厚": 5435,
  "倡议": 5436,
  "念": 5437,
  "诗@@": 5438,
  "82": 5439,
  "物资": 5440,
  "单一": 5441,
  "扫@@": 5442,
  "变革": 5443,
  "09": 5444,
  "志愿": 5445,
  "工作者": 5446,
  "袁@@": 5447,
  "功": 5448,
  "设法": 5449,
  "车身": 5450,
  "奥迪": 5451,
  "鸡蛋": 5452,
  "89": 5453,
  "造": 5454,
  "改革开放": 5455,
  "太多": 5456,
  "古代": 5457,
  "ol@@": 5458,
  "垄断": 5459,
  "姚明": 5460,
  "区@@": 5461,
  "科研": 5462,
  "产权": 5463,
  "再也": 5464,
  "寻@@": 5465,
  "备案": 5466,
  "妹妹": 5467,
  "企业家": 5468,
  "涉@@": 5469,
  "招标": 5470,
  "汁": 5471,
  "止@@": 5472,
  "不变": 5473,
  "呼@@": 5474,
  "凭借": 5475,
  "主导": 5476,
  "频率": 5477,
  "尴尬": 5478,
  "抵押": 5479,
  "时许": 5480,
  "壁": 5481,
  "也就是说": 5482,
  "品@@": 5483,
  "iPad": 5484,
  "z@@": 5485,
  "车展": 5486,
  "长大": 5487,
  "彩": 5488,
  "仁@@": 5489,
  "mm": 5490,
  "胸@@": 5491,
  "滥用": 5492,
  "球迷": 5493,
  "哪@@": 5494,
  "个人@@": 5495,
  "兵@@": 5496,
  "生成": 5497,
  "心脏": 5498,
  "水泥": 5499,
  "孔@@": 5500,
  "封": 5501,
  "消耗": 5502,
  "吊@@": 5503,
  "我省": 5504,
  "am@@": 5505,
  "灵": 5506,
  "财@@": 5507,
  "氛围": 5508,
  "6000": 5509,
  "吕@@": 5510,
  "季度": 5511,
  "营造": 5512,
  "庆": 5513,
  "骂": 5514,
  "泽@@": 5515,
  "对不起": 5516,
  "淡@@": 5517,
  "穆@@": 5518,
  "细菌": 5519,
  "外国人": 5520,
  "隐@@": 5521,
  "事发": 5522,
  "核准": 5523,
  "交警": 5524,
  "信息化": 5525,
  "有期徒刑": 5526,
  "等于": 5527,
  "积@@": 5528,
  "il@@": 5529,
  "康": 5530,
  "买家": 5531,
  "形态": 5532,
  "琴": 5533,
  "身份证": 5534,
  "97": 5535,
  "阿根廷": 5536,
  "视@@": 5537,
  "万股": 5538,
  "仅@@": 5539,
  "第三方": 5540,
  "哥哥": 5541,
  "健@@": 5542,
  "购车": 5543,
  "签证": 5544,
  "1500": 5545,
  "北方": 5546,
  "蓝": 5547,
  "国债": 5548,
  "速@@": 5549,
  "只会": 5550,
  "困扰": 5551,
  "一颗": 5552,
  "注入": 5553,
  "服务业": 5554,
  "稳定性": 5555,
  "提及": 5556,
  "清单": 5557,
  "扬": 5558,
  "此举": 5559,
  "撤销": 5560,
  "79": 5561,
  "火灾": 5562,
  "87": 5563,
  "宽@@": 5564,
  "使命": 5565,
  "哈": 5566,
  "测@@": 5567,
  "01": 5568,
  "选拔": 5569,
  "脑": 5570,
  "听见": 5571,
  "从中": 5572,
  "乔布斯": 5573,
  "确立": 5574,
  "线索": 5575,
  "寄@@": 5576,
  "功率": 5577,
  "岗": 5578,
  "隔@@": 5579,
  "聚会": 5580,
  "策划": 5581,
  "罗马": 5582,
  "严峻": 5583,
  "SUV": 5584,
  "止": 5585,
  "东北": 5586,
  "镜头": 5587,
  "首批": 5588,
  "创业板": 5589,
  "无线": 5590,
  "接收": 5591,
  "顾@@": 5592,
  "事业单位": 5593,
  "权威": 5594,
  "益@@": 5595,
  "有益": 5596,
  "失踪": 5597,
  "台北": 5598,
  "去年同期": 5599,
  "一方": 5600,
  "一间": 5601,
  "延伸": 5602,
  "右": 5603,
  "公积金": 5604,
  "派出": 5605,
  "一代": 5606,
  "测定": 5607,
  "肌肉": 5608,
  "增长率": 5609,
  "等到": 5610,
  "舍": 5611,
  "英里": 5612,
  "辅助": 5613,
  "并购": 5614,
  "地带": 5615,
  "着手": 5616,
  "诞生": 5617,
  "歌@@": 5618,
  "折@@": 5619,
  "视觉": 5620,
  "评": 5621,
  "撒@@": 5622,
  "沟": 5623,
  "年间": 5624,
  "厂家": 5625,
  "一同": 5626,
  "买房": 5627,
  "表决": 5628,
  "届时": 5629,
  "组建": 5630,
  "忠": 5631,
  "业@@": 5632,
  "融入": 5633,
  "局部": 5634,
  "券商": 5635,
  "惊人": 5636,
  "室内": 5637,
  "另有": 5638,
  "门槛": 5639,
  "诸如": 5640,
  "校车": 5641,
  "匹配": 5642,
  "树立": 5643,
  "召回": 5644,
  "两者": 5645,
  "上演": 5646,
  "何时": 5647,
  "舒@@": 5648,
  "象征": 5649,
  "莫斯科": 5650,
  "桌子": 5651,
  "炸弹": 5652,
  "捐助": 5653,
  "妮": 5654,
  "势": 5655,
  "宝马": 5656,
  "菌": 5657,
  "股@@": 5658,
  "全球化": 5659,
  "利息": 5660,
  "相结合": 5661,
  "厚@@": 5662,
  "15.@@": 5663,
  "回复": 5664,
  "名叫": 5665,
  "燃烧": 5666,
  "公安": 5667,
  "渐渐": 5668,
  "论@@": 5669,
  "房企": 5670,
  "首个": 5671,
  "℃": 5672,
  "ing": 5673,
  "签": 5674,
  "角@@": 5675,
  "外出": 5676,
  "高位": 5677,
  "赞成": 5678,
  "据说": 5679,
  "白宫": 5680,
  "笑@@": 5681,
  "外资": 5682,
  "企图": 5683,
  "出国": 5684,
  "苏联": 5685,
  "删除": 5686,
  "企": 5687,
  "中部": 5688,
  "借鉴": 5689,
  "汽油": 5690,
  "季@@": 5691,
  "到期": 5692,
  "移@@": 5693,
  "距": 5694,
  "st@@": 5695,
  "餐馆": 5696,
  "灵@@": 5697,
  "销售额": 5698,
  "人民@@": 5699,
  "仓": 5700,
  "家园": 5701,
  "敢": 5702,
  "遵循": 5703,
  "四大": 5704,
  "向前": 5705,
  "玲": 5706,
  "部位": 5707,
  "调解": 5708,
  "老公": 5709,
  "一时": 5710,
  "气象": 5711,
  "爬": 5712,
  "赚钱": 5713,
  "份额": 5714,
  "知": 5715,
  "美女": 5716,
  "艺术品": 5717,
  "陪": 5718,
  "片@@": 5719,
  "敬@@": 5720,
  "辛亥革命": 5721,
  "玩@@": 5722,
  "新一轮": 5723,
  "开采": 5724,
  "94": 5725,
  "晚会": 5726,
  "工会": 5727,
  "答应": 5728,
  "看待": 5729,
  "大气": 5730,
  "编": 5731,
  "时机": 5732,
  "1998": 5733,
  "大卫": 5734,
  "开启": 5735,
  "度假": 5736,
  "钢铁": 5737,
  "资@@": 5738,
  "层次": 5739,
  "颇": 5740,
  "唱@@": 5741,
  "凯": 5742,
  "信仰": 5743,
  "有意": 5744,
  "景区": 5745,
  "郑州": 5746,
  "格式": 5747,
  "穿过": 5748,
  "大门": 5749,
  "生气": 5750,
  "触@@": 5751,
  "平静": 5752,
  "月饼": 5753,
  "硬": 5754,
  "害": 5755,
  "据@@": 5756,
  "81": 5757,
  "丧失": 5758,
  "统筹": 5759,
  "大赛": 5760,
  "派遣": 5761,
  "佛@@": 5762,
  "进出口": 5763,
  "昌@@": 5764,
  "街@@": 5765,
  "黄色": 5766,
  "春天": 5767,
  "多项": 5768,
  "邮政": 5769,
  "岭": 5770,
  "次@@": 5771,
  "山东省": 5772,
  "战胜": 5773,
  "陶@@": 5774,
  "牙": 5775,
  "新高": 5776,
  "体育@@": 5777,
  "隆": 5778,
  "诈骗": 5779,
  "鼻@@": 5780,
  "地理": 5781,
  "便是": 5782,
  "税率": 5783,
  "正面": 5784,
  "控制@@": 5785,
  "惊讶": 5786,
  "宜@@": 5787,
  "双边": 5788,
  "车站": 5789,
  "机组": 5790,
  "备受": 5791,
  "古老": 5792,
  "只好": 5793,
  "来讲": 5794,
  "薪酬": 5795,
  "蛋白质": 5796,
  "着力": 5797,
  "欲@@": 5798,
  "汇": 5799,
  "学历": 5800,
  "宽松": 5801,
  "经营者": 5802,
  "万人次": 5803,
  "常用": 5804,
  "一组": 5805,
  "冒@@": 5806,
  "浏览": 5807,
  "认同": 5808,
  "逃@@": 5809,
  "专题": 5810,
  "模糊": 5811,
  "轴": 5812,
  "实质": 5813,
  "et@@": 5814,
  "谈论": 5815,
  "君": 5816,
  "俊@@": 5817,
  "论述": 5818,
  "计@@": 5819,
  "邻居": 5820,
  "拟订": 5821,
  "充@@": 5822,
  "当作": 5823,
  "07": 5824,
  "情报": 5825,
  "仿佛": 5826,
  "奔驰": 5827,
  "骗": 5828,
  "缩小": 5829,
  "辛@@": 5830,
  "幼@@": 5831,
  "新生": 5832,
  "锦@@": 5833,
  "行李": 5834,
  "k": 5835,
  "雄": 5836,
  "几次": 5837,
  "相继": 5838,
  "ic@@": 5839,
  "紧密": 5840,
  "海啸": 5841,
  "购@@": 5842,
  "更改": 5843,
  "函数": 5844,
  "翻": 5845,
  "飘@@": 5846,
  "看好": 5847,
  "美联储": 5848,
  "本土": 5849,
  "达芬奇": 5850,
  "电价": 5851,
  "总局": 5852,
  "场景": 5853,
  "中旬": 5854,
  "朗": 5855,
  "大城市": 5856,
  "预订": 5857,
  "金融@@": 5858,
  "形状": 5859,
  "复制": 5860,
  "车主": 5861,
  "诺基亚": 5862,
  "遗@@": 5863,
  "走上": 5864,
  "震荡": 5865,
  "玛": 5866,
  "出版社": 5867,
  "84": 5868,
  "解读": 5869,
  "案@@": 5870,
  "进而": 5871,
  "谱": 5872,
  "严肃": 5873,
  "昆明": 5874,
  "三种": 5875,
  "激情": 5876,
  "随意": 5877,
  "准备金率": 5878,
  "挑选": 5879,
  "扣@@": 5880,
  "行政部门": 5881,
  "原材料": 5882,
  "忠@@": 5883,
  "有序": 5884,
  "黎巴嫩": 5885,
  "与@@": 5886,
  "位@@": 5887,
  "击@@": 5888,
  "一号": 5889,
  "缘": 5890,
  "沿着": 5891,
  "盐@@": 5892,
  "总会": 5893,
  "栋": 5894,
  "糖@@": 5895,
  "甜@@": 5896,
  "你@@": 5897,
  "壳": 5898,
  "虎@@": 5899,
  "依": 5900,
  "仅为": 5901,
  "存储": 5902,
  "熊@@": 5903,
  "石头": 5904,
  "瘦肉精": 5905,
  "低迷": 5906,
  "这句": 5907,
  "大厅": 5908,
  "订": 5909,
  "百年": 5910,
  "将军": 5911,
  "900": 5912,
  "池": 5913,
  "弟弟": 5914,
  "迹": 5915,
  "柳@@": 5916,
  "舒服": 5917,
  "铺": 5918,
  "引擎": 5919,
  "个体": 5920,
  "材": 5921,
  "生物@@": 5922,
  "故": 5923,
  "骑": 5924,
  "上下": 5925,
  "挂@@": 5926,
  "收盘": 5927,
  "劲": 5928,
  "洲": 5929,
  "初期": 5930,
  "布什": 5931,
  "靠近": 5932,
  "历史@@": 5933,
  "久@@": 5934,
  "酶": 5935,
  "航天": 5936,
  "处@@": 5937,
  "搭载": 5938,
  "泽": 5939,
  "现任": 5940,
  "东盟": 5941,
  "单元": 5942,
  "南斯拉夫": 5943,
  "节省": 5944,
  "检@@": 5945,
  "座位": 5946,
  "只不过": 5947,
  "统治": 5948,
  "三天": 5949,
  "股指": 5950,
  "办公": 5951,
  "06": 5952,
  "穿@@": 5953,
  "碎": 5954,
  "望@@": 5955,
  "创下": 5956,
  "CEO": 5957,
  "谢": 5958,
  "浙江省": 5959,
  "羊城晚报": 5960,
  "最小": 5961,
  "温家宝": 5962,
  "面包": 5963,
  "抗": 5964,
  "动荡": 5965,
  "统计数据": 5966,
  "之日起": 5967,
  "玩家": 5968,
  "礼@@": 5969,
  "潮流": 5970,
  "16.@@": 5971,
  "大盘": 5972,
  "地板": 5973,
  "硬件": 5974,
  "射@@": 5975,
  "1999": 5976,
  "桥@@": 5977,
  "民主@@": 5978,
  "撤离": 5979,
  "听取": 5980,
  "拘留": 5981,
  "教训": 5982,
  "爆@@": 5983,
  "快递": 5984,
  "嘉宾": 5985,
  "事先": 5986,
  "外汇": 5987,
  "要素": 5988,
  "换届": 5989,
  "懂得": 5990,
  "一声": 5991,
  "人为": 5992,
  "闻": 5993,
  "自杀": 5994,
  "主意": 5995,
  "医药": 5996,
  "随即": 5997,
  "无数": 5998,
  "燕": 5999,
  "St@@": 6000,
  "军方": 6001,
  "算是": 6002,
  "排队": 6003,
  "堡": 6004,
  "合资": 6005,
  "一层": 6006,
  "放心": 6007,
  "院士": 6008,
  "产业链": 6009,
  "所属": 6010,
  "赤@@": 6011,
  "抓@@": 6012,
  "大批": 6013,
  "厘米": 6014,
  "予": 6015,
  "疑问": 6016,
  "灯@@": 6017,
  "外交部": 6018,
  "百万": 6019,
  "政治@@": 6020,
  "半个": 6021,
  "重量": 6022,
  "将近": 6023,
  "解放": 6024,
  "喜": 6025,
  "可行": 6026,
  "储存": 6027,
  "逐@@": 6028,
  "宣称": 6029,
  "北大": 6030,
  "哲学": 6031,
  "世界@@": 6032,
  "人大代表": 6033,
  "斗": 6034,
  "大师": 6035,
  "猜测": 6036,
  "昌": 6037,
  "Facebook": 6038,
  "佳": 6039,
  "可怜": 6040,
  "02": 6041,
  "最快": 6042,
  "职员": 6043,
  "摇@@": 6044,
  "管理@@": 6045,
  "票@@": 6046,
  "宝贵": 6047,
  "法定": 6048,
  "指南": 6049,
  "勤": 6050,
  "分区": 6051,
  "怪@@": 6052,
  "设想": 6053,
  "钻石": 6054,
  "流入": 6055,
  "91": 6056,
  "女友": 6057,
  "仁": 6058,
  "雇主": 6059,
  "燃油": 6060,
  "is@@": 6061,
  "莎": 6062,
  "&lt;": 6063,
  "中国青年报": 6064,
  "精确": 6065,
  "市值": 6066,
  "备": 6067,
  "铜": 6068,
  "成品油": 6069,
  "尸体": 6070,
  "赞赏": 6071,
  "绝大多数": 6072,
  "作风": 6073,
  "当晚": 6074,
  "住@@": 6075,
  "限价": 6076,
  "ch@@": 6077,
  "闭@@": 6078,
  "致电": 6079,
  "容": 6080,
  "划分": 6081,
  "新股": 6082,
  "牌照": 6083,
  "射": 6084,
  "法律法规": 6085,
  "修正": 6086,
  "发送": 6087,
  "该项": 6088,
  "蔓延": 6089,
  "迎接": 6090,
  "当初": 6091,
  "商报": 6092,
  "截止": 6093,
  "鬼": 6094,
  "号码": 6095,
  "借助": 6096,
  "假设": 6097,
  "限度": 6098,
  "派@@": 6099,
  "炒作": 6100,
  "04": 6101,
  "优点": 6102,
  "1.4": 6103,
  "震@@": 6104,
  "文化产业": 6105,
  "有害": 6106,
  "审@@": 6107,
  "服务@@": 6108,
  "旅馆": 6109,
  "堆": 6110,
  "光伏": 6111,
  "邮@@": 6112,
  "返@@": 6113,
  "情节": 6114,
  "桶": 6115,
  "累": 6116,
  "政党": 6117,
  "纪律": 6118,
  "错@@": 6119,
  "火箭": 6120,
  "竞争对手": 6121,
  "提问": 6122,
  "公车": 6123,
  "维权": 6124,
  "欣": 6125,
  "干燥": 6126,
  "夹@@": 6127,
  "一次性": 6128,
  "增进": 6129,
  "一体": 6130,
  "智能手机": 6131,
  "局@@": 6132,
  "淘宝": 6133,
  "词@@": 6134,
  "这条": 6135,
  "价值观": 6136,
  "淘汰": 6137,
  "遇": 6138,
  "尾@@": 6139,
  "市场经济": 6140,
  "晚@@": 6141,
  "跑@@": 6142,
  "优雅": 6143,
  "东风": 6144,
  "人选": 6145,
  "Q@@": 6146,
  "艘": 6147,
  "孙": 6148,
  "干旱": 6149,
  "妈": 6150,
  "远离": 6151,
  "终@@": 6152,
  "18.@@": 6153,
  "之上": 6154,
  "荣誉": 6155,
  "柴油": 6156,
  "从不": 6157,
  "豪@@": 6158,
  "闹": 6159,
  "科学@@": 6160,
  "进攻": 6161,
  "军人": 6162,
  "薄@@": 6163,
  "可用": 6164,
  "j@@": 6165,
  "租@@": 6166,
  "咱们": 6167,
  "一根": 6168,
  "喊": 6169,
  "省份": 6170,
  "脱": 6171,
  "决@@": 6172,
  "摆": 6173,
  "时光": 6174,
  "一番": 6175,
  "订@@": 6176,
  "宇宙": 6177,
  "场@@": 6178,
  "测": 6179,
  "节约": 6180,
  "抱歉": 6181,
  "播放": 6182,
  "刀@@": 6183,
  "回国": 6184,
  "学家": 6185,
  "协作": 6186,
  "康复": 6187,
  "奋斗": 6188,
  "250": 6189,
  "版权": 6190,
  "ad@@": 6191,
  "水利": 6192,
  "三次": 6193,
  "叫做": 6194,
  "无需": 6195,
  "清洗": 6196,
  "通讯员": 6197,
  "贺@@": 6198,
  "03": 6199,
  "帽": 6200,
  "磋商": 6201,
  "汪@@": 6202,
  "不妨": 6203,
  "疫苗": 6204,
  "津贴": 6205,
  "套房": 6206,
  "用电": 6207,
  "安全@@": 6208,
  "批@@": 6209,
  "热门": 6210,
  "追究": 6211,
  "少量": 6212,
  "焦@@": 6213,
  "登陆": 6214,
  "出租": 6215,
  "童@@": 6216,
  "驻@@": 6217,
  "三线": 6218,
  "公安部": 6219,
  "自觉": 6220,
  "插@@": 6221,
  "倾@@": 6222,
  "尿@@": 6223,
  "款项": 6224,
  "过后": 6225,
  "增大": 6226,
  "收益率": 6227,
  "令@@": 6228,
  "消防": 6229,
  "难以@@": 6230,
  "亮点": 6231,
  "枚": 6232,
  "通货膨胀": 6233,
  "专用": 6234,
  "实用": 6235,
  "双手": 6236,
  "饼": 6237,
  "运营商": 6238,
  "索赔": 6239,
  "京沪": 6240,
  "工业@@": 6241,
  "水库": 6242,
  "约会": 6243,
  "直至": 6244,
  "家乡": 6245,
  "表情": 6246,
  "涂@@": 6247,
  "小麦": 6248,
  "寒": 6249,
  "结果显示": 6250,
  "恐怖": 6251,
  "付@@": 6252,
  "卫生部": 6253,
  "领取": 6254,
  "老婆": 6255,
  "万名": 6256,
  "胶": 6257,
  "优": 6258,
  "罕见": 6259,
  "吴": 6260,
  "撒": 6261,
  "脆弱": 6262,
  "这张": 6263,
  "跌@@": 6264,
  "罐": 6265,
  "安全性": 6266,
  "17.@@": 6267,
  "杰克": 6268,
  "暴雨": 6269,
  "刻": 6270,
  "一类": 6271,
  "保险@@": 6272,
  "污水": 6273,
  "厦门": 6274,
  "固@@": 6275,
  "马来西亚": 6276,
  "控@@": 6277,
  "IPO": 6278,
  "坦言": 6279,
  "恶劣": 6280,
  "这笔": 6281,
  "间@@": 6282,
  "刑法": 6283,
  "al": 6284,
  "级@@": 6285,
  "分散": 6286,
  "人会": 6287,
  "桂@@": 6288,
  "类别": 6289,
  "似的": 6290,
  "二级": 6291,
  "1.2": 6292,
  "青春": 6293,
  "眼前": 6294,
  "议案": 6295,
  "某人": 6296,
  "监察": 6297,
  "三十@@": 6298,
  "猛@@": 6299,
  "奖金": 6300,
  "毅": 6301,
  "生产总值": 6302,
  "善": 6303,
  "沿海": 6304,
  "翼": 6305,
  "天下": 6306,
  "长远": 6307,
  "f": 6308,
  "行政@@": 6309,
  "款@@": 6310,
  "瑞典": 6311,
  "国民党": 6312,
  "水资源": 6313,
  "限@@": 6314,
  "移": 6315,
  "美国政府": 6316,
  "IT": 6317,
  "脱离": 6318,
  "柜": 6319,
  "第四@@": 6320,
  "聊天": 6321,
  "无限": 6322,
  "谋@@": 6323,
  "文书": 6324,
  "窗": 6325,
  "样品": 6326,
  "对策": 6327,
  "大街": 6328,
  "查明": 6329,
  "金牌": 6330,
  "下发": 6331,
  "商业@@": 6332,
  "低价": 6333,
  "医": 6334,
  "赞同": 6335,
  "戈@@": 6336,
  "正好": 6337,
  "智": 6338,
  "户籍": 6339,
  "弹性": 6340,
  "高档": 6341,
  "附属": 6342,
  "练": 6343,
  "u": 6344,
  "样本": 6345,
  "香港@@": 6346,
  "这款": 6347,
  "霞": 6348,
  "奇迹": 6349,
  "魏@@": 6350,
  "偿还": 6351,
  "身材": 6352,
  "施行": 6353,
  "欣@@": 6354,
  "人力": 6355,
  "版@@": 6356,
  "密度": 6357,
  "言论": 6358,
  "观察团": 6359,
  "十一五": 6360,
  "暴露": 6361,
  "凤@@": 6362,
  "文本": 6363,
  "注意力": 6364,
  "儿@@": 6365,
  "损坏": 6366,
  "帅": 6367,
  "图案": 6368,
  "填@@": 6369,
  "联网": 6370,
  "管辖": 6371,
  "短缺": 6372,
  "刺": 6373,
  "二人": 6374,
  "曲线": 6375,
  "进度": 6376,
  "弥补": 6377,
  "丰": 6378,
  "25@@": 6379,
  "监督管理": 6380,
  "动员": 6381,
  "婚@@": 6382,
  "珠": 6383,
  "劳动者": 6384,
  "炉": 6385,
  "敌": 6386,
  "演@@": 6387,
  "粮": 6388,
  "8000": 6389,
  "电视@@": 6390,
  "内涵": 6391,
  "法治": 6392,
  "雄@@": 6393,
  "磊": 6394,
  "窗户": 6395,
  "耐心": 6396,
  "挂牌": 6397,
  "晒": 6398,
  "手指": 6399,
  "岩@@": 6400,
  "喝@@": 6401,
  "河南省": 6402,
  "模@@": 6403,
  "致使": 6404,
  "浅@@": 6405,
  "个股": 6406,
  "学费": 6407,
  "暖@@": 6408,
  "从此": 6409,
  "塑料": 6410,
  "子公司": 6411,
  "纳税": 6412,
  "当下": 6413,
  "源@@": 6414,
  "省市": 6415,
  "扎": 6416,
  "餐饮": 6417,
  "欧美": 6418,
  "中国队": 6419,
  "告": 6420,
  "发票": 6421,
  "向上": 6422,
  "消化": 6423,
  "姚@@": 6424,
  "艺": 6425,
  "空军": 6426,
  "长度": 6427,
  "NBA": 6428,
  "号线": 6429,
  "将要": 6430,
  "副总裁": 6431,
  "率@@": 6432,
  "菲": 6433,
  "莱": 6434,
  "洪水": 6435,
  "授予": 6436,
  "临近": 6437,
  "仿真": 6438,
  "渐@@": 6439,
  "展出": 6440,
  "话@@": 6441,
  "帽子": 6442,
  "戏@@": 6443,
  "原有": 6444,
  "评选": 6445,
  "护士": 6446,
  "老鼠": 6447,
  "签@@": 6448,
  "澄清": 6449,
  "尖@@": 6450,
  "透@@": 6451,
  "电子邮件": 6452,
  "工作@@": 6453,
  "每人": 6454,
  "拼@@": 6455,
  "命名": 6456,
  "略@@": 6457,
  "课@@": 6458,
  "跨@@": 6459,
  "发育": 6460,
  "三公": 6461,
  "层@@": 6462,
  "乘@@": 6463,
  "白天": 6464,
  "隐藏": 6465,
  "癌": 6466,
  "今@@": 6467,
  "社@@": 6468,
  "立法会": 6469,
  "正规": 6470,
  "蛇": 6471,
  "势头": 6472,
  "韩": 6473,
  "重庆市": 6474,
  "舱": 6475,
  "拯救": 6476,
  "型@@": 6477,
  "温": 6478,
  "播出": 6479,
  "棉@@": 6480,
  "表态": 6481,
  "万亿元": 6482,
  "冒": 6483,
  "词汇": 6484,
  "整改": 6485,
  "新一代": 6486,
  "战士": 6487,
  "中小学": 6488,
  "W": 6489,
  "os@@": 6490,
  "茅台": 6491,
  "书籍": 6492,
  "劳工": 6493,
  "孙中山": 6494,
  "学员": 6495,
  "枪@@": 6496,
  "牙@@": 6497,
  "留学生": 6498,
  "精品": 6499,
  "大胆": 6500,
  "负@@": 6501,
  "大连": 6502,
  "蛋糕": 6503,
  "般的": 6504,
  "先前": 6505,
  "大队": 6506,
  "折扣": 6507,
  "颁布": 6508,
  "航母": 6509,
  "床上": 6510,
  "小幅": 6511,
  "门店": 6512,
  "劳动@@": 6513,
  "投放": 6514,
  "济@@": 6515,
  "教室": 6516,
  "路径": 6517,
  "歌手": 6518,
  "语文": 6519,
  "周刊": 6520,
  "年报": 6521,
  "丢": 6522,
  "争端": 6523,
  "分公司": 6524,
  "证@@": 6525,
  "稳": 6526,
  "机动车": 6527,
  "名人": 6528,
  "成人": 6529,
  "不良": 6530,
  "审": 6531,
  "避@@": 6532,
  "宗旨": 6533,
  "战机": 6534,
  "没收": 6535,
  "少年": 6536,
  "南方日报": 6537,
  "伊斯兰": 6538,
  "24@@": 6539,
  "误@@": 6540,
  "对应": 6541,
  "场地": 6542,
  "违法行为": 6543,
  "性感": 6544,
  "营@@": 6545,
  "头上": 6546,
  "多位": 6547,
  "汇报": 6548,
  "标识": 6549,
  "一阵": 6550,
  "挖掘": 6551,
  "圆": 6552,
  "３": 6553,
  "单纯": 6554,
  "燕@@": 6555,
  "题目": 6556,
  "指引": 6557,
  "十足": 6558,
  "征@@": 6559,
  "超标": 6560,
  "传出": 6561,
  "何": 6562,
  "调动": 6563,
  "商城": 6564,
  "财经": 6565,
  "责": 6566,
  "世界各地": 6567,
  "卫视": 6568,
  "19.@@": 6569,
  "全民": 6570,
  "联想": 6571,
  "旅游业": 6572,
  "不起": 6573,
  "无关": 6574,
  "迫使": 6575,
  "票房": 6576,
  "中断": 6577,
  "形容": 6578,
  "茨": 6579,
  "精": 6580,
  "议定书": 6581,
  "扩@@": 6582,
  "千元": 6583,
  "欺诈": 6584,
  "书店": 6585,
  "斤": 6586,
  "导": 6587,
  "坚强": 6588,
  "很小": 6589,
  "改为": 6590,
  "婚": 6591,
  "分开": 6592,
  "侵权": 6593,
  "居然": 6594,
  "检察院": 6595,
  "23@@": 6596,
  "本科": 6597,
  "胆@@": 6598,
  "li@@": 6599,
  "文化遗产": 6600,
  "拖": 6601,
  "热烈": 6602,
  "一期": 6603,
  "内在": 6604,
  "搭@@": 6605,
  "国际化": 6606,
  "生育": 6607,
  "风暴": 6608,
  "带到": 6609,
  "高等教育": 6610,
  "油田": 6611,
  "略": 6612,
  "肿瘤": 6613,
  "世界杯": 6614,
  "竞赛": 6615,
  "点评": 6616,
  "间接": 6617,
  "长城": 6618,
  "钥匙": 6619,
  "欧": 6620,
  "签名": 6621,
  "运转": 6622,
  "边境": 6623,
  "预定": 6624,
  "模特": 6625,
  "私营": 6626,
  "器官": 6627,
  "废物": 6628,
  "实习": 6629,
  "节奏": 6630,
  "准@@": 6631,
  "针@@": 6632,
  "海岸": 6633,
  "系@@": 6634,
  "仪器": 6635,
  "余额": 6636,
  "逃": 6637,
  "收回": 6638,
  "饰": 6639,
  "上课": 6640,
  "商人": 6641,
  "大幅度": 6642,
  "从前": 6643,
  "过多": 6644,
  "交谈": 6645,
  "胃@@": 6646,
  "磁@@": 6647,
  "男友": 6648,
  "年纪": 6649,
  "纠正": 6650,
  "大声": 6651,
  "万亩": 6652,
  "鲜@@": 6653,
  "激发": 6654,
  "认知": 6655,
  "好事": 6656,
  "直辖市": 6657,
  "忽略": 6658,
  "观测": 6659,
  "叫@@": 6660,
  "坑": 6661,
  "讨厌": 6662,
  "m": 6663,
  "柔@@": 6664,
  "市场份额": 6665,
  "浓度": 6666,
  "&gt;": 6667,
  "姐": 6668,
  "阶层": 6669,
  "受损": 6670,
  "既有": 6671,
  "课堂": 6672,
  "涵盖": 6673,
  "滑": 6674,
  "熟": 6675,
  "载@@": 6676,
  "培@@": 6677,
  "学位": 6678,
  "之类": 6679,
  "腰": 6680,
  "公共服务": 6681,
  "暂@@": 6682,
  "正当": 6683,
  "合法权益": 6684,
  "阿尔@@": 6685,
  "烟草": 6686,
  "栏": 6687,
  "3.5": 6688,
  "铺@@": 6689,
  "模": 6690,
  "反馈": 6691,
  "国美": 6692,
  "当今": 6693,
  "旅行社": 6694,
  "例外": 6695,
  "le": 6696,
  "修建": 6697,
  "密": 6698,
  "玛丽": 6699,
  "缺@@": 6700,
  "轻易": 6701,
  "资深": 6702,
  "信息@@": 6703,
  "美的": 6704,
  "粘@@": 6705,
  "珍": 6706,
  "珠宝": 6707,
  "境": 6708,
  "奖@@": 6709,
  "日内瓦": 6710,
  "不太": 6711,
  "外来": 6712,
  "丹麦": 6713,
  "一向": 6714,
  "解决问题": 6715,
  "森@@": 6716,
  "纪@@": 6717,
  "一行": 6718,
  "夜间": 6719,
  "动漫": 6720,
  "眼镜": 6721,
  "访": 6722,
  "微博@@": 6723,
  "民航": 6724,
  "0.5": 6725,
  "穿越": 6726,
  "鹰": 6727,
  "和政": 6728,
  "弄@@": 6729,
  "实时": 6730,
  "春运": 6731,
  "农场": 6732,
  "舞蹈": 6733,
  "效力": 6734,
  "开会": 6735,
  "IMF": 6736,
  "青睐": 6737,
  "扔": 6738,
  "效": 6739,
  "设有": 6740,
  "擦@@": 6741,
  "电动": 6742,
  "仍@@": 6743,
  "民进党": 6744,
  "任职": 6745,
  "赞扬": 6746,
  "勇敢": 6747,
  "绝不": 6748,
  "个案": 6749,
  "感激": 6750,
  "头脑": 6751,
  "珍贵": 6752,
  "借贷": 6753,
  "搜狐": 6754,
  "经济学": 6755,
  "侧": 6756,
  "策": 6757,
  "录": 6758,
  "上限": 6759,
  "点击": 6760,
  "拜@@": 6761,
  "圣": 6762,
  "印刷": 6763,
  "疼痛": 6764,
  "甘肃": 6765,
  "分裂": 6766,
  "信念": 6767,
  "垂@@": 6768,
  "感冒": 6769,
  "东莞": 6770,
  "宣@@": 6771,
  "人事": 6772,
  "制止": 6773,
  "水电": 6774,
  "约合": 6775,
  "净@@": 6776,
  "午餐": 6777,
  "不见": 6778,
  "多元化": 6779,
  "体会": 6780,
  "一日": 6781,
  "正义": 6782,
  "熊": 6783,
  "2020": 6784,
  "细": 6785,
  "耶@@": 6786,
  "恋": 6787,
  "拨": 6788,
  "清除": 6789,
  "诸@@": 6790,
  "引领": 6791,
  "好友": 6792,
  "卫生@@": 6793,
  "ur@@": 6794,
  "睡@@": 6795,
  "不算": 6796,
  "_": 6797,
  "蒂@@": 6798,
  "工业化": 6799,
  "光明": 6800,
  "碰到": 6801,
  "关税": 6802,
  "天使": 6803,
  "挑@@": 6804,
  "收于": 6805,
  "此案": 6806,
  "停车场": 6807,
  "巨额": 6808,
  "威廉": 6809,
  "经纪人": 6810,
  "事后": 6811,
  "英译汉": 6812,
  "显": 6813,
  "漏洞": 6814,
  "执行官": 6815,
  "人大": 6816,
  "润@@": 6817,
  "隆@@": 6818,
  "崛起": 6819,
  "家伙": 6820,
  "4S店": 6821,
  "毫无疑问": 6822,
  "回升": 6823,
  "图为": 6824,
  "遗址": 6825,
  "赵本山": 6826,
  "攀升": 6827,
  "猪@@": 6828,
  "场合": 6829,
  "金融市场": 6830,
  "失": 6831,
  "抗旱": 6832,
  "最具": 6833,
  "景观": 6834,
  "列出": 6835,
  "宿舍": 6836,
  "链接": 6837,
  "滚@@": 6838,
  "∶": 6839,
  "储@@": 6840,
  "莫": 6841,
  "恶": 6842,
  "导航": 6843,
  "示@@": 6844,
  "湿": 6845,
  "毁": 6846,
  "对付": 6847,
  "夏": 6848,
  "译文": 6849,
  "变形": 6850,
  "清华大学": 6851,
  "祝贺": 6852,
  "旋转": 6853,
  "传闻": 6854,
  "血管": 6855,
  "教育@@": 6856,
  "官兵": 6857,
  "as@@": 6858,
  "警惕": 6859,
  "体制改革": 6860,
  "剪@@": 6861,
  "顶级": 6862,
  "抢劫": 6863,
  "显现": 6864,
  "闲@@": 6865,
  "侦查": 6866,
  "昂贵": 6867,
  "露出": 6868,
  "合作伙伴": 6869,
  "辽宁": 6870,
  "运送": 6871,
  "欢乐": 6872,
  "混凝土": 6873,
  "乙@@": 6874,
  "高价": 6875,
  "屈@@": 6876,
  "2.4": 6877,
  "鞋@@": 6878,
  "热量": 6879,
  "桥梁": 6880,
  "早餐": 6881,
  "核电": 6882,
  "热爱": 6883,
  "野": 6884,
  "孕妇": 6885,
  "冒险": 6886,
  "后期": 6887,
  "公交": 6888,
  "旗": 6889,
  "文献": 6890,
  "圣诞节": 6891,
  "系数": 6892,
  "充分发挥": 6893,
  "项@@": 6894,
  "走过": 6895,
  "附": 6896,
  "近来": 6897,
  "乌克兰": 6898,
  "出资": 6899,
  "当场": 6900,
  "判": 6901,
  "剥夺": 6902,
  "一架": 6903,
  "寿命": 6904,
  "同行": 6905,
  "社保": 6906,
  "中原": 6907,
  "耶": 6908,
  "暗示": 6909,
  "索尼": 6910,
  "灰色": 6911,
  "烧": 6912,
  "原始": 6913,
  "动机": 6914,
  "奶@@": 6915,
  "ia": 6916,
  "裁判": 6917,
  "力争": 6918,
  "传输": 6919,
  "见证": 6920,
  "火星": 6921,
  "竞@@": 6922,
  "颁发": 6923,
  "操作系统": 6924,
  "驾车": 6925,
  "刻@@": 6926,
  "财务@@": 6927,
  "共和党": 6928,
  "车市": 6929,
  "纹": 6930,
  "核实": 6931,
  "竹@@": 6932,
  "漫@@": 6933,
  "焦虑": 6934,
  "大事": 6935,
  "榜": 6936,
  "号@@": 6937,
  "好莱坞": 6938,
  "合计": 6939,
  "尽力": 6940,
  "育@@": 6941,
  "移植": 6942,
  "联合会": 6943,
  "卫": 6944,
  "民意": 6945,
  "涉案": 6946,
  "宏": 6947,
  "白酒": 6948,
  "锅": 6949,
  "民族@@": 6950,
  "区县": 6951,
  "中华民族": 6952,
  "一贯": 6953,
  "带给": 6954,
  "办学": 6955,
  "赛事": 6956,
  "密集": 6957,
  "虚拟": 6958,
  "附加": 6959,
  "疗效": 6960,
  "争夺": 6961,
  "隐患": 6962,
  "货车": 6963,
  "跨越": 6964,
  "疡": 6965,
  "肠": 6966,
  "数值": 6967,
  "巧克力": 6968,
  "任期": 6969,
  "列为": 6970,
  "乐趣": 6971,
  "细则": 6972,
  "拆除": 6973,
  "亮@@": 6974,
  "一遍": 6975,
  "用水": 6976,
  "海底": 6977,
  "迄今": 6978,
  "入境": 6979,
  "围": 6980,
  "势力": 6981,
  "三亚": 6982,
  "隧道": 6983,
  "多久": 6984,
  "千年": 6985,
  "贯彻": 6986,
  "入学": 6987,
  "扬@@": 6988,
  "来临": 6989,
  "疲劳": 6990,
  "公交车": 6991,
  "自然灾害": 6992,
  "国土": 6993,
  "监管部门": 6994,
  "险@@": 6995,
  "找出": 6996,
  "引用": 6997,
  "p": 6998,
  "U": 6999,
  "雾": 7000,
  "公务": 7001,
  "故宫": 7002,
  "教学@@": 7003,
  "村庄": 7004,
  "问责": 7005,
  "拔@@": 7006,
  "也门": 7007,
  "国家级": 7008,
  "制成": 7009,
  "酒吧": 7010,
  "俊": 7011,
  "详情": 7012,
  "报考": 7013,
  "预约": 7014,
  "大道": 7015,
  "目的地": 7016,
  "浪": 7017,
  "降温": 7018,
  "糖尿病": 7019,
  "腔": 7020,
  "谭@@": 7021,
  "瘤": 7022,
  "证件": 7023,
  "以内": 7024,
  "爱尔兰": 7025,
  "每股": 7026,
  "广阔": 7027,
  "少女": 7028,
  "物体": 7029,
  "大于": 7030,
  "芬": 7031,
  "园@@": 7032,
  "大片": 7033,
  "车上": 7034,
  "河北省": 7035,
  "鲁": 7036,
  "觉": 7037,
  "短暂": 7038,
  "房贷": 7039,
  "三分之一": 7040,
  "眼下": 7041,
  "克罗地亚": 7042,
  "360": 7043,
  "持@@": 7044,
  "不清": 7045,
  "马英九": 7046,
  "页面": 7047,
  "双重": 7048,
  "辉煌": 7049,
  "洛杉矶": 7050,
  "1.3": 7051,
  "奉@@": 7052,
  "鲍@@": 7053,
  "勇@@": 7054,
  "地质": 7055,
  "支配": 7056,
  "摩托车": 7057,
  "说出": 7058,
  "公主": 7059,
  "加州": 7060,
  "勤@@": 7061,
  "一头": 7062,
  "恋爱": 7063,
  "鸣": 7064,
  "Ch@@": 7065,
  "周二": 7066,
  "真诚": 7067,
  "国防": 7068,
  "安静": 7069,
  "突@@": 7070,
  "万个": 7071,
  "稍@@": 7072,
  "管理人员": 7073,
  "七年": 7074,
  "柏@@": 7075,
  "杀死": 7076,
  "铝": 7077,
  "额度": 7078,
  "LED": 7079,
  "瞬间": 7080,
  "传感器": 7081,
  "耕地": 7082,
  "拒": 7083,
  "尊敬": 7084,
  "国民经济": 7085,
  "死刑": 7086,
  "截@@": 7087,
  "历程": 7088,
  "沉重": 7089,
  "家居": 7090,
  "珠@@": 7091,
  "浩@@": 7092,
  "泛@@": 7093,
  "罪犯": 7094,
  "检察官": 7095,
  "气质": 7096,
  "纳税人": 7097,
  "多样化": 7098,
  "墓": 7099,
  "村里": 7100,
  "相处": 7101,
  "复兴": 7102,
  "首相": 7103,
  "尤@@": 7104,
  "复合": 7105,
  "参考报": 7106,
  "视察": 7107,
  "深圳市": 7108,
  "停留": 7109,
  "州@@": 7110,
  "灾": 7111,
  "矿业": 7112,
  "晋@@": 7113,
  "活着": 7114,
  "南海": 7115,
  "交付": 7116,
  "募集": 7117,
  "潮@@": 7118,
  "椅子": 7119,
  "缩短": 7120,
  "实例": 7121,
  "知情": 7122,
  "规格": 7123,
  "地雷": 7124,
  "制备": 7125,
  "视野": 7126,
  "ro@@": 7127,
  "百分之@@": 7128,
  "意志": 7129,
  "船只": 7130,
  "粒": 7131,
  "废@@": 7132,
  "剩余": 7133,
  "缅甸": 7134,
  "江苏省": 7135,
  "葡萄牙": 7136,
  "架构": 7137,
  "豪": 7138,
  "肝@@": 7139,
  "所在地": 7140,
  "稳@@": 7141,
  "译": 7142,
  "建筑面积": 7143,
  "火车站": 7144,
  "割@@": 7145,
  "队长": 7146,
  "摇号": 7147,
  "宏观": 7148,
  "20.@@": 7149,
  "际": 7150,
  "ir@@": 7151,
  "司@@": 7152,
  "刑事责任": 7153,
  "精英": 7154,
  "码头": 7155,
  "开幕式": 7156,
  "自由@@": 7157,
  "砸": 7158,
  "防御": 7159,
  "水分": 7160,
  "置@@": 7161,
  "证券日报": 7162,
  "征": 7163,
  "27@@": 7164,
  "置业": 7165,
  "湿@@": 7166,
  "铁矿石": 7167,
  "com": 7168,
  "低调": 7169,
  "激@@": 7170,
  "三星": 7171,
  "那边": 7172,
  "侧@@": 7173,
  "救灾": 7174,
  "皆": 7175,
  "玫瑰": 7176,
  "义务教育": 7177,
  "妨碍": 7178,
  "才@@": 7179,
  "岸": 7180,
  "分手": 7181,
  "妆": 7182,
  "罚": 7183,
  "衫": 7184,
  "占有": 7185,
  "宁夏": 7186,
  "引": 7187,
  "确@@": 7188,
  "人气": 7189,
  "ou@@": 7190,
  "积极性": 7191,
  "写道": 7192,
  "事务所": 7193,
  "尊严": 7194,
  "x@@": 7195,
  "增值": 7196,
  "采集": 7197,
  "晶@@": 7198,
  "挥@@": 7199,
  "许": 7200,
  "多万": 7201,
  "新人": 7202,
  "新娘": 7203,
  "抵@@": 7204,
  "挪威": 7205,
  "登上": 7206,
  "地沟油": 7207,
  "导向": 7208,
  "腰@@": 7209,
  "海盗": 7210,
  "凌@@": 7211,
  "卖出": 7212,
  "必将": 7213,
  "５": 7214,
  "眼中": 7215,
  "周一": 7216,
  "英寸": 7217,
  "180": 7218,
  "随之": 7219,
  "le@@": 7220,
  "市场化": 7221,
  "人文": 7222,
  "搬": 7223,
  "嗯": 7224,
  "拨款": 7225,
  "报告员": 7226,
  "海水": 7227,
  "擦": 7228,
  "化工": 7229,
  "征求意见": 7230,
  "缺点": 7231,
  "默@@": 7232,
  "悲@@": 7233,
  "仙@@": 7234,
  "铅": 7235,
  "员额": 7236,
  "国庆": 7237,
  "递交": 7238,
  "英镑": 7239,
  "封闭": 7240,
  "选出": 7241,
  "强迫": 7242,
  "el": 7243,
  "贯彻落实": 7244,
  "缺": 7245,
  "交通事故": 7246,
  "震惊": 7247,
  "清华": 7248,
  "宫@@": 7249,
  "欺骗": 7250,
  "起草": 7251,
  "区间": 7252,
  "团伙": 7253,
  "免@@": 7254,
  "自称": 7255,
  "印尼": 7256,
  "衰退": 7257,
  "势@@": 7258,
  "煮": 7259,
  "登录": 7260,
  "奠定": 7261,
  "长期以来": 7262,
  "疑@@": 7263,
  "祝": 7264,
  "鼓舞": 7265,
  "端@@": 7266,
  "透": 7267,
  "靠@@": 7268,
  "路边": 7269,
  "的@@": 7270,
  "圈@@": 7271,
  "合肥": 7272,
  "狼": 7273,
  "海口": 7274,
  "安哥拉": 7275,
  "永久": 7276,
  "物种": 7277,
  "放到": 7278,
  "功效": 7279,
  "不小": 7280,
  "激光": 7281,
  "艺@@": 7282,
  "苗": 7283,
  "北京晨报": 7284,
  "压缩": 7285,
  "规": 7286,
  "研@@": 7287,
  "新房": 7288,
  "奶奶": 7289,
  "泡@@": 7290,
  "艺术@@": 7291,
  "洁@@": 7292,
  "炮": 7293,
  "保密": 7294,
  "悲剧": 7295,
  "句子": 7296,
  "潜@@": 7297,
  "在外": 7298,
  "企@@": 7299,
  "第三次": 7300,
  "不时": 7301,
  "Android": 7302,
  "部件": 7303,
  "缴": 7304,
  "哈尔滨": 7305,
  "都@@": 7306,
  "销@@": 7307,
  "J": 7308,
  "卓@@": 7309,
  "爆": 7310,
  "搞@@": 7311,
  "翔": 7312,
  "豆@@": 7313,
  "化妆品": 7314,
  "众人": 7315,
  "以期": 7316,
  "两周": 7317,
  "孤@@": 7318,
  "想想": 7319,
  "富豪": 7320,
  "据统计": 7321,
  "目前为止": 7322,
  "李娜": 7323,
  "出手": 7324,
  "双汇": 7325,
  "过分": 7326,
  "全身": 7327,
  "输": 7328,
  "看过": 7329,
  "耳": 7330,
  "冻@@": 7331,
  "免疫": 7332,
  "区内": 7333,
  "请问": 7334,
  "高出": 7335,
  "接口": 7336,
  "童": 7337,
  "这块": 7338,
  "采": 7339,
  "胡": 7340,
  "师傅": 7341,
  "次数": 7342,
  "诉": 7343,
  "酒精": 7344,
  "甚@@": 7345,
  "一轮": 7346,
  "吻": 7347,
  "缺口": 7348,
  "而成": 7349,
  "风景": 7350,
  "乔治": 7351,
  "系统@@": 7352,
  "谷@@": 7353,
  "2013": 7354,
  "餐@@": 7355,
  "闪@@": 7356,
  "监@@": 7357,
  "皇家": 7358,
  "题材": 7359,
  "三季度": 7360,
  "芯片": 7361,
  "吹": 7362,
  "噢": 7363,
  "卷@@": 7364,
  "随机": 7365,
  "苑": 7366,
  "相互@@": 7367,
  "灭": 7368,
  "": 7369,
  "猎@@": 7370,
  "沙漠": 7371,
  "鼠": 7372,
  "错过": 7373,
  "一个@@": 7374,
  "猜": 7375,
  "牙齿": 7376,
  "慢@@": 7377,
  "泡": 7378,
  "雷达": 7379,
  "桌": 7380,
  "富裕": 7381,
  "票价": 7382,
  "传承": 7383,
  "偶尔": 7384,
  "尊@@": 7385,
  "比亚迪": 7386,
  "电影@@": 7387,
  "媒介": 7388,
  "布朗": 7389,
  "一股": 7390,
  "国家统计局": 7391,
  "此项": 7392,
  "负面": 7393,
  "酷": 7394,
  "保守": 7395,
  "填写": 7396,
  "历@@": 7397,
  "买入": 7398,
  "泥@@": 7399,
  "甚": 7400,
  "辛苦": 7401,
  "暨": 7402,
  "全国政协": 7403,
  "安慰": 7404,
  "座谈会": 7405,
  "摩@@": 7406,
  "徒": 7407,
  "作物": 7408,
  "西南": 7409,
  "谢霆锋": 7410,
  "非正式": 7411,
  "艳": 7412,
  "伏@@": 7413,
  "ed@@": 7414,
  "以免": 7415,
  "流域": 7416,
  "脸@@": 7417,
  "薪": 7418,
  "热议": 7419,
  "受贿": 7420,
  "首发": 7421,
  "拟@@": 7422,
  "统@@": 7423,
  "130": 7424,
  "嘛": 7425,
  "过年": 7426,
  "寺": 7427,
  "任意": 7428,
  "恨": 7429,
  "务@@": 7430,
  "模仿": 7431,
  "宾馆": 7432,
  "央企": 7433,
  "都市": 7434,
  "适@@": 7435,
  "幽默": 7436,
  "柯@@": 7437,
  "播@@": 7438,
  "大地": 7439,
  "束": 7440,
  "资讯科技": 7441,
  "首要": 7442,
  "凉": 7443,
  "战场": 7444,
  "一手": 7445,
  "续@@": 7446,
  "耳朵": 7447,
  "波兰": 7448,
  "六个": 7449,
  "服用": 7450,
  "剑@@": 7451,
  "远程": 7452,
  "意图": 7453,
  "英尺": 7454,
  "养殖": 7455,
  "教会": 7456,
  "水面": 7457,
  "往年": 7458,
  "出让": 7459,
  "举动": 7460,
  "上级": 7461,
  "un@@": 7462,
  "经纪": 7463,
  "妹": 7464,
  "逼": 7465,
  "槽": 7466,
  "稀@@": 7467,
  "不当": 7468,
  "组件": 7469,
  "侯@@": 7470,
  "牵@@": 7471,
  "使用者": 7472,
  "鸿@@": 7473,
  "未成年人": 7474,
  "挡": 7475,
  "墙上": 7476,
  "源于": 7477,
  "很长": 7478,
  "天天": 7479,
  "抚@@": 7480,
  "函": 7481,
  "廖@@": 7482,
  "电动车": 7483,
  "专访": 7484,
  "倡导": 7485,
  "售@@": 7486,
  "区分": 7487,
  "花钱": 7488,
  "预报": 7489,
  "园区": 7490,
  "随便": 7491,
  "QQ": 7492,
  "队@@": 7493,
  "科学技术": 7494,
  "锡@@": 7495,
  "凸显": 7496,
  "一流": 7497,
  "烦恼": 7498,
  "跨": 7499,
  "影像": 7500,
  "中小": 7501,
  "范畴": 7502,
  "贤": 7503,
  "中等": 7504,
  "累@@": 7505,
  "29@@": 7506,
  "骄傲": 7507,
  "污染物": 7508,
  "旺": 7509,
  "环境@@": 7510,
  "臂": 7511,
  "自治": 7512,
  "军官": 7513,
  "长春": 7514,
  "液体": 7515,
  "柬埔寨": 7516,
  "低收入": 7517,
  "温和": 7518,
  "热线": 7519,
  "宾": 7520,
  "刷": 7521,
  "强势": 7522,
  "飞行员": 7523,
  "驾": 7524,
  "艺人": 7525,
  "无效": 7526,
  "闹@@": 7527,
  "天价": 7528,
  "往来": 7529,
  "沿@@": 7530,
  "龄": 7531,
  "裤": 7532,
  "设@@": 7533,
  "洪": 7534,
  "寒冷": 7535,
  "按摩": 7536,
  "起飞": 7537,
  "川@@": 7538,
  "ab@@": 7539,
  "坚@@": 7540,
  "宾@@": 7541,
  "胎": 7542,
  "日常生活": 7543,
  "参赛": 7544,
  "商业地产": 7545,
  "赖@@": 7546,
  "普京": 7547,
  "画家": 7548,
  "诚@@": 7549,
  "大桥": 7550,
  "刊登": 7551,
  "分发": 7552,
  "贝": 7553,
  "券": 7554,
  "不合理": 7555,
  "女王": 7556,
  "缺失": 7557,
  "冠@@": 7558,
  "透明度": 7559,
  "总共": 7560,
  "收紧": 7561,
  "艳@@": 7562,
  "马克": 7563,
  "史密斯": 7564,
  "姿态": 7565,
  "赶紧": 7566,
  "自然@@": 7567,
  "杰出": 7568,
  "比如说": 7569,
  "必需": 7570,
  "外形": 7571,
  "命@@": 7572,
  "资质": 7573,
  "原子能": 7574,
  "工商": 7575,
  "唯": 7576,
  "突尼斯": 7577,
  "不止": 7578,
  "益": 7579,
  "贫@@": 7580,
  "犬": 7581,
  "二次": 7582,
  "容量": 7583,
  "尔斯": 7584,
  "几种": 7585,
  "律": 7586,
  "使用权": 7587,
  "追踪": 7588,
  "娃": 7589,
  "美食": 7590,
  "证监会": 7591,
  "欠": 7592,
  "中说": 7593,
  "构造": 7594,
  "大臣": 7595,
  "遍": 7596,
  "支持者": 7597,
  "负债": 7598,
  "盯": 7599,
  "坡": 7600,
  "交通运输": 7601,
  "下属": 7602,
  "朗@@": 7603,
  "独自": 7604,
  "全程": 7605,
  "弃": 7606,
  "网球": 7607,
  "冬": 7608,
  "加热": 7609,
  "途中": 7610,
  "历": 7611,
  "训": 7612,
  "车票": 7613,
  "碰@@": 7614,
  "干涉": 7615,
  "摧毁": 7616,
  "河流": 7617,
  "章@@": 7618,
  "涨@@": 7619,
  "说服": 7620,
  "通告": 7621,
  "舰": 7622,
  "得不到": 7623,
  "肯@@": 7624,
  "肯": 7625,
  "真理": 7626,
  "硕士": 7627,
  "ig@@": 7628,
  "故@@": 7629,
  "福特": 7630,
  "钙": 7631,
  "消灭": 7632,
  "不去": 7633,
  "爱好": 7634,
  "采取措施": 7635,
  "退役": 7636,
  "座@@": 7637,
  "起点": 7638,
  "／": 7639,
  "标准化": 7640,
  "荷@@": 7641,
  "辞": 7642,
  "这点": 7643,
  "凉@@": 7644,
  "劝": 7645,
  "投机": 7646,
  "荒@@": 7647,
  "名额": 7648,
  "壮@@": 7649,
  "旅@@": 7650,
  "豆": 7651,
  "实习生": 7652,
  "手动": 7653,
  "出版物": 7654,
  "行程": 7655,
  "厕所": 7656,
  "内阁": 7657,
  "一幅": 7658,
  "疑": 7659,
  "通知书": 7660,
  "该校": 7661,
  "祖": 7662,
  "呈现出": 7663,
  "理财": 7664,
  "不已": 7665,
  "几十@@": 7666,
  "牛肉": 7667,
  "汗": 7668,
  "助": 7669,
  "干什么": 7670,
  "半岛": 7671,
  "我方": 7672,
  "剧@@": 7673,
  "仿@@": 7674,
  "球场": 7675,
  "网购": 7676,
  "北美": 7677,
  "枝@@": 7678,
  "时间表": 7679,
  "卢": 7680,
  "一律": 7681,
  "造假": 7682,
  "击败": 7683,
  "四川省": 7684,
  "根源": 7685,
  "幕": 7686,
  "支队": 7687,
  "两地": 7688,
  "价格@@": 7689,
  "频频": 7690,
  "残疾": 7691,
  "教材": 7692,
  "出门": 7693,
  "锁@@": 7694,
  "养生": 7695,
  "诱惑": 7696,
  "芝加哥": 7697,
  "魔@@": 7698,
  "绘画": 7699,
  "铁道部": 7700,
  "生态环境": 7701,
  "保罗": 7702,
  "奉献": 7703,
  "世界银行": 7704,
  "民营": 7705,
  "入住": 7706,
  "艰苦": 7707,
  "乔": 7708,
  "心脏病": 7709,
  "通行": 7710,
  "新兴产业": 7711,
  "朱": 7712,
  "定制": 7713,
  "生于": 7714,
  "高尔夫": 7715,
  "化解": 7716,
  "桃@@": 7717,
  "上游": 7718,
  "勘探": 7719,
  "垫": 7720,
  "变为": 7721,
  "深深": 7722,
  "放大": 7723,
  "简化": 7724,
  "量化": 7725,
  "处分": 7726,
  "拒@@": 7727,
  "比尔": 7728,
  "反思": 7729,
  "传说": 7730,
  "无力": 7731,
  "气息": 7732,
  "锁定": 7733,
  "修正案": 7734,
  "税@@": 7735,
  "店@@": 7736,
  "借口": 7737,
  "3G": 7738,
  "献@@": 7739,
  "针对性": 7740,
  "探测": 7741,
  "社会各界": 7742,
  "新政": 7743,
  "牌@@": 7744,
  "萎缩": 7745,
  "闻@@": 7746,
  "象@@": 7747,
  "创始人": 7748,
  "孝@@": 7749,
  "湖南省": 7750,
  "场面": 7751,
  "情景": 7752,
  "加重": 7753,
  "播": 7754,
  "多样性": 7755,
  "败@@": 7756,
  "所长": 7757,
  "国家队": 7758,
  "裁定": 7759,
  "味@@": 7760,
  "160": 7761,
  "扶贫": 7762,
  "7000": 7763,
  "盗@@": 7764,
  "崩溃": 7765,
  "裁决": 7766,
  "倾斜": 7767,
  "容忍": 7768,
  "阳市": 7769,
  "从小": 7770,
  "掀起": 7771,
  "内饰": 7772,
  "转发": 7773,
  "看作": 7774,
  "赵": 7775,
  "人大常委会": 7776,
  "诚实": 7777,
  "过高": 7778,
  "不确定性": 7779,
  "评审": 7780,
  "庄@@": 7781,
  "西北": 7782,
  "特大": 7783,
  "杰夫": 7784,
  "失业率": 7785,
  "战略性": 7786,
  "彼得": 7787,
  "南昌": 7788,
  "同情": 7789,
  "携手": 7790,
  "沃尔玛": 7791,
  "岩石": 7792,
  "刑@@": 7793,
  "钻@@": 7794,
  "美容": 7795,
  "党组织": 7796,
  "市场@@": 7797,
  "琪": 7798,
  "冷静": 7799,
  "护": 7800,
  "终身": 7801,
  "苗@@": 7802,
  "140": 7803,
  "化名": 7804,
  "邵@@": 7805,
  "代表性": 7806,
  "迈@@": 7807,
  "愿@@": 7808,
  "出具": 7809,
  "我家": 7810,
  "体检": 7811,
  "陵": 7812,
  "200@@": 7813,
  "示威": 7814,
  "扫描": 7815,
  "一共": 7816,
  "一杯": 7817,
  "预售": 7818,
  "卓越": 7819,
  "娟": 7820,
  "受灾": 7821,
  "宋": 7822,
  "源头": 7823,
  "看似": 7824,
  "头部": 7825,
  "段时间": 7826,
  "生猪": 7827,
  "十二@@": 7828,
  "洗衣机": 7829,
  "女星": 7830,
  "亲切": 7831,
  "锐@@": 7832,
  "不明": 7833,
  "加盟": 7834,
  "手法": 7835,
  "後": 7836,
  "宣传@@": 7837,
  "岳@@": 7838,
  "题@@": 7839,
  "底部": 7840,
  "帖子": 7841,
  "健身": 7842,
  "标记": 7843,
  "惊喜": 7844,
  "等候": 7845,
  "高科技": 7846,
  "把@@": 7847,
  "传奇": 7848,
  "复": 7849,
  "投标": 7850,
  "宇@@": 7851,
  "会同": 7852,
  "鼻子": 7853,
  "前所未有": 7854,
  "洞@@": 7855,
  "不出": 7856,
  "证人": 7857,
  "储蓄": 7858,
  "窗@@": 7859,
  "失误": 7860,
  "嘉": 7861,
  "年末": 7862,
  "佛": 7863,
  "拜": 7864,
  "湿地": 7865,
  "不准": 7866,
  "被捕": 7867,
  "革命@@": 7868,
  "绝": 7869,
  "屏": 7870,
  "脉": 7871,
  "神经@@": 7872,
  "马丁": 7873,
  "伪造": 7874,
  "兼@@": 7875,
  "国有企业": 7876,
  "受访者": 7877,
  "城管": 7878,
  "几十年": 7879,
  "斗@@": 7880,
  "手册": 7881,
  "肥胖": 7882,
  "阻@@": 7883,
  "连锁": 7884,
  "萍": 7885,
  "行走": 7886,
  "拉动": 7887,
  "操@@": 7888,
  "院@@": 7889,
  "电路": 7890,
  "捐@@": 7891,
  "迁@@": 7892,
  "缩@@": 7893,
  "自豪": 7894,
  "遭@@": 7895,
  "参照": 7896,
  "不该": 7897,
  "艇": 7898,
  "遗产": 7899,
  "死者": 7900,
  "菌@@": 7901,
  "几位": 7902,
  "刊": 7903,
  "军事@@": 7904,
  "黎@@": 7905,
  "持平": 7906,
  "拨打": 7907,
  "狂": 7908,
  "支票": 7909,
  "24.@@": 7910,
  "黑人": 7911,
  "符号": 7912,
  "荒": 7913,
  "岛屿": 7914,
  "持股": 7915,
  "凡@@": 7916,
  "税务": 7917,
  "好转": 7918,
  "界定": 7919,
  "分数": 7920,
  "临": 7921,
  "腾": 7922,
  "群岛": 7923,
  "搭建": 7924,
  "之旅": 7925,
  "Y": 7926,
  "窝": 7927,
  "扬子晚报": 7928,
  "老年": 7929,
  "地域": 7930,
  "电视机": 7931,
  "凝@@": 7932,
  "分成": 7933,
  "电源": 7934,
  "研": 7935,
  "英格兰": 7936,
  "小小的": 7937,
  "生活@@": 7938,
  "寿@@": 7939,
  "喝酒": 7940,
  "主演": 7941,
  "不高": 7942,
  "有限责任": 7943,
  "颗": 7944,
  "宁波": 7945,
  "50@@": 7946,
  "末@@": 7947,
  "穷人": 7948,
  "汽车@@": 7949,
  "利亚": 7950,
  "援引": 7951,
  "扶@@": 7952,
  "节点": 7953,
  "伸@@": 7954,
  "红军": 7955,
  "之声": 7956,
  "吓": 7957,
  "墨@@": 7958,
  "噪音": 7959,
  "莲": 7960,
  "仓库": 7961,
  "骗@@": 7962,
  "吞@@": 7963,
  "施": 7964,
  "悦": 7965,
  "夜晚": 7966,
  "人口@@": 7967,
  "值@@": 7968,
  "上次": 7969,
  "跨国": 7970,
  "含义": 7971,
  "醉": 7972,
  "时段": 7973,
  "崔@@": 7974,
  "忧虑": 7975,
  "获利": 7976,
  "跳舞": 7977,
  "纪委": 7978,
  "外长": 7979,
  "树木": 7980,
  "户口": 7981,
  "飞船": 7982,
  "郊区": 7983,
  "录像": 7984,
  "完毕": 7985,
  "病情": 7986,
  "偶然": 7987,
  "赠送": 7988,
  "街上": 7989,
  "违背": 7990,
  "相机": 7991,
  "忍受": 7992,
  "致命": 7993,
  "反恐": 7994,
  "葛@@": 7995,
  "键": 7996,
  "圣诞": 7997,
  "着重": 7998,
  "湘@@": 7999,
  "沿": 8000,
  "降幅": 8001,
  "适宜": 8002,
  "检疫": 8003,
  "卖场": 8004,
  "催@@": 8005,
  "座椅": 8006,
  "沉默": 8007,
  "帖": 8008,
  "席位": 8009,
  "县@@": 8010,
  "巡逻": 8011,
  "宜": 8012,
  "西亚": 8013,
  "拆@@": 8014,
  "同一个": 8015,
  "草原": 8016,
  "渔@@": 8017,
  "这会": 8018,
  "颖": 8019,
  "集团公司": 8020,
  "释@@": 8021,
  "斑": 8022,
  "署长": 8023,
  "主场": 8024,
  "裂": 8025,
  "丑闻": 8026,
  "冲动": 8027,
  "卡车": 8028,
  "跃@@": 8029,
  "id@@": 8030,
  "短期内": 8031,
  "霜": 8032,
  "怒@@": 8033,
  "周三": 8034,
  "澳": 8035,
  "办案": 8036,
  "崇@@": 8037,
  "豪宅": 8038,
  "一眼": 8039,
  "产物": 8040,
  "零部件": 8041,
  "盲目": 8042,
  "占用": 8043,
  "恰当": 8044,
  "价格指数": 8045,
  "杀害": 8046,
  "生产力": 8047,
  "各种各样": 8048,
  "家乐福": 8049,
  "电台": 8050,
  "增添": 8051,
  "副总经理": 8052,
  "帐户": 8053,
  "肺": 8054,
  "集成": 8055,
  "竣工": 8056,
  "眼泪": 8057,
  "天堂": 8058,
  "罪@@": 8059,
  "鲜明": 8060,
  "公认": 8061,
  "抢救": 8062,
  "拨@@": 8063,
  "具体@@": 8064,
  "规@@": 8065,
  "户型": 8066,
  "炒": 8067,
  "停产": 8068,
  "恒": 8069,
  "集合": 8070,
  "裙": 8071,
  "飙升": 8072,
  "灰": 8073,
  "星期五": 8074,
  "车子": 8075,
  "违约": 8076,
  "流离失所": 8077,
  "鑫": 8078,
  "挺@@": 8079,
  "会晤": 8080,
  "谈谈": 8081,
  "唯@@": 8082,
  "亲属": 8083,
  "上映": 8084,
  "英语@@": 8085,
  "传言": 8086,
  "免": 8087,
  "供电": 8088,
  "好多": 8089,
  "绕": 8090,
  "电影节": 8091,
  "专业@@": 8092,
  "中毒": 8093,
  "展望": 8094,
  "尘": 8095,
  "胸": 8096,
  "盖茨": 8097,
  "全国人大常委会": 8098,
  "火爆": 8099,
  "某某": 8100,
  "th@@": 8101,
  "延误": 8102,
  "四周": 8103,
  "精心": 8104,
  "衬衫": 8105,
  "不可避免": 8106,
  "一身": 8107,
  "炒@@": 8108,
  "君@@": 8109,
  "om@@": 8110,
  "新城": 8111,
  "务实": 8112,
  "ac@@": 8113,
  "亭": 8114,
  "赫": 8115,
  "影视": 8116,
  "丝毫": 8117,
  "计算机@@": 8118,
  "布置": 8119,
  "碗": 8120,
  "撤@@": 8121,
  "男生": 8122,
  "泄漏": 8123,
  "司法@@": 8124,
  "马克思主义": 8125,
  "坏@@": 8126,
  "日元": 8127,
  "融": 8128,
  "电机": 8129,
  "身为": 8130,
  "恐慌": 8131,
  "线条": 8132,
  "参与者": 8133,
  "分局": 8134,
  "善于": 8135,
  "讲座": 8136,
  "蜂@@": 8137,
  "彬": 8138,
  "Mar@@": 8139,
  "城市化": 8140,
  "流传": 8141,
  "瘦": 8142,
  "饭@@": 8143,
  "入侵": 8144,
  "哥@@": 8145,
  "碰撞": 8146,
  "驾驶员": 8147,
  "擅自": 8148,
  "外表": 8149,
  "维也纳": 8150,
  "汽@@": 8151,
  "专注": 8152,
  "用作": 8153,
  "吐@@": 8154,
  "屋顶": 8155,
  "博览会": 8156,
  "坐下": 8157,
  "处境": 8158,
  "演唱会": 8159,
  "开出": 8160,
  "不肯": 8161,
  "共同@@": 8162,
  "薪金": 8163,
  "迷": 8164,
  "什@@": 8165,
  "脂": 8166,
  "诉求": 8167,
  "仆人": 8168,
  "耀@@": 8169,
  "生动": 8170,
  "坝": 8171,
  "攻@@": 8172,
  "这起": 8173,
  "碳@@": 8174,
  "莉@@": 8175,
  "水中": 8176,
  "顺序": 8177,
  "出任": 8178,
  "华尔街": 8179,
  "一倍": 8180,
  "排查": 8181,
  "漫长": 8182,
  "回避": 8183,
  "建设性": 8184,
  "塔利班": 8185,
  "谋": 8186,
  "是@@": 8187,
  "皇帝": 8188,
  "摸": 8189,
  "暖": 8190,
  "协@@": 8191,
  "灾后": 8192,
  "旅": 8193,
  "未必": 8194,
  "初中": 8195,
  "星期一": 8196,
  "共同努力": 8197,
  "迈克尔": 8198,
  "妻": 8199,
  "月球": 8200,
  "办事": 8201,
  "跟随": 8202,
  "福州": 8203,
  "轨": 8204,
  "当成": 8205,
  "友@@": 8206,
  "有钱": 8207,
  "注射": 8208,
  "敏@@": 8209,
  "企业@@": 8210,
  "除此之外": 8211,
  "简历": 8212,
  "午@@": 8213,
  "产品@@": 8214,
  "权限": 8215,
  "晶": 8216,
  "前途": 8217,
  "减弱": 8218,
  "何种": 8219,
  "委会": 8220,
  "油气": 8221,
  "入市": 8222,
  "操纵": 8223,
  "海南省": 8224,
  "阴影": 8225,
  "李某": 8226,
  "迫切": 8227,
  "挖@@": 8228,
  "患有": 8229,
  "下行": 8230,
  "全都": 8231,
  "有毒": 8232,
  "瓜": 8233,
  "有效性": 8234,
  "报表": 8235,
  "悦@@": 8236,
  "350": 8237,
  "讨@@": 8238,
  "宝贝": 8239,
  "渔业": 8240,
  "验@@": 8241,
  "第一步": 8242,
  "提倡": 8243,
  "诗人": 8244,
  "文档": 8245,
  "所致": 8246,
  "留言": 8247,
  "生病": 8248,
  "孤独": 8249,
  "均匀": 8250,
  "长达": 8251,
  "移交": 8252,
  "开拓": 8253,
  "征税": 8254,
  "踢": 8255,
  "耶路撒冷": 8256,
  "贸易@@": 8257,
  "混": 8258,
  "醒": 8259,
  "录音": 8260,
  "病例": 8261,
  "弗": 8262,
  "印度尼西亚": 8263,
  "绑架": 8264,
  "廉租房": 8265,
  "原先": 8266,
  "指令": 8267,
  "谨": 8268,
  "单身": 8269,
  "唐": 8270,
  "第三个": 8271,
  "苹果公司": 8272,
  "型号": 8273,
  "贷": 8274,
  "服务中心": 8275,
  "Q": 8276,
  "最长": 8277,
  "偷": 8278,
  "挖": 8279,
  "共产党": 8280,
  "异": 8281,
  "罩": 8282,
  "ut@@": 8283,
  "清醒": 8284,
  "技@@": 8285,
  "神奇": 8286,
  "调价": 8287,
  "建设项目": 8288,
  "埋": 8289,
  "顾": 8290,
  "23.@@": 8291,
  "帝": 8292,
  "渣": 8293,
  "唱歌": 8294,
  "照明": 8295,
  "麦": 8296,
  "法语": 8297,
  "老家": 8298,
  "整": 8299,
  "陈述": 8300,
  "浅": 8301,
  "如果说": 8302,
  "总书记": 8303,
  "管理层": 8304,
  "大使馆": 8305,
  "可惜": 8306,
  "600@@": 8307,
  "穆斯林": 8308,
  "浓@@": 8309,
  "强奸": 8310,
  "兰州": 8311,
  "该车": 8312,
  "喂": 8313,
  "悲伤": 8314,
  "现代@@": 8315,
  "穷@@": 8316,
  "大战": 8317,
  "秋季": 8318,
  "鬼@@": 8319,
  "开辟": 8320,
  "AT": 8321,
  "漏@@": 8322,
  "事态": 8323,
  "检讨": 8324,
  "内外": 8325,
  "全方位": 8326,
  "我来": 8327,
  "挤": 8328,
  "更高": 8329,
  "年均": 8330,
  "口头": 8331,
  "精致": 8332,
  "检察机关": 8333,
  "et": 8334,
  "购置": 8335,
  "石家庄": 8336,
  "现身": 8337,
  "每当": 8338,
  "判@@": 8339,
  "控制系统": 8340,
  "万千瓦": 8341,
  "比率": 8342,
  "查阅": 8343,
  "幻想": 8344,
  "拍照": 8345,
  "既@@": 8346,
  "水位": 8347,
  "料@@": 8348,
  "姐妹": 8349,
  "厉害": 8350,
  "游行": 8351,
  "小女孩": 8352,
  "乐队": 8353,
  "月亮": 8354,
  "枝": 8355,
  "单词": 8356,
  "砖": 8357,
  "中医": 8358,
  "戈": 8359,
  "碧@@": 8360,
  "思想@@": 8361,
  "协": 8362,
  "五大": 8363,
  "仔": 8364,
  "论证": 8365,
  "选项": 8366,
  "哈利": 8367,
  "处以": 8368,
  "陕西省": 8369,
  "晚间": 8370,
  "奥地利": 8371,
  "捧": 8372,
  "抛@@": 8373,
  "主角": 8374,
  "防护": 8375,
  "1200": 8376,
  "上个月": 8377,
  "第五十@@": 8378,
  "载体": 8379,
  "近几年": 8380,
  "电脑@@": 8381,
  "智力": 8382,
  "述": 8383,
  "包裹": 8384,
  "抱@@": 8385,
  "负荷": 8386,
  "从来不": 8387,
  "暗": 8388,
  "卧室": 8389,
  "下次": 8390,
  "路段": 8391,
  "酷@@": 8392,
  "不及": 8393,
  "熟@@": 8394,
  "堆@@": 8395,
  "l": 8396,
  "肝": 8397,
  "送往": 8398,
  "眼里": 8399,
  "下游": 8400,
  "活性": 8401,
  "短短": 8402,
  "子弹": 8403,
  "赶": 8404,
  "im@@": 8405,
  "就让": 8406,
  "经营@@": 8407,
  "员@@": 8408,
  "一下子": 8409,
  "报酬": 8410,
  "无论如何": 8411,
  "堵": 8412,
  "繁@@": 8413,
  "分解": 8414,
  "十一届": 8415,
  "口袋": 8416,
  "旭": 8417,
  "日后": 8418,
  "石油@@": 8419,
  "计划生育": 8420,
  "后悔": 8421,
  "吉林": 8422,
  "第一位": 8423,
  "欲望": 8424,
  "眼光": 8425,
  "放置": 8426,
  "签字": 8427,
  "急性": 8428,
  "钻": 8429,
  "宏观调控": 8430,
  "ag@@": 8431,
  "立案": 8432,
  "ot@@": 8433,
  "预案": 8434,
  "挤@@": 8435,
  "驾@@": 8436,
  "纵@@": 8437,
  "杀人": 8438,
  "贪@@": 8439,
  "报导": 8440,
  "被动": 8441,
  "侵害": 8442,
  "篮球": 8443,
  "帝国": 8444,
  "康菲": 8445,
  "尖": 8446,
  "1989": 8447,
  "得分": 8448,
  "恶意": 8449,
  "清新": 8450,
  "全文": 8451,
  "代理人": 8452,
  "姆@@": 8453,
  "发给": 8454,
  "昆@@": 8455,
  "订购": 8456,
  "贝尔": 8457,
  "奔": 8458,
  "空白": 8459,
  "半小时": 8460,
  "新款": 8461,
  "育": 8462,
  "息@@": 8463,
  "党委书记": 8464,
  "菅直": 8465,
  "礼貌": 8466,
  "米兰": 8467,
  "笑容": 8468,
  "平常": 8469,
  "堂@@": 8470,
  "啥": 8471,
  "容器": 8472,
  "轻微": 8473,
  "剧院": 8474,
  "称赞": 8475,
  "诚": 8476,
  "传达": 8477,
  "几家": 8478,
  "政务": 8479,
  "玻璃@@": 8480,
  "门前": 8481,
  "澳洲": 8482,
  "礼服": 8483,
  "新区": 8484,
  "告别": 8485,
  "廉价": 8486,
  "日产": 8487,
  "削弱": 8488,
  "火山": 8489,
  "and@@": 8490,
  "十三": 8491,
  "损": 8492,
  "升高": 8493,
  "扭@@": 8494,
  "水质": 8495,
  "执@@": 8496,
  "利好": 8497,
  "殿": 8498,
  "遗传": 8499,
  "夹": 8500,
  "纯粹": 8501,
  "材质": 8502,
  "时常": 8503,
  "更具": 8504,
  "记载": 8505,
  "漫画": 8506,
  "提请": 8507,
  "步入": 8508,
  "南宁": 8509,
  "Sh@@": 8510,
  "航行": 8511,
  "式@@": 8512,
  "1.1": 8513,
  "配件": 8514,
  "用人单位": 8515,
  "劳": 8516,
  "肥": 8517,
  "店内": 8518,
  "记者会": 8519,
  "撞@@": 8520,
  "AR@@": 8521,
  "否定": 8522,
  "皇@@": 8523,
  "绕@@": 8524,
  "臣": 8525,
  "溪": 8526,
  "修理": 8527,
  "安居工程": 8528,
  "小岛": 8529,
  "常委": 8530,
  "辖区": 8531,
  "放射性": 8532,
  "1980": 8533,
  "经贸": 8534,
  "决": 8535,
  "山西省": 8536,
  "奖项": 8537,
  "黑塞哥维那": 8538,
  "生涯": 8539,
  "裁@@": 8540,
  "湖北省": 8541,
  "两只": 8542,
  "咬": 8543,
  "常驻": 8544,
  "隔": 8545,
  "辞@@": 8546,
  "积极参与": 8547,
  "泪@@": 8548,
  "爱好者": 8549,
  "创办": 8550,
  "困": 8551,
  "灵感": 8552,
  "工地": 8553,
  "徐": 8554,
  "应力": 8555,
  "中石化": 8556,
  "纪": 8557,
  "例句": 8558,
  "筹措": 8559,
  "插": 8560,
  "惯例": 8561,
  "难得": 8562,
  "中西部": 8563,
  "严": 8564,
  "法人": 8565,
  "信息系统": 8566,
  "ar": 8567,
  "传来": 8568,
  "泵": 8569,
  "所有权": 8570,
  "卡尔": 8571,
  "赏@@": 8572,
  "屋@@": 8573,
  "下车": 8574,
  "揭示": 8575,
  "阵": 8576,
  "探": 8577,
  "十几@@": 8578,
  "胃": 8579,
  "筒": 8580,
  "供水": 8581,
  "征集": 8582,
  "史上": 8583,
  "一副": 8584,
  "破裂": 8585,
  "直播": 8586,
  "北京晚报": 8587,
  "塑造": 8588,
  "行星": 8589,
  "在场": 8590,
  "青海": 8591,
  "战术": 8592,
  "饲料": 8593,
  "爆料": 8594,
  "按钮": 8595,
  "60@@": 8596,
  "捕@@": 8597,
  "挂钩": 8598,
  "实地": 8599,
  "偶像": 8600,
  "浪@@": 8601,
  "开门": 8602,
  "动物园": 8603,
  "氧": 8604,
  "位居": 8605,
  "柏林": 8606,
  "休": 8607,
  "亲密": 8608,
  "浸@@": 8609,
  "放下": 8610,
  "路面": 8611,
  "财": 8612,
  "一双": 8613,
  "晨": 8614,
  "信息技术": 8615,
  "周五": 8616,
  "大S": 8617,
  "组织部": 8618,
  "22.@@": 8619,
  "宏观经济": 8620,
  "紧紧": 8621,
  "验收": 8622,
  "灭绝": 8623,
  "危@@": 8624,
  "其后": 8625,
  "延": 8626,
  "产品质量": 8627,
  "适度": 8628,
  "改正": 8629,
  "巧": 8630,
  "流失": 8631,
  "定向": 8632,
  "事儿": 8633,
  "25.@@": 8634,
  "振动": 8635,
  "es@@": 8636,
  "站@@": 8637,
  "己": 8638,
  "聚": 8639,
  "频": 8640,
  "可靠性": 8641,
  "列表": 8642,
  "低碳": 8643,
  "PC": 8644,
  "一再": 8645,
  "春季": 8646,
  "产出": 8647,
  "车祸": 8648,
  "指望": 8649,
  "伤亡": 8650,
  "瓜@@": 8651,
  "薪水": 8652,
  "晚餐": 8653,
  "砂@@": 8654,
  "再说": 8655,
  "文中": 8656,
  "谋求": 8657,
  "散步": 8658,
  "加深": 8659,
  "溢油": 8660,
  "交代": 8661,
  "看不到": 8662,
  "一月": 8663,
  "俗": 8664,
  "语音": 8665,
  "保护@@": 8666,
  "农业部": 8667,
  "床@@": 8668,
  "自动化": 8669,
  "值得注意": 8670,
  "泥": 8671,
  "曝": 8672,
  "树林": 8673,
  "电流": 8674,
  "戏剧": 8675,
  "怒": 8676,
  "银监会": 8677,
  "机理": 8678,
  "情人节": 8679,
  "市中心": 8680,
  "收缩": 8681,
  "囊": 8682,
  "离职": 8683,
  "肥@@": 8684,
  "会长": 8685,
  "润": 8686,
  "三级": 8687,
  "额@@": 8688,
  "黑龙江": 8689,
  "尼亚": 8690,
  "华侨": 8691,
  "存放": 8692,
  "国际贸易": 8693,
  "死亡率": 8694,
  "鞋子": 8695,
  "麻": 8696,
  "r": 8697,
  "军事行动": 8698,
  "珍惜": 8699,
  "说起": 8700,
  "尺": 8701,
  "演绎": 8702,
  "沙发": 8703,
  "不像": 8704,
  "白领": 8705,
  "弯@@": 8706,
  "稍": 8707,
  "开创": 8708,
  "模块": 8709,
  "邻国": 8710,
  "引来": 8711,
  "派对": 8712,
  "客厅": 8713,
  "盆": 8714,
  "大选": 8715,
  "亲人": 8716,
  "虽@@": 8717,
  "暑假": 8718,
  "作文": 8719,
  "首位": 8720,
  "多达": 8721,
  "幼儿": 8722,
  "客流": 8723,
  "哪怕": 8724,
  "饰演": 8725,
  "渡@@": 8726,
  "再生": 8727,
  "狗@@": 8728,
  "恒大": 8729,
  "裸@@": 8730,
  "二氧化碳": 8731,
  "浦@@": 8732,
  "悬@@": 8733,
  "递@@": 8734,
  "凯特": 8735,
  "东南": 8736,
  "养老保险": 8737,
  "嫩": 8738,
  "华丽": 8739,
  "数十@@": 8740,
  "云南省": 8741,
  "时速": 8742,
  "４": 8743,
  "搬迁": 8744,
  "26.@@": 8745,
  "身高": 8746,
  "爬@@": 8747,
  "部委": 8748,
  "空袭": 8749,
  "or": 8750,
  "受害人": 8751,
  "发帖": 8752,
  "北京大学": 8753,
  "缸": 8754,
  "对面": 8755,
  "苏州": 8756,
  "阴": 8757,
  "刑": 8758,
  "爷爷": 8759,
  "台风": 8760,
  "踏@@": 8761,
  "问道": 8762,
  "起步": 8763,
  "中国人民银行": 8764,
  "亲戚": 8765,
  "寄": 8766,
  "不适": 8767,
  "善良": 8768,
  "听证会": 8769,
  "国际货币基金组织": 8770,
  "追": 8771,
  "盛大": 8772,
  "以至于": 8773,
  "手上": 8774,
  "这套": 8775,
  "径": 8776,
  "开发区": 8777,
  "打折": 8778,
  "行人": 8779,
  "缝": 8780,
  "字母": 8781,
  "打出": 8782,
  "民事": 8783,
  "普通@@": 8784,
  "悬挂": 8785,
  "该市": 8786,
  "夺得": 8787,
  "方程": 8788,
  "陌生": 8789,
  "高压": 8790,
  "同胞": 8791,
  "抵抗": 8792,
  "贾": 8793,
  "掌@@": 8794,
  "冠": 8795,
  "食堂": 8796,
  "质检": 8797,
  "格外": 8798,
  "下周": 8799,
  "帕": 8800,
  "框": 8801,
  "楚@@": 8802,
  "职权": 8803,
  "习@@": 8804,
  "关怀": 8805,
  "大致": 8806,
  "oo@@": 8807,
  "耗@@": 8808,
  "刘翔": 8809,
  "邱@@": 8810,
  "辅导": 8811,
  "女孩子": 8812,
  "六年": 8813,
  "编号": 8814,
  "扣除": 8815,
  "比利时": 8816,
  "依托": 8817,
  "降雨": 8818,
  "建党": 8819,
  "一口": 8820,
  "名词": 8821,
  "佛山": 8822,
  "服饰": 8823,
  "确切": 8824,
  "灯光": 8825,
  "肯尼亚": 8826,
  "幕@@": 8827,
  "留给": 8828,
  "发表声明": 8829,
  "景象": 8830,
  "宣告": 8831,
  "消费@@": 8832,
  "国人": 8833,
  "太大": 8834,
  "前夕": 8835,
  "产业化": 8836,
  "整顿": 8837,
  "多万元": 8838,
  "几分钟": 8839,
  "明亮": 8840,
  "伴侣": 8841,
  "us@@": 8842,
  "阶": 8843,
  "溶@@": 8844,
  "选用": 8845,
  "进化": 8846,
  "遮@@": 8847,
  "大人": 8848,
  "甜": 8849,
  "慢性": 8850,
  "范": 8851,
  "激素": 8852,
  "口号": 8853,
  "址": 8854,
  "门票": 8855,
  "属@@": 8856,
  "哀@@": 8857,
  "福建省": 8858,
  "英国人": 8859,
  "塘": 8860,
  "热闹": 8861,
  "泉@@": 8862,
  "石化": 8863,
  "结构调整": 8864,
  "迁": 8865,
  "4.5": 8866,
  "一看": 8867,
  "进军": 8868,
  "多方面": 8869,
  "开办": 8870,
  "岁月": 8871,
  "浆": 8872,
  "发售": 8873,
  "客车": 8874,
  "变速箱": 8875,
  "电压": 8876,
  "哭@@": 8877,
  "精度": 8878,
  "孔子": 8879,
  "热带": 8880,
  "荡": 8881,
  "温柔": 8882,
  "商品住宅": 8883,
  "大面积": 8884,
  "功夫": 8885,
  "斜@@": 8886,
  "陶瓷": 8887,
  "房租": 8888,
  "外套": 8889,
  "研究者": 8890,
  "罗斯": 8891,
  "•": 8892,
  "十一": 8893,
  "小镇": 8894,
  "数码": 8895,
  "机械@@": 8896,
  "整整": 8897,
  "泄露": 8898,
  "内幕": 8899,
  "护照": 8900,
  "掌": 8901,
  "获奖": 8902,
  "卧@@": 8903,
  "关爱": 8904,
  "不予": 8905,
  "开关": 8906,
  "币": 8907,
  "拉丁美洲": 8908,
  "印发": 8909,
  "两款": 8910,
  "中央政府": 8911,
  "茂@@": 8912,
  "溪@@": 8913,
  "愚蠢": 8914,
  "共同体": 8915,
  "四十@@": 8916,
  "店铺": 8917,
  "默": 8918,
  "学期": 8919,
  "加油站": 8920,
  "织@@": 8921,
  "烂": 8922,
  "点钟": 8923,
  "维尔": 8924,
  "合金": 8925,
  "拖延": 8926,
  "不便": 8927,
  "广告@@": 8928,
  "概率": 8929,
  "太原": 8930,
  "迟到": 8931,
  "涌": 8932,
  "桩": 8933,
  "总之": 8934,
  "雅虎": 8935,
  "em@@": 8936,
  "不久前": 8937,
  "公报": 8938,
  "误解": 8939,
  "兆@@": 8940,
  "牧@@": 8941,
  "清晨": 8942,
  "前者": 8943,
  "分红": 8944,
  "终结": 8945,
  "肚子": 8946,
  "摩": 8947,
  "生产商": 8948,
  "周四": 8949,
  "私募": 8950,
  "伴": 8951,
  "缩水": 8952,
  "棉": 8953,
  "斑@@": 8954,
  "可行性": 8955,
  "均@@": 8956,
  "分割": 8957,
  "没法": 8958,
  "雇用": 8959,
  "已达": 8960,
  "有名": 8961,
  "船上": 8962,
  "八年": 8963,
  "腹@@": 8964,
  "稳健": 8965,
  "兑换": 8966,
  "周六": 8967,
  "不然": 8968,
  "1988": 8969,
  "手臂": 8970,
  "做成": 8971,
  "停火": 8972,
  "帆": 8973,
  "始@@": 8974,
  "谣言": 8975,
  "裁员": 8976,
  "丢失": 8977,
  "不宜": 8978,
  "口味": 8979,
  "早些时候": 8980,
  "块钱": 8981,
  "每吨": 8982,
  "is": 8983,
  "称之为": 8984,
  "腾@@": 8985,
  "享": 8986,
  "黄河": 8987,
  "周恩来": 8988,
  "给@@": 8989,
  "赞": 8990,
  "法律@@": 8991,
  "答@@": 8992,
  "撤出": 8993,
  "测算": 8994,
  "重返": 8995,
  "早日": 8996,
  "遥远": 8997,
  "刮@@": 8998,
  "盘点": 8999,
  "诗歌": 9000,
  "葡萄": 9001,
  "付费": 9002,
  "大雨": 9003,
  "之地": 9004,
  "万户": 9005,
  "赌@@": 9006,
  "动用": 9007,
  "四处": 9008,
  "夺@@": 9009,
  "染": 9010,
  "设在": 9011,
  "走高": 9012,
  "忙碌": 9013,
  "忍@@": 9014,
  "齿": 9015,
  "要说": 9016,
  "走私": 9017,
  "好奇": 9018,
  "焦": 9019,
  "确信": 9020,
  "长假": 9021,
  "身亡": 9022,
  "的黎波里": 9023,
  "吉林省": 9024,
  "人心": 9025,
  "马力": 9026,
  "划": 9027,
  "咸@@": 9028,
  "不上": 9029,
  "眼球": 9030,
  "痕迹": 9031,
  "日本@@": 9032,
  "起床": 9033,
  "摊@@": 9034,
  "促成": 9035,
  "强有力": 9036,
  "肩@@": 9037,
  "开玩笑": 9038,
  "救治": 9039,
  "再生能源": 9040,
  "手工": 9041,
  "年期": 9042,
  "伍@@": 9043,
  "肩": 9044,
  "演变": 9045,
  "尽早": 9046,
  "款式": 9047,
  "浏览器": 9048,
  "宴": 9049,
  "光线": 9050,
  "坤": 9051,
  "每平方米": 9052,
  "兴起": 9053,
  "界面": 9054,
  "成年人": 9055,
  "妙@@": 9056,
  "迷人": 9057,
  "商务@@": 9058,
  "儿女": 9059,
  "礼品": 9060,
  "报复": 9061,
  "消极": 9062,
  "按时": 9063,
  "管理者": 9064,
  "军区": 9065,
  "沮丧": 9066,
  "中级": 9067,
  "宠物": 9068,
  "第一季度": 9069,
  "所用": 9070,
  "肿": 9071,
  "抛弃": 9072,
  "三月": 9073,
  "督察": 9074,
  "简要": 9075,
  "安徽省": 9076,
  "浩": 9077,
  "８": 9078,
  "卡恩": 9079,
  "鼎@@": 9080,
  "燃@@": 9081,
  "CO@@": 9082,
  "剧本": 9083,
  "沟@@": 9084,
  "急剧": 9085,
  "叙述": 9086,
  "杜": 9087,
  "傅@@": 9088,
  "忧@@": 9089,
  "逃避": 9090,
  "建国": 9091,
  "铭": 9092,
  "城里": 9093,
  "分行": 9094,
  "实验@@": 9095,
  "本田": 9096,
  "祝@@": 9097,
  "骑@@": 9098,
  "有何": 9099,
  "咬@@": 9100,
  "全球性": 9101,
  "师生": 9102,
  "鹿": 9103,
  "原告": 9104,
  "一辈子": 9105,
  "降至": 9106,
  "做些": 9107,
  "牧师": 9108,
  "肾@@": 9109,
  "回购": 9110,
  "订正": 9111,
  "碎@@": 9112,
  "车厢": 9113,
  "化石": 9114,
  "抓好": 9115,
  "分化": 9116,
  "抵制": 9117,
  "昨天下午": 9118,
  "散发": 9119,
  "注定": 9120,
  "高潮": 9121,
  "带走": 9122,
  "规章": 9123,
  "扭矩": 9124,
  "ul@@": 9125,
  "治安": 9126,
  "阵@@": 9127,
  "凡是": 9128,
  "第一天": 9129,
  "薇": 9130,
  "免税": 9131,
  "驶@@": 9132,
  "不利于": 9133,
  "弘扬": 9134,
  "投产": 9135,
  "用以": 9136,
  "对冲": 9137,
  "不禁": 9138,
  "一艘": 9139,
  "医疗卫生": 9140,
  "委@@": 9141,
  "似": 9142,
  "水域": 9143,
  "最少": 9144,
  "袭": 9145,
  "小男孩": 9146,
  "7.5": 9147,
  "亿吨": 9148,
  "绝望": 9149,
  "股本": 9150,
  "颜@@": 9151,
  "步行": 9152,
  "部落": 9153,
  "碎片": 9154,
  "棚": 9155,
  "两条": 9156,
  "犯@@": 9157,
  "具@@": 9158,
  "神圣": 9159,
  "警示": 9160,
  "学前教育": 9161,
  "挑": 9162,
  "不易": 9163,
  "医疗机构": 9164,
  "船长": 9165,
  "看望": 9166,
  "液@@": 9167,
  "被困": 9168,
  "滩": 9169,
  "是非": 9170,
  "眉@@": 9171,
  "兹@@": 9172,
  "晴": 9173,
  "罗伯特": 9174,
  "过快": 9175,
  "手表": 9176,
  "常态": 9177,
  "增至": 9178,
  "脖子": 9179,
  "致辞": 9180,
  "慧": 9181,
  "庙": 9182,
  "还给": 9183,
  "误差": 9184,
  "永恒": 9185,
  "小朋友": 9186,
  "户@@": 9187,
  "侵略": 9188,
  "你好": 9189,
  "演习": 9190,
  "押": 9191,
  "Google": 9192,
  "诊": 9193,
  "充分利用": 9194,
  "好看": 9195,
  "拉登": 9196,
  "这类": 9197,
  "坎@@": 9198,
  "弃@@": 9199,
  "英国@@": 9200,
  "盗窃": 9201,
  "克林顿": 9202,
  "疗法": 9203,
  "创立": 9204,
  "轻轻": 9205,
  "芳@@": 9206,
  "冻结": 9207,
  "首届": 9208,
  "监视": 9209,
  "服务员": 9210,
  "陪同": 9211,
  "晨@@": 9212,
  "苏格兰": 9213,
  "肌@@": 9214,
  "拟定": 9215,
  "尼日利亚": 9216,
  "优良": 9217,
  "国资委": 9218,
  "颗粒": 9219,
  "漏": 9220,
  "因子": 9221,
  "走路": 9222,
  "人民检察院": 9223,
  "庭审": 9224,
  "甜蜜": 9225,
  "垂直": 9226,
  "国企": 9227,
  "此种": 9228,
  "高原": 9229,
  "伸出": 9230,
  "土豆": 9231,
  "锐": 9232,
  "扭转": 9233,
  "海峡": 9234,
  "ie": 9235,
  "拥@@": 9236,
  "音乐@@": 9237,
  "上线": 9238,
  "载有": 9239,
  "市委书记": 9240,
  "败": 9241,
  "奖学金": 9242,
  "住院": 9243,
  "指挥部": 9244,
  "虐待": 9245,
  "看电视": 9246,
  "骨折": 9247,
  "东北部": 9248,
  "拥抱": 9249,
  "频@@": 9250,
  "鹿@@": 9251,
  "优惠政策": 9252,
  "一带": 9253,
  "保利": 9254,
  "调度": 9255,
  "各界": 9256,
  "跟@@": 9257,
  "想着": 9258,
  "农药": 9259,
  "缩": 9260,
  "父@@": 9261,
  "打扮": 9262,
  "有待": 9263,
  "罪名": 9264,
  "假冒": 9265,
  "延迟": 9266,
  "忠诚": 9267,
  "阀": 9268,
  "祈祷": 9269,
  "凶@@": 9270,
  "考古": 9271,
  "六月": 9272,
  "期刊": 9273,
  "日渐": 9274,
  "娶": 9275,
  "放入": 9276,
  "多岁": 9277,
  "减持": 9278,
  "中国日报": 9279,
  "涂": 9280,
  "客机": 9281,
  "of": 9282,
  "编码": 9283,
  "增发": 9284,
  "范冰冰": 9285,
  "筹资": 9286,
  "舍@@": 9287,
  "按揭": 9288,
  "大豆": 9289,
  "搬@@": 9290,
  "联手": 9291,
  "升至": 9292,
  "镜@@": 9293,
  "京城": 9294,
  "动摇": 9295,
  "鼓": 9296,
  "授@@": 9297,
  "毫不": 9298,
  "出境": 9299,
  "武汉市": 9300,
  "磨": 9301,
  "钓鱼": 9302,
  "零件": 9303,
  "粤@@": 9304,
  "先行": 9305,
  "不顾": 9306,
  "宿@@": 9307,
  "快速增长": 9308,
  "传染病": 9309,
  "狼@@": 9310,
  "映@@": 9311,
  "上报": 9312,
  "邓小平": 9313,
  "坦@@": 9314,
  "雇佣": 9315,
  "x": 9316,
  "淡": 9317,
  "今": 9318,
  "承办": 9319,
  "价钱": 9320,
  "科威特": 9321,
  "演唱": 9322,
  "丧@@": 9323,
  "齐全": 9324,
  "一枚": 9325,
  "尹@@": 9326,
  "2.3": 9327,
  "议": 9328,
  "商品价格": 9329,
  "不佳": 9330,
  "隔离": 9331,
  "狮子": 9332,
  "价位": 9333,
  "战斗机": 9334,
  "被判": 9335,
  "限额": 9336,
  "软件@@": 9337,
  "东南亚": 9338,
  "逆@@": 9339,
  "钢琴": 9340,
  "变量": 9341,
  "交会": 9342,
  "营运": 9343,
  "指挥官": 9344,
  "架@@": 9345,
  "中新社": 9346,
  "最有": 9347,
  "智利": 9348,
  "鲜花": 9349,
  "发现自己": 9350,
  "高新技术": 9351,
  "明确规定": 9352,
  "四是": 9353,
  "射击": 9354,
  "犹如": 9355,
  "中药": 9356,
  "选购": 9357,
  "票据": 9358,
  "使人": 9359,
  "裂@@": 9360,
  "商会": 9361,
  "绿城": 9362,
  "江西省": 9363,
  "结构性": 9364,
  "养老金": 9365,
  "工程@@": 9366,
  "急需": 9367,
  "聚焦": 9368,
  "行列": 9369,
  "剂量": 9370,
  "济": 9371,
  "绩效": 9372,
  "倾听": 9373,
  "小学生": 9374,
  "w": 9375,
  "偏": 9376,
  "赌博": 9377,
  "预": 9378,
  "金属@@": 9379,
  "大海": 9380,
  "中外": 9381,
  "概算": 9382,
  "不堪": 9383,
  "旋@@": 9384,
  "身穿": 9385,
  "所作": 9386,
  "埃": 9387,
  "积分": 9388,
  "核能": 9389,
  "晖": 9390,
  "认": 9391,
  "据称": 9392,
  "联合@@": 9393,
  "丙@@": 9394,
  "武力": 9395,
  "上方": 9396,
  "躲": 9397,
  "专": 9398,
  "稍微": 9399,
  "减灾": 9400,
  "娘": 9401,
  "而来": 9402,
  "地处": 9403,
  "郡": 9404,
  "腹": 9405,
  "意向": 9406,
  "万余元": 9407,
  "技术人员": 9408,
  "门外": 9409,
  "数百@@": 9410,
  "气味": 9411,
  "典@@": 9412,
  "排行榜": 9413,
  "下雨": 9414,
  "除外": 9415,
  "面部": 9416,
  "胖": 9417,
  "大奖": 9418,
  "摊": 9419,
  "伤心": 9420,
  "ed": 9421,
  "南北": 9422,
  "当事": 9423,
  "瓶颈": 9424,
  "配方": 9425,
  "兑": 9426,
  "金色": 9427,
  "比较@@": 9428,
  "栏目": 9429,
  "放宽": 9430,
  "缴费": 9431,
  "趋@@": 9432,
  "破解": 9433,
  "便捷": 9434,
  "难过": 9435,
  "每桶": 9436,
  "科目": 9437,
  "怀": 9438,
  "脚步": 9439,
  "限于": 9440,
  "口岸": 9441,
  "实物": 9442,
  "噪声": 9443,
  "借款": 9444,
  "一门": 9445,
  "首选": 9446,
  "逢": 9447,
  "墨": 9448,
  "营养@@": 9449,
  "乳": 9450,
  "城市@@": 9451,
  "林业": 9452,
  "降水": 9453,
  "困惑": 9454,
  "公关": 9455,
  "估算": 9456,
  "深受": 9457,
  "电厂": 9458,
  "28.@@": 9459,
  "对称": 9460,
  "解析": 9461,
  "绿化": 9462,
  "动脉": 9463,
  "瘦@@": 9464,
  "党中央": 9465,
  "国籍": 9466,
  "较强": 9467,
  "昏@@": 9468,
  "渡": 9469,
  "2500": 9470,
  "择@@": 9471,
  "通往": 9472,
  "40@@": 9473,
  "硫@@": 9474,
  "加油": 9475,
  "动画": 9476,
  "认购": 9477,
  "朝着": 9478,
  "王菲": 9479,
  "必要性": 9480,
  "灌@@": 9481,
  "国防部": 9482,
  "四月": 9483,
  "管理工作": 9484,
  "旗@@": 9485,
  "祭": 9486,
  "吃惊": 9487,
  "标准@@": 9488,
  "就读": 9489,
  "son": 9490,
  "视角": 9491,
  "中华@@": 9492,
  "DNA": 9493,
  "言语": 9494,
  "现年": 9495,
  "启用": 9496,
  "负面影响": 9497,
  "处理器": 9498,
  "忍": 9499,
  "蒸@@": 9500,
  "疏@@": 9501,
  "特权": 9502,
  "卖家": 9503,
  "穷": 9504,
  "女朋友": 9505,
  "多方": 9506,
  "源自": 9507,
  "承包": 9508,
  "发掘": 9509,
  "燃": 9510,
  "摸@@": 9511,
  "历史性": 9512,
  "碰": 9513,
  "利比里亚": 9514,
  "↘": 9515,
  "粗": 9516,
  "个人所得税": 9517,
  "吸毒": 9518,
  "时装": 9519,
  "日本政府": 9520,
  "人次": 9521,
  "获胜": 9522,
  "加班": 9523,
  "废": 9524,
  "膏": 9525,
  "娱乐圈": 9526,
  "磅": 9527,
  "剩": 9528,
  "两市": 9529,
  "一则": 9530,
  "生理": 9531,
  "推销": 9532,
  "习俗": 9533,
  "温馨": 9534,
  "平方公里": 9535,
  "慧@@": 9536,
  "纽@@": 9537,
  "阿里": 9538,
  "醇": 9539,
  "乎": 9540,
  "胎儿": 9541,
  "同等": 9542,
  "学到": 9543,
  "詹姆斯": 9544,
  "三国": 9545,
  "公共@@": 9546,
  "陌生人": 9547,
  "底线": 9548,
  "粒子": 9549,
  "局局长": 9550,
  "九龙": 9551,
  "负有": 9552,
  "禁毒": 9553,
  "哥伦比亚": 9554,
  "格鲁吉亚": 9555,
  "芬兰": 9556,
  "民用": 9557,
  "暴跌": 9558,
  "情侣": 9559,
  "积极@@": 9560,
  "有意思": 9561,
  "配偶": 9562,
  "新闻出版": 9563,
  "运气": 9564,
  "医师": 9565,
  "定于": 9566,
  "演奏": 9567,
  "赤字": 9568,
  "党内": 9569,
  "五月": 9570,
  "原谅": 9571,
  "要点": 9572,
  "膨胀": 9573,
  "木材": 9574,
  "车队": 9575,
  "督促": 9576,
  "逆转": 9577,
  "拥挤": 9578,
  "众所周知": 9579,
  "敬": 9580,
  "乐意": 9581,
  "萧@@": 9582,
  "使馆": 9583,
  "一顿": 9584,
  "红十字会": 9585,
  "农户": 9586,
  "互利": 9587,
  "情人": 9588,
  "做事": 9589,
  "星期六": 9590,
  "凸@@": 9591,
  "６": 9592,
  "十分@@": 9593,
  "通州": 9594,
  "王先生": 9595,
  "锅@@": 9596,
  "上扬": 9597,
  "筹集": 9598,
  "迁移": 9599,
  "自家": 9600,
  "钉": 9601,
  "备忘录": 9602,
  "这部分": 9603,
  "途": 9604,
  "两项": 9605,
  "镜子": 9606,
  "侨@@": 9607,
  "高调": 9608,
  "提价": 9609,
  "综述": 9610,
  "基准": 9611,
  "住户": 9612,
  "工商局": 9613,
  "书法": 9614,
  "推翻": 9615,
  "按规定": 9616,
  "摘@@": 9617,
  "动词": 9618,
  "柜台": 9619,
  "宝石": 9620,
  "顿@@": 9621,
  "踩": 9622,
  "长久": 9623,
  "有过": 9624,
  "塑@@": 9625,
  "国家有关": 9626,
  "协同": 9627,
  "用工": 9628,
  "社会保险": 9629,
  "爱人": 9630,
  "器@@": 9631,
  "高水平": 9632,
  "大西洋": 9633,
  "实惠": 9634,
  "关节": 9635,
  "劲@@": 9636,
  "笑话": 9637,
  "野生": 9638,
  "流感": 9639,
  "构@@": 9640,
  "忽然": 9641,
  "便于": 9642,
  "责任感": 9643,
  "兔": 9644,
  "欠@@": 9645,
  "5.5": 9646,
  "必不可少": 9647,
  "吸": 9648,
  "理财产品": 9649,
  "低温": 9650,
  "Al@@": 9651,
  "伪@@": 9652,
  "驰": 9653,
  "一一": 9654,
  "希拉里": 9655,
  "箱@@": 9656,
  "亦@@": 9657,
  "童年": 9658,
  "力学": 9659,
  "喜悦": 9660,
  "两倍": 9661,
  "市场需求": 9662,
  "喀@@": 9663,
  "人格": 9664,
  "下旬": 9665,
  "上行": 9666,
  "赞助": 9667,
  "银行卡": 9668,
  "对联": 9669,
  "近年": 9670,
  "小伙子": 9671,
  "行政长官": 9672,
  "搜寻": 9673,
  "氧化": 9674,
  "书写": 9675,
  "赶上": 9676,
  "本港": 9677,
  "工程建设": 9678,
  "充分@@": 9679,
  "化合物": 9680,
  "党组": 9681,
  "天才": 9682,
  "开发@@": 9683,
  "伤者": 9684,
  "油脂": 9685,
  "颇为": 9686,
  "法制": 9687,
  "粥": 9688,
  "凤": 9689,
  "特有": 9690,
  "戒@@": 9691,
  "电力公司": 9692,
  "高质量": 9693,
  "中超": 9694,
  "生产线": 9695,
  "本着": 9696,
  "楼梯": 9697,
  "博弈": 9698,
  "即时": 9699,
  "财政@@": 9700,
  "其间": 9701,
  "察@@": 9702,
  "旺季": 9703,
  "开业": 9704,
  "海滩": 9705,
  "集会": 9706,
  "大力发展": 9707,
  "开口": 9708,
  "奢侈": 9709,
  "三家": 9710,
  "添@@": 9711,
  "离子": 9712,
  "锌": 9713,
  "佣金": 9714,
  "贵阳": 9715,
  "椅": 9716,
  "溜@@": 9717,
  "逃离": 9718,
  "杜绝": 9719,
  "家住": 9720,
  "客运": 9721,
  "供应量": 9722,
  "日记": 9723,
  "住宿": 9724,
  "拐点": 9725,
  "从根本上": 9726,
  "首日": 9727,
  "全是": 9728,
  "销售@@": 9729,
  "之处": 9730,
  "序列": 9731,
  "加之": 9732,
  "弱@@": 9733,
  "身后": 9734,
  "大米": 9735,
  "夸张": 9736,
  "累积": 9737,
  "聘请": 9738,
  "音乐会": 9739,
  "傍晚": 9740,
  "嫁给": 9741,
  "搜@@": 9742,
  "案文": 9743,
  "死去": 9744,
  "毁灭": 9745,
  "亏": 9746,
  "结局": 9747,
  "嫁@@": 9748,
  "关键词": 9749,
  "堪称": 9750,
  "建筑@@": 9751,
  "段@@": 9752,
  "极度": 9753,
  "微生物": 9754,
  "申诉": 9755,
  "肠@@": 9756,
  "秋天": 9757,
  "争": 9758,
  "三名": 9759,
  "1.7": 9760,
  "北京日报": 9761,
  "无可@@": 9762,
  "三维": 9763,
  "苏宁": 9764,
  "食品@@": 9765,
  "遇难": 9766,
  "人事@@": 9767,
  "隐私": 9768,
  "第一批": 9769,
  "绳": 9770,
  "江南": 9771,
  "围观": 9772,
  "话语": 9773,
  "车间": 9774,
  "一汽": 9775,
  "上门": 9776,
  "东亚": 9777,
  "综合性": 9778,
  "７": 9779,
  "优美": 9780,
  "加沙": 9781,
  "大自然": 9782,
  "升温": 9783,
  "陷阱": 9784,
  "猫@@": 9785,
  "外汇储备": 9786,
  "包围": 9787,
  "气象@@": 9788,
  "中美": 9789,
  "欧洲央行": 9790,
  "医学@@": 9791,
  "总价": 9792,
  "高尔夫球场": 9793,
  "来源于": 9794,
  "达标": 9795,
  "雨水": 9796,
  "橡胶": 9797,
  "公共汽车": 9798,
  "图表": 9799,
  "仰@@": 9800,
  "鱼类": 9801,
  "不应": 9802,
  "余名": 9803,
  "五十": 9804,
  "大都": 9805,
  "马自达": 9806,
  "开罗": 9807,
  "在建": 9808,
  "下达": 9809,
  "坚": 9810,
  "妥协": 9811,
  "稳步": 9812,
  "很强": 9813,
  "逃跑": 9814,
  "教育局": 9815,
  "遇见": 9816,
  "男士": 9817,
  "降到": 9818,
  "查获": 9819,
  "迄今为止": 9820,
  "ec@@": 9821,
  "注@@": 9822,
  "模范": 9823,
  "脏": 9824,
  "＿": 9825,
  "主义者": 9826,
  "娅": 9827,
  "过剩": 9828,
  "仍旧": 9829,
  "消费品": 9830,
  "三十": 9831,
  "宣传部": 9832,
  "这才": 9833,
  "好人": 9834,
  "衡@@": 9835,
  "文艺@@": 9836,
  "城镇居民": 9837,
  "扎实": 9838,
  "学业": 9839,
  "化学品": 9840,
  "增值税": 9841,
  "追捧": 9842,
  "网点": 9843,
  "细致": 9844,
  "面孔": 9845,
  "整车": 9846,
  "艾": 9847,
  "出身": 9848,
  "丘@@": 9849,
  "战役": 9850,
  "整天": 9851,
  "兴建": 9852,
  "呼声": 9853,
  "开学": 9854,
  "走廊": 9855,
  "饥饿": 9856,
  "出示": 9857,
  "华西都市报": 9858,
  "后代": 9859,
  "人来": 9860,
  "高涨": 9861,
  "参展": 9862,
  "好象": 9863,
  "展会": 9864,
  "偶@@": 9865,
  "南航": 9866,
  "神话": 9867,
  "执行@@": 9868,
  "电视节目": 9869,
  "妇": 9870,
  "疾@@": 9871,
  "运动@@": 9872,
  "二手": 9873,
  "@": 9874,
  "宁愿": 9875,
  "入选": 9876,
  "高盛": 9877,
  "那条": 9878,
  "店里": 9879,
  "贵州省": 9880,
  "三位": 9881,
  "阿里巴巴": 9882,
  "亚太": 9883,
  "监": 9884,
  "购票": 9885,
  "伤口": 9886,
  "样@@": 9887,
  "壮": 9888,
  "缝@@": 9889,
  "竹": 9890,
  "参议院": 9891,
  "续": 9892,
  "可达": 9893,
  "白银": 9894,
  "沃": 9895,
  "面板": 9896,
  "名校": 9897,
  "全国@@": 9898,
  "黎": 9899,
  "道德@@": 9900,
  "遗体": 9901,
  "热潮": 9902,
  "不符": 9903,
  "贬值": 9904,
  "像@@": 9905,
  "限期": 9906,
  "货运": 9907,
  "折磨": 9908,
  "作案": 9909,
  "己@@": 9910,
  "亡": 9911,
  "振兴": 9912,
  "松动": 9913,
  "世人": 9914,
  "奢华": 9915,
  "Ma@@": 9916,
  "贿赂": 9917,
  "这事": 9918,
  "伯爵": 9919,
  "帝@@": 9920,
  "滞后": 9921,
  "候@@": 9922,
  "十五": 9923,
  "美术": 9924,
  "自律": 9925,
  "独家": 9926,
  "多重": 9927,
  "旱情": 9928,
  "访谈": 9929,
  "积": 9930,
  "炼@@": 9931,
  "残酷": 9932,
  "增长速度": 9933,
  "碱": 9934,
  "塞尔维亚": 9935,
  "灭@@": 9936,
  "Windows": 9937,
  "所得税": 9938,
  "攻": 9939,
  "首付": 9940,
  "家庭@@": 9941,
  "中关村": 9942,
  "2.2": 9943,
  "序": 9944,
  "一点点": 9945,
  "电话@@": 9946,
  "AM@@": 9947,
  "让@@": 9948,
  "太阳@@": 9949,
  "求职": 9950,
  "援": 9951,
  "强国": 9952,
  "心理@@": 9953,
  "迈出": 9954,
  "南京市": 9955,
  "运动会": 9956,
  "十二": 9957,
  "比分": 9958,
  "邹@@": 9959,
  "陵@@": 9960,
  "苦难": 9961,
  "庭@@": 9962,
  "成千上万": 9963,
  "打印": 9964,
  "没能": 9965,
  "叔叔": 9966,
  "漆": 9967,
  "化学@@": 9968,
  "兑现": 9969,
  "醋": 9970,
  "大运会": 9971,
  "赔": 9972,
  "贪污": 9973,
  "特意": 9974,
  "输送": 9975,
  "布隆迪": 9976,
  "马路": 9977,
  "天地": 9978,
  "侧面": 9979,
  "海事": 9980,
  "采取行动": 9981,
  "蛋@@": 9982,
  "加勒比": 9983,
  "行长": 9984,
  "点燃": 9985,
  "与会": 9986,
  "撰写": 9987,
  "惹": 9988,
  "看不见": 9989,
  "媒": 9990,
  "乌鲁木齐": 9991,
  "肾": 9992,
  "岛@@": 9993,
  "毕@@": 9994,
  "摩擦": 9995,
  "黛@@": 9996,
  "摄入": 9997,
  "烤@@": 9998,
  "底下": 9999,
  "ry": 10000,
  "肉类": 10001,
  "会计师": 10002,
  "ap@@": 10003,
  "似@@": 10004,
  "欢": 10005,
  "起初": 10006,
  "基准利率": 10007,
  "述@@": 10008,
  "逊": 10009,
  "戒指": 10010,
  "养成": 10011,
  "人性": 10012,
  "婚纱": 10013,
  "吓@@": 10014,
  "人工@@": 10015,
  "串@@": 10016,
  "辩护": 10017,
  "拉开": 10018,
  "不成": 10019,
  "效@@": 10020,
  "冷战": 10021,
  "延安": 10022,
  "温室": 10023,
  "念@@": 10024,
  "测试@@": 10025,
  "脑袋": 10026,
  "京东": 10027,
  "原子": 10028,
  "消防@@": 10029,
  "著作": 10030,
  "无意": 10031,
  "文艺": 10032,
  "三人": 10033,
  "医保": 10034,
  "冻": 10035,
  "总计": 10036,
  "一瓶": 10037,
  "纪念@@": 10038,
  "不动": 10039,
  "赖": 10040,
  "屋里": 10041,
  "求助": 10042,
  "术语": 10043,
  "聘": 10044,
  "流向": 10045,
  "无线电": 10046,
  "席@@": 10047,
  "全场": 10048,
  "听众": 10049,
  "炉@@": 10050,
  "摄影师": 10051,
  "勾@@": 10052,
  "联保": 10053,
  "传销": 10054,
  "市盈率": 10055,
  "无辜": 10056,
  "此基础": 10057,
  "奋@@": 10058,
  "ent@@": 10059,
  "开来": 10060,
  "四分之一": 10061,
  "淮@@": 10062,
  "汶川": 10063,
  "操作@@": 10064,
  "制服": 10065,
  "载人": 10066,
  "入口": 10067,
  "空间站": 10068,
  "桌@@": 10069,
  "同类": 10070,
  "港元": 10071,
  "巧@@": 10072,
  "打死": 10073,
  "瓶@@": 10074,
  "平均水平": 10075,
  "管理员": 10076,
  "恰恰": 10077,
  "觉@@": 10078,
  "每一": 10079,
  "封锁": 10080,
  "会计@@": 10081,
  "棉花": 10082,
  "屋子": 10083,
  "佐@@": 10084,
  "无比": 10085,
  "晓": 10086,
  "一个个": 10087,
  "计量": 10088,
  "邻@@": 10089,
  "姿": 10090,
  "埋@@": 10091,
  "建立健全": 10092,
  "短时间": 10093,
  "渗透": 10094,
  "训练@@": 10095,
  "立体": 10096,
  "ay@@": 10097,
  "鸣@@": 10098,
  "婆婆": 10099,
  "上空": 10100,
  "售票": 10101,
  "第四次": 10102,
  "现已": 10103,
  "解放@@": 10104,
  "箱子": 10105,
  "一幕": 10106,
  "出血": 10107,
  "深处": 10108,
  "禁令": 10109,
  "颜": 10110,
  "典礼": 10111,
  "从业人员": 10112,
  "影子": 10113,
  "现时": 10114,
  "砂": 10115,
  "公办": 10116,
  "往返": 10117,
  "罢工": 10118,
  "撕@@": 10119,
  "雕塑": 10120,
  "疼": 10121,
  "祥@@": 10122,
  "主教练": 10123,
  "欧债": 10124,
  "几率": 10125,
  "销毁": 10126,
  "接连": 10127,
  "奔@@": 10128,
  "导师": 10129,
  "简": 10130,
  "阵容": 10131,
  "惊奇": 10132,
  "离不开": 10133,
  "郎": 10134,
  "小品": 10135,
  "县城": 10136,
  "身着": 10137,
  "深远": 10138,
  "变换": 10139,
  "总署": 10140,
  "发展趋势": 10141,
  "联动": 10142,
  "会面": 10143,
  "领导小组": 10144,
  "屿": 10145,
  "平面": 10146,
  "承": 10147,
  "培训班": 10148,
  "葬": 10149,
  "0.2": 10150,
  "莎@@": 10151,
  "促": 10152,
  "跑车": 10153,
  "选定": 10154,
  "在职": 10155,
  "披@@": 10156,
  "李先生": 10157,
  "忘@@": 10158,
  "次级": 10159,
  "交叉": 10160,
  "阁下": 10161,
  "那次": 10162,
  "兽": 10163,
  "祭@@": 10164,
  "全家": 10165,
  "廷": 10166,
  "捷": 10167,
  "传统@@": 10168,
  "战略@@": 10169,
  "延期": 10170,
  "比起": 10171,
  "谅解": 10172,
  "冷却": 10173,
  "王某": 10174,
  "发酵": 10175,
  "赞@@": 10176,
  "信誉": 10177,
  "商定": 10178,
  "草地": 10179,
  "能源@@": 10180,
  "征求": 10181,
  "蕾": 10182,
  "娃娃": 10183,
  "发型": 10184,
  "全系": 10185,
  "惹@@": 10186,
  "敲@@": 10187,
  "泪": 10188,
  "天生": 10189,
  "80@@": 10190,
  "拼": 10191,
  "个性化": 10192,
  "没错": 10193,
  "它会": 10194,
  "这辆": 10195,
  "减免": 10196,
  "财政收入": 10197,
  "瞩目": 10198,
  "天宫": 10199,
  "武警": 10200,
  "35@@": 10201,
  "法令": 10202,
  "融@@": 10203,
  "榜样": 10204,
  "诚意": 10205,
  "娇@@": 10206,
  "万亿美元": 10207,
  "调用": 10208,
  "菜单": 10209,
  "职业@@": 10210,
  "下挫": 10211,
  "站点": 10212,
  "进球": 10213,
  "稻@@": 10214,
  "op@@": 10215,
  "人才培养": 10216,
  "争吵": 10217,
  "29.@@": 10218,
  "富人": 10219,
  "毫无@@": 10220,
  "仲@@": 10221,
  "拿下": 10222,
  "贤@@": 10223,
  "野生动物": 10224,
  "讲究": 10225,
  "敌@@": 10226,
  "紧迫": 10227,
  "空前": 10228,
  "辣": 10229,
  "执法人员": 10230,
  "蒋介石": 10231,
  "招商": 10232,
  "奈@@": 10233,
  "国家机关": 10234,
  "物价上涨": 10235,
  "郭": 10236,
  "严禁": 10237,
  "①": 10238,
  "塞族": 10239,
  "炼": 10240,
  "还款": 10241,
  "下乡": 10242,
  "脏@@": 10243,
  "点儿": 10244,
  "la@@": 10245,
  "回事": 10246,
  "满意度": 10247,
  "交货": 10248,
  "经济效益": 10249,
  "不大": 10250,
  "风波": 10251,
  "不怕": 10252,
  "谈及": 10253,
  "莹": 10254,
  "行事": 10255,
  "铝@@": 10256,
  "回合": 10257,
  "亨利": 10258,
  "黑龙江省": 10259,
  "弥@@": 10260,
  "郁@@": 10261,
  "0.1": 10262,
  "我市": 10263,
  "做过": 10264,
  "净化": 10265,
  "1985": 10266,
  "旁@@": 10267,
  "熊猫": 10268,
  "宣判": 10269,
  "嫁": 10270,
  "艰巨": 10271,
  "面貌": 10272,
  "对照": 10273,
  "全国性": 10274,
  "摆在": 10275,
  "自我@@": 10276,
  "例行": 10277,
  "概括": 10278,
  "几周": 10279,
  "担当": 10280,
  "瞧": 10281,
  "抽烟": 10282,
  "人民代表大会": 10283,
  "风情": 10284,
  "没事": 10285,
  "小企业": 10286,
  "辅@@": 10287,
  "淘@@": 10288,
  "转身": 10289,
  "DVD": 10290,
  "盆地": 10291,
  "增持": 10292,
  "一夜": 10293,
  "全线": 10294,
  "医疗保险": 10295,
  "王国": 10296,
  "周岁": 10297,
  "水准": 10298,
  "政治家": 10299,
  "再见": 10300,
  "经济损失": 10301,
  "国家标准": 10302,
  "全区": 10303,
  "不难": 10304,
  "调查结果": 10305,
  "填补": 10306,
  "称号": 10307,
  "该行": 10308,
  "坪": 10309,
  "避开": 10310,
  "长安": 10311,
  "飞往": 10312,
  "五一": 10313,
  "当地政府": 10314,
  "一首": 10315,
  "筛选": 10316,
  "证券公司": 10317,
  "产地": 10318,
  "指向": 10319,
  "习": 10320,
  "司长": 10321,
  "唱片": 10322,
  "辽宁省": 10323,
  "身影": 10324,
  "---": 10325,
  "us": 10326,
  "廊": 10327,
  "桌上": 10328,
  "评委": 10329,
  "组织@@": 10330,
  "原则上": 10331,
  "减缓": 10332,
  "拘@@": 10333,
  "决不": 10334,
  "感恩": 10335,
  "铃": 10336,
  "排列": 10337,
  "畅": 10338,
  "拉丹": 10339,
  "携": 10340,
  "抵": 10341,
  "肇事": 10342,
  "简洁": 10343,
  "周日": 10344,
  "成年": 10345,
  "不同于": 10346,
  "绍@@": 10347,
  "万多": 10348,
  "最美": 10349,
  "标价": 10350,
  "Th@@": 10351,
  "明智": 10352,
  "置换": 10353,
  "组长": 10354,
  "皇": 10355,
  "小孩子": 10356,
  "零售商": 10357,
  "几名": 10358,
  "尊": 10359,
  "俞@@": 10360,
  "旭@@": 10361,
  "覆@@": 10362,
  "充电": 10363,
  "征地": 10364,
  "再现": 10365,
  "龙头": 10366,
  "胆": 10367,
  "1986": 10368,
  "问及": 10369,
  "侵@@": 10370,
  "多大": 10371,
  "自制": 10372,
  "灵活性": 10373,
  "现阶段": 10374,
  "中国移动": 10375,
  "已于": 10376,
  "代谢": 10377,
  "彰显": 10378,
  "ov@@": 10379,
  "三条": 10380,
  "炸@@": 10381,
  "27.@@": 10382,
  "外交部长": 10383,
  "世上": 10384,
  "海报": 10385,
  "解答": 10386,
  "收拾": 10387,
  "一家人": 10388,
  "大方": 10389,
  "吐": 10390,
  "Re@@": 10391,
  "行政处罚": 10392,
  "途@@": 10393,
  "验": 10394,
  "感慨": 10395,
  "渝": 10396,
  "足协": 10397,
  "山市": 10398,
  "访@@": 10399,
  "香蕉": 10400,
  "支付宝": 10401,
  "观光": 10402,
  "希尔": 10403,
  "170": 10404,
  "船员": 10405,
  "弟": 10406,
  "滴@@": 10407,
  "七月": 10408,
  "爷": 10409,
  "八个": 10410,
  "薛@@": 10411,
  "国情": 10412,
  "住所": 10413,
  "兼职": 10414,
  "强行": 10415,
  "擅长": 10416,
  "衔接": 10417,
  "快捷": 10418,
  "熔@@": 10419,
  "弯": 10420,
  "匆匆": 10421,
  "纺织": 10422,
  "托管": 10423,
  "两侧": 10424,
  "6.5": 10425,
  "伞": 10426,
  "阵营": 10427,
  "安全隐患": 10428,
  "0.3": 10429,
  "馆@@": 10430,
  "闲置": 10431,
  "时髦": 10432,
  "描绘": 10433,
  "空气质量": 10434,
  "农业@@": 10435,
  "多月": 10436,
  "这片": 10437,
  "中将": 10438,
  "商品@@": 10439,
  "饮": 10440,
  "公式": 10441,
  "环球网": 10442,
  "CA@@": 10443,
  "ra@@": 10444,
  "人间": 10445,
  "落地": 10446,
  "陷": 10447,
  "美洲": 10448,
  "极限": 10449,
  "伊丽莎白": 10450,
  "拜访": 10451,
  "政府军": 10452,
  "星期二": 10453,
  "管理制度": 10454,
  "珠海": 10455,
  "先是": 10456,
  "薄弱": 10457,
  "不足以": 10458,
  "政协": 10459,
  "楠": 10460,
  "发展@@": 10461,
  "彩色": 10462,
  "兼顾": 10463,
  "不乏": 10464,
  "发展观": 10465,
  "迟@@": 10466,
  "帐篷": 10467,
  "规避": 10468,
  "航空@@": 10469,
  "声誉": 10470,
  "州长": 10471,
  "地价": 10472,
  "吉利": 10473,
  "酱": 10474,
  "年限": 10475,
  "扑@@": 10476,
  "地段": 10477,
  "羡慕": 10478,
  "坚信": 10479,
  "适时": 10480,
  "防守": 10481,
  "台上": 10482,
  "取出": 10483,
  "逸@@": 10484,
  "保姆": 10485,
  "斯特@@": 10486,
  "一封": 10487,
  "丸": 10488,
  "拉萨": 10489,
  "刘某": 10490,
  "多云": 10491,
  "副本": 10492,
  "纠结": 10493,
  "第五@@": 10494,
  "进城": 10495,
  "影院": 10496,
  "表述": 10497,
  "历时": 10498,
  "图形": 10499,
  "契机": 10500,
  "水源": 10501,
  "生物学": 10502,
  "网游": 10503,
  "收受": 10504,
  "世锦赛": 10505,
  "也好": 10506,
  "欧洲@@": 10507,
  "性价比": 10508,
  "讨论会": 10509,
  "ay": 10510,
  "省长": 10511,
  "梅德韦": 10512,
  "众议院": 10513,
  "促@@": 10514,
  "微型": 10515,
  "一刻": 10516,
  "疫情": 10517,
  "参议员": 10518,
  "原文": 10519,
  "抬@@": 10520,
  "生源": 10521,
  "摄氏度": 10522,
  "分摊": 10523,
  "毒素": 10524,
  "ev@@": 10525,
  "浓": 10526,
  "凌": 10527,
  "商量": 10528,
  "等国": 10529,
  "东航": 10530,
  "逐年": 10531,
  "万台": 10532,
  "窝@@": 10533,
  "降落": 10534,
  "终": 10535,
  "二季度": 10536,
  "甘肃省": 10537,
  "用语": 10538,
  "慰问": 10539,
  "不容": 10540,
  "陪伴": 10541,
  "九年": 10542,
  "尘@@": 10543,
  "扭曲": 10544,
  "视线": 10545,
  "感叹": 10546,
  "瓦斯": 10547,
  "贵方": 10548,
  "体积": 10549,
  "电话号码": 10550,
  "教徒": 10551,
  "分工": 10552,
  "co@@": 10553,
  "柄": 10554,
  "烦@@": 10555,
  "尤为": 10556,
  "尔德": 10557,
  "出炉": 10558,
  "拳": 10559,
  "一般性": 10560,
  "沃尔沃": 10561,
  "数年": 10562,
  "译@@": 10563,
  "御@@": 10564,
  "烤": 10565,
  "前任": 10566,
  "下班": 10567,
  "带上": 10568,
  "陆地": 10569,
  "纷@@": 10570,
  "一审": 10571,
  "掩盖": 10572,
  "滴": 10573,
  "把手": 10574,
  "昭@@": 10575,
  "生产@@": 10576,
  "黄金@@": 10577,
  "报案": 10578,
  "中心@@": 10579,
  "身体健康": 10580,
  "壁@@": 10581,
  "后勤": 10582,
  "不必要": 10583,
  "万亿": 10584,
  "雕": 10585,
  "财物": 10586,
  "奉": 10587,
  "又@@": 10588,
  "馒头": 10589,
  "乐园": 10590,
  "传送": 10591,
  "写下": 10592,
  "干细胞": 10593,
  "ip@@": 10594,
  "号召": 10595,
  "监禁": 10596,
  "警车": 10597,
  "村官": 10598,
  "巴士": 10599,
  "网易": 10600,
  "信件": 10601,
  "一会": 10602,
  "快讯": 10603,
  "消毒": 10604,
  "九月": 10605,
  "拉斯": 10606,
  "之道": 10607,
  "六个月": 10608,
  "生态系统": 10609,
  "车道": 10610,
  "添": 10611,
  "前天": 10612,
  "经济区": 10613,
  "墙@@": 10614,
  "硅@@": 10615,
  "七个": 10616,
  "尽管如此": 10617,
  "华裔": 10618,
  "刚性": 10619,
  "以致": 10620,
  "大火": 10621,
  "有效期": 10622,
  "温泉": 10623,
  "电站": 10624,
  "棍": 10625,
  "业务@@": 10626,
  "巴菲特": 10627,
  "法则": 10628,
  "克里@@": 10629,
  "贵族": 10630,
  "饮用": 10631,
  "申": 10632,
  "充当": 10633,
  "专门机构": 10634,
  "能耗": 10635,
  "路透社": 10636,
  "孤儿": 10637,
  "拖欠": 10638,
  "华北": 10639,
  "酯": 10640,
  "试行": 10641,
  "水量": 10642,
  "停下来": 10643,
  "开局": 10644,
  "小时候": 10645,
  "字样": 10646,
  "剧组": 10647,
  "非凡": 10648,
  "氯@@": 10649,
  "充实": 10650,
  "第三季度": 10651,
  "太高": 10652,
  "助手": 10653,
  "文学@@": 10654,
  "美方": 10655,
  "精美": 10656,
  "官方网站": 10657,
  "押@@": 10658,
  "美味": 10659,
  "惨@@": 10660,
  "储量": 10661,
  "动力学": 10662,
  "焊接": 10663,
  "契约": 10664,
  "莲@@": 10665,
  "火电": 10666,
  "公顷": 10667,
  "看重": 10668,
  "领导班子": 10669,
  "伏": 10670,
  "出路": 10671,
  "爱国": 10672,
  "跨境": 10673,
  "误": 10674,
  "推测": 10675,
  "qu@@": 10676,
  "肌": 10677,
  "山上": 10678,
  "工商@@": 10679,
  "宅": 10680,
  "老化": 10681,
  "创造性": 10682,
  "服从": 10683,
  "凝聚": 10684,
  "平凡": 10685,
  "商户": 10686,
  "说明书": 10687,
  "至此": 10688,
  "发射@@": 10689,
  "危及": 10690,
  "识": 10691,
  "十月": 10692,
  "凤凰": 10693,
  "坦克": 10694,
  "这边": 10695,
  "宴会": 10696,
  "澳@@": 10697,
  "聊@@": 10698,
  "供需": 10699,
  "敢@@": 10700,
  "注视": 10701,
  "og@@": 10702,
  "心理学": 10703,
  "原创": 10704,
  "枪支": 10705,
  "ing@@": 10706,
  "两岸关系": 10707,
  "高血压": 10708,
  "聊": 10709,
  "跳水": 10710,
  "留守": 10711,
  "砖@@": 10712,
  "楼宇": 10713,
  "光明日报": 10714,
  "天上": 10715,
  "天赋": 10716,
  "突发": 10717,
  "电讯": 10718,
  "永": 10719,
  "审美": 10720,
  "实业": 10721,
  "流出": 10722,
  "小偷": 10723,
  "隐瞒": 10724,
  "金融服务": 10725,
  "臭": 10726,
  "香港特别行政区": 10727,
  "中止": 10728,
  "出自": 10729,
  "县委": 10730,
  "1987": 10731,
  "客服": 10732,
  "疯": 10733,
  "非线性": 10734,
  "联通": 10735,
  "翅膀": 10736,
  "药业": 10737,
  "基督教": 10738,
  "同年": 10739,
  "趣": 10740,
  "出演": 10741,
  "小于": 10742,
  "跨国公司": 10743,
  "sh@@": 10744,
  "批次": 10745,
  "舟": 10746,
  "食用油": 10747,
  "预先": 10748,
  "跟进": 10749,
  "ak@@": 10750,
  "肩膀": 10751,
  "议@@": 10752,
  "倒闭": 10753,
  "据此": 10754,
  "星期天": 10755,
  "出局": 10756,
  "德尔": 10757,
  "总队": 10758,
  "睡着": 10759,
  "猛": 10760,
  "长得": 10761,
  "相连": 10762,
  "基督": 10763,
  "辈": 10764,
  "简介": 10765,
  "脂@@": 10766,
  "汗@@": 10767,
  "虚": 10768,
  "三峡": 10769,
  "詹@@": 10770,
  "裙子": 10771,
  "略有": 10772,
  "赛场": 10773,
  "解救": 10774,
  "失衡": 10775,
  "染@@": 10776,
  "被害人": 10777,
  "弱势": 10778,
  "供应链": 10779,
  "瑟": 10780,
  "上传": 10781,
  "老虎": 10782,
  "干脆": 10783,
  "攀@@": 10784,
  "转为": 10785,
  "向下": 10786,
  "筹@@": 10787,
  "易于": 10788,
  "荣耀": 10789,
  "全局": 10790,
  "陪@@": 10791,
  "伦理": 10792,
  "地向": 10793,
  "植入": 10794,
  "先锋": 10795,
  "棒@@": 10796,
  "威尔": 10797,
  "杯@@": 10798,
  "大跌": 10799,
  "更能": 10800,
  "麦克": 10801,
  "制药": 10802,
  "头痛": 10803,
  "剧烈": 10804,
  "抓紧": 10805,
  "率领": 10806,
  "风光": 10807,
  "大局": 10808,
  "外交@@": 10809,
  "畅通": 10810,
  "趋于": 10811,
  "国防部长": 10812,
  "导游": 10813,
  "第六": 10814,
  "旺盛": 10815,
  "一千@@": 10816,
  "荣幸": 10817,
  "高级@@": 10818,
  "宽容": 10819,
  "第七@@": 10820,
  "细化": 10821,
  "忙@@": 10822,
  "2.8": 10823,
  "琴@@": 10824,
  "蓄@@": 10825,
  "角落": 10826,
  "电缆": 10827,
  "无聊": 10828,
  "此间": 10829,
  "发性": 10830,
  "暴利": 10831,
  "一般来说": 10832,
  "黑客": 10833,
  "挽救": 10834,
  "债权人": 10835,
  "卫生局": 10836,
  "坚守": 10837,
  "唇": 10838,
  "盒子": 10839,
  "诠释": 10840,
  "as": 10841,
  "常识": 10842,
  "贫": 10843,
  "接纳": 10844,
  "召集": 10845,
  "去除": 10846,
  "年级": 10847,
  "与否": 10848,
  "热心": 10849,
  "以人为本": 10850,
  "禁": 10851,
  "握": 10852,
  "留意": 10853,
  "旗帜": 10854,
  "竟@@": 10855,
  "掉@@": 10856,
  "开庭": 10857,
  "投资人": 10858,
  "闸": 10859,
  "环球": 10860,
  "厂@@": 10861,
  "ine": 10862,
  "体质": 10863,
  "缓和": 10864,
  "器材": 10865,
  "户外": 10866,
  "一到": 10867,
  "语法": 10868,
  "冷空气": 10869,
  "自有": 10870,
  "扇": 10871,
  "批发": 10872,
  "雾@@": 10873,
  "合作社": 10874,
  "试试": 10875,
  "盆@@": 10876,
  "查找": 10877,
  "日趋": 10878,
  "进一步提高": 10879,
  "出场": 10880,
  "二手车": 10881,
  "疏散": 10882,
  "辉@@": 10883,
  "高清": 10884,
  "嫌": 10885,
  "盼": 10886,
  "烈": 10887,
  "黎明": 10888,
  "院子": 10889,
  "去过": 10890,
  "分泌": 10891,
  "信赖": 10892,
  "患@@": 10893,
  "实名制": 10894,
  "警官": 10895,
  "呃": 10896,
  "震": 10897,
  "单价": 10898,
  "轰炸": 10899,
  "挣扎": 10900,
  "联邦政府": 10901,
  "舰@@": 10902,
  "搜救": 10903,
  "前不久": 10904,
  "过滤": 10905,
  "差价": 10906,
  "琼@@": 10907,
  "苍@@": 10908,
  "圣经": 10909,
  "光荣": 10910,
  "内战": 10911,
  "早报": 10912,
  "鲜": 10913,
  "还原": 10914,
  "缔结": 10915,
  "裤子": 10916,
  "缺席": 10917,
  "优秀@@": 10918,
  "惠": 10919,
  "羽": 10920,
  "墓地": 10921,
  "断裂": 10922,
  "毫不@@": 10923,
  "21.@@": 10924,
  "矿产资源": 10925,
  "法制日报": 10926,
  "www": 10927,
  "光辉": 10928,
  "星球": 10929,
  "这批": 10930,
  "谎言": 10931,
  "广州@@": 10932,
  "灌溉": 10933,
  "慷慨": 10934,
  "招收": 10935,
  "第二届": 10936,
  "篮@@": 10937,
  "秘书处": 10938,
  "宽带": 10939,
  "坦": 10940,
  "加紧": 10941,
  "搜集": 10942,
  "蟹": 10943,
  "出差": 10944,
  "津": 10945,
  "极具": 10946,
  "轴距": 10947,
  "果汁": 10948,
  "骨头": 10949,
  "下一代": 10950,
  "殴打": 10951,
  "姿势": 10952,
  "虹": 10953,
  "相差": 10954,
  "预示": 10955,
  "好消息": 10956,
  "胳膊": 10957,
  "找个": 10958,
  "浴@@": 10959,
  "析": 10960,
  "心思": 10961,
  "发病": 10962,
  "严格执行": 10963,
  "锦湖": 10964,
  "挨@@": 10965,
  "种族歧视": 10966,
  "反射": 10967,
  "之初": 10968,
  "报刊": 10969,
  "崭新": 10970,
  "琼": 10971,
  "长江@@": 10972,
  "仪@@": 10973,
  "抽": 10974,
  "av@@": 10975,
  "病房": 10976,
  "灿烂": 10977,
  "欺@@": 10978,
  "涡轮": 10979,
  "查出": 10980,
  "敢于": 10981,
  "第六@@": 10982,
  "宇航员": 10983,
  "巡@@": 10984,
  "狭窄": 10985,
  "目睹": 10986,
  "二者": 10987,
  "高额": 10988,
  "昆": 10989,
  "ic": 10990,
  "协调员": 10991,
  "醒来": 10992,
  "符": 10993,
  "律@@": 10994,
  "水下": 10995,
  "休假": 10996,
  "给力": 10997,
  "担@@": 10998,
  "繁殖": 10999,
  "陆军": 11000,
  "假日": 11001,
  "核算": 11002,
  "主办方": 11003,
  "各家": 11004,
  "第四季度": 11005,
  "珍@@": 11006,
  "普通人": 11007,
  "狄@@": 11008,
  "日均": 11009,
  "外科": 11010,
  "乘车": 11011,
  "盗版": 11012,
  "22@@": 11013,
  "0.4": 11014,
  "行贿": 11015,
  "8.5": 11016,
  "孙子": 11017,
  "坡@@": 11018,
  "现货": 11019,
  "封面": 11020,
  "柔软": 11021,
  "冰岛": 11022,
  "鸟@@": 11023,
  "入手": 11024,
  "考场": 11025,
  "中长期": 11026,
  "恐@@": 11027,
  "扯": 11028,
  "庞@@": 11029,
  "专辑": 11030,
  "合伙人": 11031,
  "练@@": 11032,
  "拥堵": 11033,
  "相亲": 11034,
  "会场": 11035,
  "v": 11036,
  "轰@@": 11037,
  "大风": 11038,
  "意味": 11039,
  "解雇": 11040,
  "媛": 11041,
  "偏见": 11042,
  "评定": 11043,
  "伯格": 11044,
  "蜂蜜": 11045,
  "各省": 11046,
  "贩卖": 11047,
  "茂": 11048,
  "诉@@": 11049,
  "茅@@": 11050,
  "聘用": 11051,
  "援@@": 11052,
  "多余": 11053,
  "瘫痪": 11054,
  "这本": 11055,
  "腐蚀": 11056,
  "丧生": 11057,
  "辽@@": 11058,
  "烂@@": 11059,
  "全额": 11060,
  "报销": 11061,
  "落户": 11062,
  "重心": 11063,
  "不远": 11064,
  "掌声": 11065,
  "城镇化": 11066,
  "墓@@": 11067,
  "数月": 11068,
  "凭证": 11069,
  "行车": 11070,
  "责任人": 11071,
  "从没": 11072,
  "笔试": 11073,
  "秋冬": 11074,
  "插入": 11075,
  "试着": 11076,
  "保证金": 11077,
  "个人资料": 11078,
  "星期四": 11079,
  "雷曼": 11080,
  "映": 11081,
  "尿": 11082,
  "斯顿": 11083,
  "抹": 11084,
  "兆": 11085,
  "渠": 11086,
  "景点": 11087,
  "诊所": 11088,
  "望远镜": 11089,
  "氏@@": 11090,
  "拆": 11091,
  "选票": 11092,
  "国土资源部": 11093,
  "启示": 11094,
  "上任": 11095,
  "匠": 11096,
  "揭开": 11097,
  "摩托罗拉": 11098,
  "预言": 11099,
  "马车": 11100,
  "玄@@": 11101,
  "氮": 11102,
  "香烟": 11103,
  "婚后": 11104,
  "抗生素": 11105,
  "悲观": 11106,
  "火焰": 11107,
  "氢": 11108,
  "旅程": 11109,
  "小事": 11110,
  "几何": 11111,
  "处理@@": 11112,
  "柴@@": 11113,
  "演练": 11114,
  "合力": 11115,
  "敲": 11116,
  "饮用水": 11117,
  "直径": 11118,
  "典": 11119,
  "半数": 11120,
  "配额": 11121,
  "样式": 11122,
  "误导": 11123,
  "沙特": 11124,
  "黄金周": 11125,
  "南极": 11126,
  "彼@@": 11127,
  "之情": 11128,
  "巨人": 11129,
  "树脂": 11130,
  "繁忙": 11131,
  "骚乱": 11132,
  "墙壁": 11133,
  "绝大部分": 11134,
  "产值": 11135,
  "路口": 11136,
  "例@@": 11137,
  "ell@@": 11138,
  "捐献": 11139,
  "停牌": 11140,
  "漂@@": 11141,
  "管理系统": 11142,
  "衣物": 11143,
  "机型": 11144,
  "外商投资": 11145,
  "第六十@@": 11146,
  "废弃": 11147,
  "种族主义": 11148,
  "午饭": 11149,
  "昂@@": 11150,
  "徒@@": 11151,
  "巧妙": 11152,
  "玩耍": 11153,
  "1984": 11154,
  "厚度": 11155,
  "市政": 11156,
  "上周五": 11157,
  "相比之下": 11158,
  "资源@@": 11159,
  "置于": 11160,
  "ey": 11161,
  "师范大学": 11162,
  "新版": 11163,
  "普遍认为": 11164,
  "动手": 11165,
  "夜里": 11166,
  "刷@@": 11167,
  "": 11168,
  "队友": 11169,
  "兔子": 11170,
  "副会长": 11171,
  "下台": 11172,
  "亚太地区": 11173,
  "研究成果": 11174,
  "密封": 11175,
  "水稻": 11176,
  "弯曲": 11177,
  "流浪": 11178,
  "几百@@": 11179,
  "农村@@": 11180,
  "深夜": 11181,
  "每位": 11182,
  "之路": 11183,
  "IC@@": 11184,
  "起义": 11185,
  "整体@@": 11186,
  "遂": 11187,
  "这话": 11188,
  "星星": 11189,
  "崇拜": 11190,
  "梯@@": 11191,
  "债@@": 11192,
  "张某": 11193,
  "犹太人": 11194,
  "多地": 11195,
  "为准": 11196,
  "无人机": 11197,
  "外语": 11198,
  "振": 11199,
  "公共卫生": 11200,
  "二年": 11201,
  "区域性": 11202,
  "1949": 11203,
  "增压": 11204,
  "AC": 11205,
  "服装@@": 11206,
  "od@@": 11207,
  "劝@@": 11208,
  "写字楼": 11209,
  "尺度": 11210,
  "某种程度": 11211,
  "锋@@": 11212,
  "离去": 11213,
  "上车": 11214,
  "磷@@": 11215,
  "年会": 11216,
  "问候": 11217,
  "一大批": 11218,
  "念头": 11219,
  "朝阳": 11220,
  "醉酒": 11221,
  "前列": 11222,
  "牢@@": 11223,
  "完工": 11224,
  "热水器": 11225,
  "亚马逊": 11226,
  "看病": 11227,
  "奥林匹克": 11228,
  "阔@@": 11229,
  "永不": 11230,
  "郎@@": 11231,
  "达成协议": 11232,
  "矿山": 11233,
  "出动": 11234,
  "三项": 11235,
  "秦": 11236,
  "39@@": 11237,
  "土著人": 11238,
  "宪@@": 11239,
  "组委会": 11240,
  "震动": 11241,
  "废除": 11242,
  "震撼": 11243,
  "倘若": 11244,
  "抹@@": 11245,
  "闻名": 11246,
  "表彰": 11247,
  "高昂": 11248,
  "急于": 11249,
  "强制性": 11250,
  "挣": 11251,
  "过期": 11252,
  "赌": 11253,
  "入围": 11254,
  "参选": 11255,
  "直线": 11256,
  "and": 11257,
  "国防@@": 11258,
  "谋杀": 11259,
  "邢@@": 11260,
  "前方": 11261,
  "发了": 11262,
  "卖掉": 11263,
  "外贸": 11264,
  "100@@": 11265,
  "统一@@": 11266,
  "戒": 11267,
  "容纳": 11268,
  "着急": 11269,
  "反应堆": 11270,
  "酝酿": 11271,
  "Sp@@": 11272,
  "星期三": 11273,
  "天文台": 11274,
  "贯穿": 11275,
  "阿姨": 11276,
  "域名": 11277,
  "祸": 11278,
  "异议": 11279,
  "十个": 11280,
  "不在乎": 11281,
  "名牌": 11282,
  "抚养": 11283,
  "揭秘": 11284,
  "资金@@": 11285,
  "忠实": 11286,
  "盈": 11287,
  "自动@@": 11288,
  "前一天": 11289,
  "阿尔及利亚": 11290,
  "腹部": 11291,
  "大学@@": 11292,
  "光学": 11293,
  "氧@@": 11294,
  "迎": 11295,
  "牢": 11296,
  "一分钟": 11297,
  "炮@@": 11298,
  "美妙": 11299,
  "三成": 11300,
  "安保": 11301,
  "移徙": 11302,
  "打着": 11303,
  "码@@": 11304,
  "捷@@": 11305,
  "旋": 11306,
  "构成犯罪": 11307,
  "it": 11308,
  "烹饪": 11309,
  "前日": 11310,
  "主观": 11311,
  "示威者": 11312,
  "强硬": 11313,
  "爵士": 11314,
  "这使": 11315,
  "卡拉": 11316,
  "销售量": 11317,
  "AS@@": 11318,
  "写信": 11319,
  "奏": 11320,
  "职场": 11321,
  "MT": 11322,
  "封信": 11323,
  "崇高": 11324,
  "海尔": 11325,
  "追问": 11326,
  "宁静": 11327,
  "产业@@": 11328,
  "儿童@@": 11329,
  "次日": 11330,
  "二代": 11331,
  "萨科齐": 11332,
  "本赛季": 11333,
  "常年": 11334,
  "视力": 11335,
  "造就": 11336,
  "收支": 11337,
  "税费": 11338,
  "重新@@": 11339,
  "哲": 11340,
  "An@@": 11341,
  "规划署": 11342,
  "开发者": 11343,
  "鼻": 11344,
  "发布公告": 11345,
  "ation": 11346,
  "概@@": 11347,
  "致力": 11348,
  "拔": 11349,
  "港币": 11350,
  "幽@@": 11351,
  "郝@@": 11352,
  "朝阳区": 11353,
  "民营企业": 11354,
  "期盼": 11355,
  "违法犯罪": 11356,
  "商铺": 11357,
  "爸": 11358,
  "状@@": 11359,
  "夺冠": 11360,
  "查尔斯": 11361,
  "集体@@": 11362,
  "第二轮": 11363,
  "ion": 11364,
  "瞄准": 11365,
  "浓厚": 11366,
  "讽刺": 11367,
  "另据": 11368,
  "阻力": 11369,
  "示": 11370,
  "裔": 11371,
  "键盘": 11372,
  "彩票": 11373,
  "过得": 11374,
  "2.6": 11375,
  "中共中央": 11376,
  "农历": 11377,
  "笔记本": 11378,
  "链@@": 11379,
  "减小": 11380,
  "uc@@": 11381,
  "茶叶": 11382,
  "中海油": 11383,
  "阻": 11384,
  "匈牙利": 11385,
  "圆形": 11386,
  "招募": 11387,
  "风力": 11388,
  "昆虫": 11389,
  "2014": 11390,
  "预料": 11391,
  "筑@@": 11392,
  "最高@@": 11393,
  "约旦": 11394,
  "辩": 11395,
  "质量@@": 11396,
  "处长": 11397,
  "1978": 11398,
  "毛病": 11399,
  "陆": 11400,
  "荡@@": 11401,
  "韵": 11402,
  "办公厅": 11403,
  "交易@@": 11404,
  "iv@@": 11405,
  "多媒体": 11406,
  "识@@": 11407,
  "吩咐": 11408,
  "坚实": 11409,
  "预见": 11410,
  "三分之二": 11411,
  "钱包": 11412,
  "小鸟": 11413,
  "奇瑞": 11414,
  "地中海": 11415,
  "效能": 11416,
  "上将": 11417,
  "饮酒": 11418,
  "桑": 11419,
  "须@@": 11420,
  "暑期": 11421,
  "砍@@": 11422,
  "眼神": 11423,
  "证券时报": 11424,
  "就是说": 11425,
  "鲁迅": 11426,
  "36@@": 11427,
  "有所@@": 11428,
  "房地产业": 11429,
  "钱江晚报": 11430,
  "保管": 11431,
  "脾气": 11432,
  "精华": 11433,
  "本级": 11434,
  "纠@@": 11435,
  "活泼": 11436,
  "历经": 11437,
  "密切相关": 11438,
  "抓捕": 11439,
  "钢铁@@": 11440,
  "质素": 11441,
  "驱@@": 11442,
  "秘鲁": 11443,
  "AT@@": 11444,
  "滥@@": 11445,
  "捡": 11446,
  "万公里": 11447,
  "最受": 11448,
  "建部": 11449,
  "依法追究": 11450,
  "仗": 11451,
  "辰": 11452,
  "萝卜": 11453,
  "更要": 11454,
  "9000": 11455,
  "赠": 11456,
  "悄悄": 11457,
  "月末": 11458,
  "迟迟": 11459,
  "偿": 11460,
  "订立": 11461,
  "况": 11462,
  "缩减": 11463,
  "中秋": 11464,
  "僵局": 11465,
  "四季度": 11466,
  "中日": 11467,
  "殷@@": 11468,
  "医学院": 11469,
  "火炬": 11470,
  "努@@": 11471,
  "旧金山": 11472,
  "标致": 11473,
  "军备": 11474,
  "发生变化": 11475,
  "壶": 11476,
  "农作物": 11477,
  "舌": 11478,
  "um@@": 11479,
  "情愿": 11480,
  "挫折": 11481,
  "始": 11482,
  "人员伤亡": 11483,
  "美术馆": 11484,
  "商贸": 11485,
  "低估": 11486,
  "迈克": 11487,
  "傻@@": 11488,
  "华夏": 11489,
  "税款": 11490,
  "翠@@": 11491,
  "加价": 11492,
  "面子": 11493,
  "借此": 11494,
  "理学": 11495,
  "定量": 11496,
  "侠": 11497,
  "追逐": 11498,
  "引人注目": 11499,
  "蜜@@": 11500,
  "航运": 11501,
  "池@@": 11502,
  "斯坦@@": 11503,
  "〕": 11504,
  "最低工资": 11505,
  "术后": 11506,
  "抬": 11507,
  "开枪": 11508,
  "阳县": 11509,
  "掩@@": 11510,
  "咨询@@": 11511,
  "贷@@": 11512,
  "里程": 11513,
  "昔日": 11514,
  "囚犯": 11515,
  "3.2": 11516,
  "一丝": 11517,
  "概述": 11518,
  "强力": 11519,
  "邓": 11520,
  "极了": 11521,
  "万一": 11522,
  "不服": 11523,
  "罚@@": 11524,
  "合影": 11525,
  "广播网": 11526,
  "国别": 11527,
  "电气": 11528,
  "客户端": 11529,
  "喜剧": 11530,
  "理智": 11531,
  "团长": 11532,
  "裂缝": 11533,
  "原定": 11534,
  "为首": 11535,
  "广汽": 11536,
  "37@@": 11537,
  "保护区": 11538,
  "土地@@": 11539,
  "摄@@": 11540,
  "芝": 11541,
  "解散": 11542,
  "毒性": 11543,
  "深厚": 11544,
  "体操": 11545,
  "勉强": 11546,
  "掌控": 11547,
  "间谍": 11548,
  "拓宽": 11549,
  "账号": 11550,
  "科学研究": 11551,
  "非法@@": 11552,
  "逸": 11553,
  "技": 11554,
  "拳@@": 11555,
  "泛滥": 11556,
  "刹车": 11557,
  "妮@@": 11558,
  "防汛": 11559,
  "苯@@": 11560,
  "海洋@@": 11561,
  "色素": 11562,
  "大笑": 11563,
  "一点儿": 11564,
  "注明": 11565,
  "骏": 11566,
  "门诊": 11567,
  "介@@": 11568,
  "起征点": 11569,
  "真空": 11570,
  "时会": 11571,
  "并处": 11572,
  "拐@@": 11573,
  "表示@@": 11574,
  "氢@@": 11575,
  "痒": 11576,
  "搭档": 11577,
  "炎@@": 11578,
  "螺@@": 11579,
  "兔年": 11580,
  "承载": 11581,
  "右手": 11582,
  "反抗": 11583,
  "运河": 11584,
  "让步": 11585,
  "用车": 11586,
  "场上": 11587,
  "到场": 11588,
  "内存": 11589,
  "公共场所": 11590,
  "委内瑞拉": 11591,
  "商学院": 11592,
  "不下": 11593,
  "收费站": 11594,
  "抵御": 11595,
  "家用": 11596,
  "躲@@": 11597,
  "致富": 11598,
  "通车": 11599,
  "扰乱": 11600,
  "听力": 11601,
  "生殖": 11602,
  "寻常": 11603,
  "哨": 11604,
  "2.7": 11605,
  "芦@@": 11606,
  "耕@@": 11607,
  "或者说": 11608,
  "国旗": 11609,
  "国家海洋局": 11610,
  "1800": 11611,
  "郊": 11612,
  "滞留": 11613,
  "全国人大": 11614,
  "昂": 11615,
  "山东@@": 11616,
  "赞美": 11617,
  "讲解": 11618,
  "党派": 11619,
  "异地": 11620,
  "难点": 11621,
  "可观": 11622,
  "34@@": 11623,
  "弦": 11624,
  "妙": 11625,
  "香水": 11626,
  "豁免": 11627,
  "摔@@": 11628,
  "一出": 11629,
  "魂": 11630,
  "投资@@": 11631,
  "慌@@": 11632,
  "市场竞争": 11633,
  "嘴唇": 11634,
  "滨": 11635,
  "各有": 11636,
  "轴@@": 11637,
  "胸部": 11638,
  "界限": 11639,
  "急救": 11640,
  "警报": 11641,
  "程序@@": 11642,
  "间隔": 11643,
  "〔": 11644,
  "Ⅱ": 11645,
  "科特迪瓦": 11646,
  "卖淫": 11647,
  "迫@@": 11648,
  "杠杆": 11649,
  "期内": 11650,
  "定居": 11651,
  "默多克": 11652,
  "时代@@": 11653,
  "北京市@@": 11654,
  "自发": 11655,
  "卖方": 11656,
  "工作室": 11657,
  "锦标赛": 11658,
  "专案组": 11659,
  "核定": 11660,
  "日摄": 11661,
  "杭州市": 11662,
  "中山": 11663,
  "坊": 11664,
  "建材": 11665,
  "显而易见": 11666,
  "退还": 11667,
  "第九@@": 11668,
  "买方": 11669,
  "目击者": 11670,
  "拦@@": 11671,
  "沉": 11672,
  "投行": 11673,
  "列举": 11674,
  "信访": 11675,
  "难忘": 11676,
  "谈起": 11677,
  "纲": 11678,
  "财力": 11679,
  "代言": 11680,
  "痕": 11681,
  "乌干达": 11682,
  "彩电": 11683,
  "可疑": 11684,
  "轨道交通": 11685,
  "中院": 11686,
  "总公司": 11687,
  "缓@@": 11688,
  "窃听": 11689,
  "资本主义": 11690,
  "不可思议": 11691,
  "难免": 11692,
  "谘询": 11693,
  "年薪": 11694,
  "争执": 11695,
  "扶": 11696,
  "工程处": 11697,
  "违纪": 11698,
  "第一条": 11699,
  "男朋友": 11700,
  "富含": 11701,
  "肺@@": 11702,
  "山寨": 11703,
  "初级": 11704,
  "统计局": 11705,
  "慕@@": 11706,
  "患上": 11707,
  "恐怖分子": 11708,
  "国民@@": 11709,
  "傻": 11710,
  "金砖": 11711,
  "晋级": 11712,
  "轮廓": 11713,
  "一九@@": 11714,
  "今天上午": 11715,
  "界@@": 11716,
  "利润率": 11717,
  "扑": 11718,
  "车位": 11719,
  "鸭": 11720,
  "手套": 11721,
  "租用": 11722,
  "管理中心": 11723,
  "国航": 11724,
  "滑坡": 11725,
  "深圳@@": 11726,
  "屑": 11727,
  "期满": 11728,
  "愈@@": 11729,
  "主帅": 11730,
  "氧化@@": 11731,
  "都市报": 11732,
  "色情": 11733,
  "大牌": 11734,
  "婴幼儿": 11735,
  "潜规则": 11736,
  "反正": 11737,
  "矿物": 11738,
  "尔顿": 11739,
  "央票": 11740,
  "清算": 11741,
  "抬头": 11742,
  "牵头": 11743,
  "下令": 11744,
  "火锅": 11745,
  "惠民": 11746,
  "1982": 11747,
  "力求": 11748,
  "农田": 11749,
  "用药": 11750,
  "标注": 11751,
  "卸@@": 11752,
  "廉洁": 11753,
  "黏@@": 11754,
  "来回": 11755,
  "归还": 11756,
  "滚": 11757,
  "邀": 11758,
  "摄像头": 11759,
  "电磁@@": 11760,
  "免除": 11761,
  "填": 11762,
  "护航": 11763,
  "牢固": 11764,
  "梳理": 11765,
  "固然": 11766,
  "俗@@": 11767,
  "鉴@@": 11768,
  "定为": 11769,
  "悄然": 11770,
  "职业生涯": 11771,
  "设计@@": 11772,
  "天后": 11773,
  "良心": 11774,
  "一经": 11775,
  "摩西": 11776,
  "曼谷": 11777,
  "以防": 11778,
  "懒@@": 11779,
  "人能": 11780,
  "过量": 11781,
  "一员": 11782,
  "捉@@": 11783,
  "电动汽车": 11784,
  "依次": 11785,
  "白俄罗斯": 11786,
  "烈@@": 11787,
  "领导者": 11788,
  "征服": 11789,
  "滋@@": 11790,
  "好几个": 11791,
  "一口气": 11792,
  "奥斯卡": 11793,
  "民政": 11794,
  "嘿": 11795,
  "偏低": 11796,
  "迈": 11797,
  "植@@": 11798,
  "鸿": 11799,
  "特区": 11800,
  "抛": 11801,
  "余人": 11802,
  "105": 11803,
  "滤@@": 11804,
  "衍生": 11805,
  "高点": 11806,
  "深信": 11807,
  "说来": 11808,
  "所知": 11809,
  "吉姆": 11810,
  "卡塔尔": 11811,
  "困@@": 11812,
  "青年@@": 11813,
  "公益性": 11814,
  "市级": 11815,
  "雷斯": 11816,
  "决定性": 11817,
  "词语": 11818,
  "魔": 11819,
  "分流": 11820,
  "动感": 11821,
  "申购": 11822,
  "0.8": 11823,
  "投向": 11824,
  "3.3": 11825,
  "幕后": 11826,
  "寡@@": 11827,
  "养护": 11828,
  "规范化": 11829,
  "腺": 11830,
  "法例": 11831,
  "血压": 11832,
  "西瓜": 11833,
  "干活": 11834,
  "工作日": 11835,
  "直言": 11836,
  "探测器": 11837,
  "胎@@": 11838,
  "卵": 11839,
  "跑步": 11840,
  "片中": 11841,
  "餐桌": 11842,
  "拼命": 11843,
  "操": 11844,
  "火车票": 11845,
  "大涨": 11846,
  "棋@@": 11847,
  "疑似": 11848,
  "指着": 11849,
  "生产者": 11850,
  "糖果": 11851,
  "境界": 11852,
  "中国银行": 11853,
  "群众@@": 11854,
  "IS@@": 11855,
  "总收入": 11856,
  "新任": 11857,
  "潘": 11858,
  "安娜": 11859,
  "占地": 11860,
  "五粮液": 11861,
  "第二章": 11862,
  "中欧": 11863,
  "纳米": 11864,
  "得益于": 11865,
  "无锡": 11866,
  "银行家": 11867,
  "面上": 11868,
  "油耗": 11869,
  "爽": 11870,
  "防空": 11871,
  "固定资产": 11872,
  "阵地": 11873,
  "加固": 11874,
  "敌对": 11875,
  "卷入": 11876,
  "辣@@": 11877,
  "激活": 11878,
  "粮农组织": 11879,
  "控制器": 11880,
  "回头": 11881,
  "嫌疑": 11882,
  "丘": 11883,
  "培": 11884,
  "城堡": 11885,
  "对外开放": 11886,
  "地下水": 11887,
  "复杂性": 11888,
  "品尝": 11889,
  "ch": 11890,
  "珠三角": 11891,
  "对外贸易": 11892,
  "引渡": 11893,
  "大部": 11894,
  "大雾": 11895,
  "布什总统": 11896,
  "怡": 11897,
  "估价": 11898,
  "这台": 11899,
  "用心": 11900,
  "贼": 11901,
  "口语": 11902,
  "锡": 11903,
  "ad": 11904,
  "学术@@": 11905,
  "公信力": 11906,
  "厨@@": 11907,
  "牌子": 11908,
  "重庆晚报": 11909,
  "带头": 11910,
  "摇": 11911,
  "轨迹": 11912,
  "数字化": 11913,
  "变速器": 11914,
  "杂": 11915,
  "重伤": 11916,
  "雯": 11917,
  "地步": 11918,
  "饮水": 11919,
  "污@@": 11920,
  "紫色": 11921,
  "两点": 11922,
  "不吃": 11923,
  "邪恶": 11924,
  "专业化": 11925,
  "大为": 11926,
  "挤压": 11927,
  "ow@@": 11928,
  "总有": 11929,
  "手续费": 11930,
  "净值": 11931,
  "旅游@@": 11932,
  "世博会": 11933,
  "世园": 11934,
  "35.@@": 11935,
  "并用": 11936,
  "本署": 11937,
  "华为": 11938,
  "芯": 11939,
  "无所@@": 11940,
  "猛烈": 11941,
  ".@@": 11942,
  "录用": 11943,
  "红酒": 11944,
  "判定": 11945,
  "大熊猫": 11946,
  "耗": 11947,
  "索取": 11948,
  "集中@@": 11949,
  "夸@@": 11950,
  "亲友": 11951,
  "值班": 11952,
  "配送": 11953,
  "楚": 11954,
  "饶@@": 11955,
  "虚拟@@": 11956,
  "岁@@": 11957,
  "肚@@": 11958,
  "评为": 11959,
  "银行@@": 11960,
  "杀手": 11961,
  "好评": 11962,
  "浪潮": 11963,
  "存量": 11964,
  "呼": 11965,
  "专卖店": 11966,
  "检索": 11967,
  "过时": 11968,
  "细分": 11969,
  "网络游戏": 11970,
  "格林": 11971,
  "劫": 11972,
  "简短": 11973,
  "操控": 11974,
  "港澳": 11975,
  "环境污染": 11976,
  "售出": 11977,
  "铸@@": 11978,
  "好吃": 11979,
  "愈": 11980,
  "糟": 11981,
  "条文": 11982,
  "疲软": 11983,
  "光标": 11984,
  "↓": 11985,
  "阿拉@@": 11986,
  "女童": 11987,
  "过大": 11988,
  "水管": 11989,
  "38@@": 11990,
  "准入": 11991,
  "称呼": 11992,
  "套餐": 11993,
  "族@@": 11994,
  "公爵": 11995,
  "外围": 11996,
  "搜索引擎": 11997,
  "览": 11998,
  "叹": 11999,
  "邦@@": 12000,
  "沾@@": 12001,
  "经济危机": 12002,
  "天内": 12003,
  "过敏": 12004,
  "陈水扁": 12005,
  "唇@@": 12006,
  "救人": 12007,
  "潜艇": 12008,
  "网址": 12009,
  "海拔": 12010,
  "迟": 12011,
  "创造力": 12012,
  "不锈钢": 12013,
  "泄@@": 12014,
  "雅典": 12015,
  "演说": 12016,
  "属实": 12017,
  "垃圾@@": 12018,
  "中秋节": 12019,
  "著作权": 12020,
  "哭泣": 12021,
  "经由": 12022,
  "放开": 12023,
  "走低": 12024,
  "古典": 12025,
  "心目": 12026,
  "天津@@": 12027,
  "高晓松": 12028,
  "大衣": 12029,
  "听证": 12030,
  "PS": 12031,
  "元旦": 12032,
  "进出": 12033,
  "内向": 12034,
  "南京@@": 12035,
  "通风": 12036,
  "特价": 12037,
  "股东大会": 12038,
  "登记@@": 12039,
  "赔@@": 12040,
  "禽流感": 12041,
  "多处": 12042,
  "畅@@": 12043,
  "运输@@": 12044,
  "残忍": 12045,
  "纱": 12046,
  "首尔": 12047,
  "东南部": 12048,
  "当地人": 12049,
  "身心": 12050,
  "多样": 12051,
  "店主": 12052,
  "倍@@": 12053,
  "硬币": 12054,
  "第二十@@": 12055,
  "知名度": 12056,
  "仙": 12057,
  "拱@@": 12058,
  "专业人士": 12059,
  "承包商": 12060,
  "杰克逊": 12061,
  "桃": 12062,
  "产妇": 12063,
  "几点": 12064,
  "这段": 12065,
  "搅@@": 12066,
  "家务": 12067,
  "厨师": 12068,
  "严密": 12069,
  "不良@@": 12070,
  "所能": 12071,
  "地毯": 12072,
  "涌入": 12073,
  "游览": 12074,
  "单个": 12075,
  "棕色": 12076,
  "雕@@": 12077,
  "四川@@": 12078,
  "沿线": 12079,
  "同伴": 12080,
  "王室": 12081,
  "公务用车": 12082,
  "慈@@": 12083,
  "穆": 12084,
  "行为@@": 12085,
  "采矿": 12086,
  "国务卿": 12087,
  "双胞胎": 12088,
  "箭": 12089,
  "轩": 12090,
  "副省长": 12091,
  "保加利亚": 12092,
  "良好@@": 12093,
  "违规行为": 12094,
  "照料": 12095,
  "准时": 12096,
  "喊@@": 12097,
  "时装周": 12098,
  "郑": 12099,
  "饱和": 12100,
  "前行": 12101,
  "时任": 12102,
  "扫": 12103,
  "司法机关": 12104,
  "替@@": 12105,
  "催化剂": 12106,
  "银行贷款": 12107,
  "传真": 12108,
  "除去": 12109,
  "被誉为": 12110,
  "最高人民法院": 12111,
  "高层次": 12112,
  "逼近": 12113,
  "字典": 12114,
  "与众不同": 12115,
  "批发市场": 12116,
  "保卫": 12117,
  "愁": 12118,
  "日志": 12119,
  "呆@@": 12120,
  "0.6": 12121,
  "Ar@@": 12122,
  "波音": 12123,
  "窑": 12124,
  "刷新": 12125,
  "勃@@": 12126,
  "察": 12127,
  "符合@@": 12128,
  "防卫": 12129,
  "书画": 12130,
  "排斥": 12131,
  "网吧": 12132,
  "互信": 12133,
  "簿": 12134,
  "民办": 12135,
  "重启": 12136,
  "大中城市": 12137,
  "ard": 12138,
  "与会者": 12139,
  "失效": 12140,
  "依赖于": 12141,
  "楼房": 12142,
  "退货": 12143,
  "嘴里": 12144,
  "拟议": 12145,
  "绵@@": 12146,
  "来访": 12147,
  "责任@@": 12148,
  "没人": 12149,
  "此刻": 12150,
  "贩运": 12151,
  "ob@@": 12152,
  "舰队": 12153,
  "工信部": 12154,
  "狮@@": 12155,
  "适用房": 12156,
  "廉租": 12157,
  "妇@@": 12158,
  "在意": 12159,
  "发作": 12160,
  "酒后": 12161,
  "阅": 12162,
  "务工人员": 12163,
  "有机@@": 12164,
  "阁": 12165,
  "却@@": 12166,
  "化妆": 12167,
  "政策措施": 12168,
  "棚户区": 12169,
  "登场": 12170,
  "成像": 12171,
  "西装": 12172,
  "踏上": 12173,
  "位列": 12174,
  "参保": 12175,
  "挣钱": 12176,
  "妥善": 12177,
  "1600": 12178,
  "雀@@": 12179,
  "眠": 12180,
  "姑@@": 12181,
  "捞": 12182,
  "失控": 12183,
  "被盗": 12184,
  "分担": 12185,
  "六大": 12186,
  "法律责任": 12187,
  "破获": 12188,
  "烦": 12189,
  "下方": 12190,
  "速率": 12191,
  "魔术": 12192,
  "绒": 12193,
  "理工大学": 12194,
  "法制@@": 12195,
  "纺织品": 12196,
  "施加": 12197,
  "干事": 12198,
  "卵@@": 12199,
  "革新": 12200,
  "101": 12201,
  "相识": 12202,
  "钩": 12203,
  "所涉": 12204,
  "岳": 12205,
  "东方@@": 12206,
  "潭": 12207,
  "腐@@": 12208,
  "海湾": 12209,
  "忍不住": 12210,
  "标的": 12211,
  "受过": 12212,
  "植": 12213,
  "辛": 12214,
  "我爱你": 12215,
  "苹果@@": 12216,
  "联合王国": 12217,
  "值得一提的是": 12218,
  "案子": 12219,
  "莫桑比克": 12220,
  "峰值": 12221,
  "废水": 12222,
  "低保": 12223,
  "航天飞机": 12224,
  "渗@@": 12225,
  "二期": 12226,
  "大有": 12227,
  "合伙": 12228,
  "存货": 12229,
  "尸": 12230,
  "伙伴关系": 12231,
  "用力": 12232,
  "滨@@": 12233,
  "3500": 12234,
  "脚下": 12235,
  "关门": 12236,
  "枢纽": 12237,
  "买下": 12238,
  "毛主席": 12239,
  "接入": 12240,
  "四条": 12241,
  "通讯社": 12242,
  "助学": 12243,
  "峰@@": 12244,
  "枯@@": 12245,
  "刚好": 12246,
  "寂寞": 12247,
  "绞@@": 12248,
  "3.6": 12249,
  "渔民": 12250,
  "高等学校": 12251,
  "中标": 12252,
  "电影院": 12253,
  "水晶": 12254,
  "全面@@": 12255,
  "薄膜": 12256,
  "泰勒": 12257,
  "县政府": 12258,
  "双双": 12259,
  "成品": 12260,
  "布拉@@": 12261,
  "保湿": 12262,
  "减税": 12263,
  "花朵": 12264,
  "肝脏": 12265,
  "村子": 12266,
  "腕表": 12267,
  "梯": 12268,
  "编列": 12269,
  "波特": 12270,
  "同性恋": 12271,
  "概念车": 12272,
  "破发": 12273,
  "一举": 12274,
  "平原": 12275,
  "调查组": 12276,
  "刊物": 12277,
  "返": 12278,
  "堵塞": 12279,
  "守则": 12280,
  "绿地": 12281,
  "因涉嫌": 12282,
  "殖民地": 12283,
  "臭@@": 12284,
  "亿股": 12285,
  "34.@@": 12286,
  "受害": 12287,
  "2.1": 12288,
  "笔记本电脑": 12289,
  "疯@@": 12290,
  "调查报告": 12291,
  "第三章": 12292,
  "羽@@": 12293,
  "排出": 12294,
  "高低": 12295,
  "场馆": 12296,
  "热水": 12297,
  "名片": 12298,
  "捐": 12299,
  "拥": 12300,
  "汀": 12301,
  "乌": 12302,
  "该片": 12303,
  "始于": 12304,
  "询": 12305,
  "阐明": 12306,
  "适量": 12307,
  "狮": 12308,
  "阶段性": 12309,
  "骨干": 12310,
  "可不": 12311,
  "颇@@": 12312,
  "饿": 12313,
  "卑@@": 12314,
  "二线": 12315,
  "发誓": 12316,
  "涵": 12317,
  "采纳": 12318,
  "演示": 12319,
  "跃": 12320,
  "介质": 12321,
  "醉@@": 12322,
  "Le@@": 12323,
  "该案": 12324,
  "海里": 12325,
  "逾期": 12326,
  "地为": 12327,
  "客场": 12328,
  "当做": 12329,
  "徘徊": 12330,
  "歌唱": 12331,
  "微小": 12332,
  "二战": 12333,
  "网店": 12334,
  "模样": 12335,
  "面粉": 12336,
  "扰": 12337,
  "残": 12338,
  "窄": 12339,
  "第二季度": 12340,
  "美德": 12341,
  "人质": 12342,
  "洗澡": 12343,
  "一栋": 12344,
  "罗马尼亚": 12345,
  "礼仪": 12346,
  "全过程": 12347,
  "国务院@@": 12348,
  "双语": 12349,
  "第@@": 12350,
  "壮大": 12351,
  "进驻": 12352,
  "台阶": 12353,
  "依法@@": 12354,
  "中央电视台": 12355,
  "脉冲": 12356,
  "骗子": 12357,
  "并于": 12358,
  "可不是": 12359,
  "紫": 12360,
  "剧中": 12361,
  "PS@@": 12362,
  "豆浆": 12363,
  "胺": 12364,
  "无人@@": 12365,
  "检方": 12366,
  "砍": 12367,
  "审讯": 12368,
  "草根": 12369,
  "寨": 12370,
  "倒塌": 12371,
  "不可或缺": 12372,
  "五十@@": 12373,
  "肤色": 12374,
  "大兴": 12375,
  "丰厚": 12376,
  "比前": 12377,
  "一堆": 12378,
  "CT": 12379,
  "220": 12380,
  "时至": 12381,
  "晋": 12382,
  "烈士": 12383,
  "太过": 12384,
  "1979": 12385,
  "ers": 12386,
  "驻地": 12387,
  "膝盖": 12388,
  "线性": 12389,
  "突发事件": 12390,
  "廉政": 12391,
  "销售收入": 12392,
  "阻挡": 12393,
  "倩": 12394,
  "来得": 12395,
  "原油价格": 12396,
  "━": 12397,
  "裁": 12398,
  "早前": 12399,
  "这支": 12400,
  "扁@@": 12401,
  "微博中": 12402,
  "示范@@": 12403,
  "过境": 12404,
  "毫升": 12405,
  "面对面": 12406,
  "储": 12407,
  "名下": 12408,
  "首度": 12409,
  "遇难者": 12410,
  "去年底": 12411,
  "集资": 12412,
  "闯@@": 12413,
  "金价": 12414,
  "蜡烛": 12415,
  "学子": 12416,
  "营收": 12417,
  "装有": 12418,
  "件@@": 12419,
  "涉": 12420,
  "工商部门": 12421,
  "审视": 12422,
  "逝世": 12423,
  "定性": 12424,
  "粽子": 12425,
  "基点": 12426,
  "束缚": 12427,
  "这时候": 12428,
  "魔法": 12429,
  "已成": 12430,
  "mp@@": 12431,
  "凭@@": 12432,
  "冈": 12433,
  "新品": 12434,
  "内部@@": 12435,
  "够@@": 12436,
  "初始": 12437,
  "复古": 12438,
  "专题@@": 12439,
  "顶部": 12440,
  "受审": 12441,
  "短语": 12442,
  "放进": 12443,
  "烫": 12444,
  "无法@@": 12445,
  "解放军": 12446,
  "成都市": 12447,
  "东北@@": 12448,
  "犹@@": 12449,
  "岗@@": 12450,
  "本能": 12451,
  "发光": 12452,
  "舱@@": 12453,
  "身子": 12454,
  "体育馆": 12455,
  "限量": 12456,
  "不通": 12457,
  "反腐": 12458,
  "开头": 12459,
  "淑@@": 12460,
  "维和": 12461,
  "正值": 12462,
  "琼斯": 12463,
  "悉尼": 12464,
  "品位": 12465,
  "嘴@@": 12466,
  "交通工具": 12467,
  "禁区": 12468,
  "广泛应用": 12469,
  "民调": 12470,
  "排量": 12471,
  "祝愿": 12472,
  "55@@": 12473,
  "讲习": 12474,
  "盘子": 12475,
  "排水": 12476,
  "压制": 12477,
  "近代": 12478,
  "劳务": 12479,
  "西北部": 12480,
  "启发": 12481,
  "危": 12482,
  "新生儿": 12483,
  "绘制": 12484,
  "堤": 12485,
  "公司@@": 12486,
  "废墟": 12487,
  "账单": 12488,
  "世界卫生组织": 12489,
  "骗取": 12490,
  "卡片": 12491,
  "夏日": 12492,
  "趟": 12493,
  "来信": 12494,
  "改良": 12495,
  "昨天上午": 12496,
  "熏@@": 12497,
  "Z": 12498,
  "反击": 12499,
  "绳子": 12500,
  "马德里": 12501,
  "平息": 12502,
  "贸": 12503,
  "沙滩": 12504,
  "疗": 12505,
  "深切": 12506,
  "口碑": 12507,
  "尼克": 12508,
  "开销": 12509,
  "换句话说": 12510,
  "坑@@": 12511,
  "营地": 12512,
  "远处": 12513,
  "非政府": 12514,
  "余万元": 12515,
  "动性": 12516,
  "调试": 12517,
  "摆放": 12518,
  "二十年": 12519,
  "飓风": 12520,
  "历来": 12521,
  "奴": 12522,
  "共产党员": 12523,
  "签发": 12524,
  "响@@": 12525,
  "序@@": 12526,
  "塞浦路斯": 12527,
  "返还": 12528,
  "茜": 12529,
  "斯坦": 12530,
  "渔船": 12531,
  "雨雪": 12532,
  "贺": 12533,
  "大鼠": 12534,
  "政绩": 12535,
  "秘@@": 12536,
  "万达": 12537,
  "神舟": 12538,
  "恰@@": 12539,
  "打扰": 12540,
  "创新能力": 12541,
  "瓣": 12542,
  "假装": 12543,
  "二十": 12544,
  "高企": 12545,
  "耕": 12546,
  "48@@": 12547,
  "大纲": 12548,
  "燃气": 12549,
  "献": 12550,
  "CD": 12551,
  "克拉": 12552,
  "取向": 12553,
  "亡@@": 12554,
  "面料": 12555,
  "害@@": 12556,
  "恋@@": 12557,
  "GPS": 12558,
  "无知": 12559,
  "矮": 12560,
  "祖父": 12561,
  "陈某": 12562,
  "霸": 12563,
  "婆": 12564,
  "反腐败": 12565,
  "长寿": 12566,
  "竞技": 12567,
  "渴": 12568,
  "摩洛哥": 12569,
  "美联社": 12570,
  "双向": 12571,
  "剪": 12572,
  "咳嗽": 12573,
  "潮湿": 12574,
  "45@@": 12575,
  "需求量": 12576,
  "不定": 12577,
  "240": 12578,
  "章程": 12579,
  "用人": 12580,
  "揭@@": 12581,
  "冰冻": 12582,
  "所示": 12583,
  "远洋": 12584,
  "反腐倡廉": 12585,
  "婚前": 12586,
  "医改": 12587,
  "纹@@": 12588,
  "十二月": 12589,
  "选取": 12590,
  "胶囊": 12591,
  "情节严重": 12592,
  "产业结构": 12593,
  "地质@@": 12594,
  "ha@@": 12595,
  "恶心": 12596,
  "握手": 12597,
  "汉族": 12598,
  "俯@@": 12599,
  "犹豫": 12600,
  "躲避": 12601,
  "串": 12602,
  "公安@@": 12603,
  "转动": 12604,
  "安全监管": 12605,
  "尾巴": 12606,
  "丑": 12607,
  "一九九@@": 12608,
  "不断扩大": 12609,
  "屡@@": 12610,
  "弱点": 12611,
  "450": 12612,
  "起码": 12613,
  "衰老": 12614,
  "两国关系": 12615,
  "虾": 12616,
  "元件": 12617,
  "参考@@": 12618,
  "未知": 12619,
  "运费": 12620,
  "中称": 12621,
  "不动产": 12622,
  "冈@@": 12623,
  "洁净": 12624,
  "蓉": 12625,
  "厌恶": 12626,
  "一词": 12627,
  "时要": 12628,
  "犯罪@@": 12629,
  "旦": 12630,
  "层层": 12631,
  "精神病": 12632,
  "束@@": 12633,
  "八月": 12634,
  "曼联": 12635,
  "切断": 12636,
  "刻意": 12637,
  "理论@@": 12638,
  "重点@@": 12639,
  "信用证": 12640,
  "探访": 12641,
  "挪@@": 12642,
  "落下": 12643,
  "华南": 12644,
  "求解": 12645,
  "链条": 12646,
  "垫@@": 12647,
  "普尔": 12648,
  "棵": 12649,
  "主席团": 12650,
  "限定": 12651,
  "实名": 12652,
  "高贵": 12653,
  "遣返": 12654,
  "貌": 12655,
  "拐": 12656,
  "复出": 12657,
  "嘲笑": 12658,
  "z": 12659,
  "睁@@": 12660,
  "眉": 12661,
  "售后服务": 12662,
  "镀@@": 12663,
  "土地出让": 12664,
  "留下来": 12665,
  "尤": 12666,
  "饱受": 12667,
  "初衷": 12668,
  "人性化": 12669,
  "空缺": 12670,
  "举止": 12671,
  "艾伦": 12672,
  "新生代": 12673,
  "多为": 12674,
  "湖泊": 12675,
  "检查@@": 12676,
  "挡@@": 12677,
  "现实生活": 12678,
  "侵蚀": 12679,
  "纪念馆": 12680,
  "首家": 12681,
  "3.0": 12682,
  "支柱": 12683,
  "并称": 12684,
  "恋情": 12685,
  "仅次于": 12686,
  "只得": 12687,
  "魔鬼": 12688,
  "海面": 12689,
  "元首": 12690,
  "旅游局": 12691,
  "梨": 12692,
  "一波": 12693,
  "任用": 12694,
  "摩根": 12695,
  "千瓦": 12696,
  "红利": 12697,
  "编剧": 12698,
  "帮扶": 12699,
  "走红": 12700,
  "武装部队": 12701,
  "电子产品": 12702,
  "篇文章": 12703,
  "香味": 12704,
  "接管": 12705,
  "晴@@": 12706,
  "服役": 12707,
  "佩戴": 12708,
  "海峡两岸": 12709,
  "伟业": 12710,
  "捕": 12711,
  "西安市": 12712,
  "分支": 12713,
  "修饰": 12714,
  "创伤": 12715,
  "章子怡": 12716,
  "立足": 12717,
  "改组": 12718,
  "中非": 12719,
  "夺": 12720,
  "百元": 12721,
  "铅@@": 12722,
  "经济衰退": 12723,
  "胡子": 12724,
  "科比": 12725,
  "为民": 12726,
  "老太太": 12727,
  "ud@@": 12728,
  "室@@": 12729,
  "越过": 12730,
  "二月": 12731,
  "国际金融报": 12732,
  "孤立": 12733,
  "基础@@": 12734,
  "已知": 12735,
  "鸟类": 12736,
  "尝@@": 12737,
  "治愈": 12738,
  "柱@@": 12739,
  "深感": 12740,
  "丰收": 12741,
  "经受": 12742,
  "快点": 12743,
  "客观@@": 12744,
  "优异": 12745,
  "尼斯": 12746,
  "man": 12747,
  "法新社": 12748,
  "之心": 12749,
  "夺取": 12750,
  "捍卫": 12751,
  "淹没": 12752,
  "初次": 12753,
  "出入": 12754,
  "不论是": 12755,
  "盟": 12756,
  "指明": 12757,
  "贴近": 12758,
  "无条件": 12759,
  "首歌": 12760,
  "特质": 12761,
  "人身": 12762,
  "模板": 12763,
  "做饭": 12764,
  "转入": 12765,
  "变迁": 12766,
  "000@@": 12767,
  "赛后": 12768,
  "残留": 12769,
  "天线": 12770,
  "凑@@": 12771,
  "矿工": 12772,
  "塑料@@": 12773,
  "单方面": 12774,
  "天津市": 12775,
  "前沿": 12776,
  "第八@@": 12777,
  "切尔西": 12778,
  "访问@@": 12779,
  "高跟鞋": 12780,
  "审判@@": 12781,
  "外援": 12782,
  "者@@": 12783,
  "揭露": 12784,
  "人寿": 12785,
  "一旁": 12786,
  "下表": 12787,
  "腿@@": 12788,
  "营业执照": 12789,
  "增收": 12790,
  "岛上": 12791,
  "国土资源": 12792,
  "长者": 12793,
  "包装@@": 12794,
  "3.8": 12795,
  "分辨率": 12796,
  "布鲁塞尔": 12797,
  "责@@": 12798,
  "新界": 12799,
  "良性": 12800,
  "放假": 12801,
  "囊@@": 12802,
  "海边": 12803,
  "白人": 12804,
  "七成": 12805,
  "居高不下": 12806,
  "何处": 12807,
  "北极": 12808,
  "建委": 12809,
  "惟一": 12810,
  "其一": 12811,
  "罢了": 12812,
  "湘": 12813,
  "犯下": 12814,
  "公开市场": 12815,
  "替换": 12816,
  "检察": 12817,
  "劫持": 12818,
  "激起": 12819,
  "46@@": 12820,
  "否决": 12821,
  "口气": 12822,
  "厂房": 12823,
  "0.7": 12824,
  "闫@@": 12825,
  "跑道": 12826,
  "具体情况": 12827,
  "社团": 12828,
  "西非": 12829,
  "欣慰": 12830,
  "改制": 12831,
  "推高": 12832,
  "』": 12833,
  "在此之前": 12834,
  "靴": 12835,
  "角度看": 12836,
  "退化": 12837,
  "大力支持": 12838,
  "嘉莉": 12839,
  "假定": 12840,
  "政协委员": 12841,
  "旺@@": 12842,
  "蒸发": 12843,
  "举例": 12844,
  "生前": 12845,
  "申请书": 12846,
  "果断": 12847,
  "超声": 12848,
  "寸": 12849,
  "势必": 12850,
  "明确提出": 12851,
  "逃犯": 12852,
  "涂料": 12853,
  "官网": 12854,
  "会否": 12855,
  "对口": 12856,
  "体力": 12857,
  "中学生": 12858,
  "归属": 12859,
  "贸发": 12860,
  "回报率": 12861,
  "教导": 12862,
  "信中": 12863,
  "赶快": 12864,
  "华商": 12865,
  "第四章": 12866,
  "暂": 12867,
  "恒星": 12868,
  "高官": 12869,
  "发力": 12870,
  "行业协会": 12871,
  "筑": 12872,
  "祭司": 12873,
  "预备": 12874,
  "献血": 12875,
  "阳台": 12876,
  "肯德基": 12877,
  "OS": 12878,
  "促请": 12879,
  "尝": 12880,
  "零零": 12881,
  "教育厅": 12882,
  "猜想": 12883,
  "多功能": 12884,
  "科普": 12885,
  "讯息": 12886,
  "误区": 12887,
  "工作岗位": 12888,
  "仇@@": 12889,
  "管理条例": 12890,
  "收费公路": 12891,
  "精灵": 12892,
  "轴承": 12893,
  "热销": 12894,
  "前锋": 12895,
  "感知": 12896,
  "am": 12897,
  "47@@": 12898,
  "光纤": 12899,
  "击毙": 12900,
  "婷": 12901,
  "过往": 12902,
  "出游": 12903,
  "破碎": 12904,
  "猜@@": 12905,
  "阴谋": 12906,
  "填报": 12907,
  "今年年底": 12908,
  "疑虑": 12909,
  "录制": 12910,
  "淋@@": 12911,
  "II": 12912,
  "矮@@": 12913,
  "斥": 12914,
  "遥@@": 12915,
  "上台": 12916,
  "缓": 12917,
  "艰辛": 12918,
  "触": 12919,
  "不力": 12920,
  "看成": 12921,
  "大夫": 12922,
  "天气预报": 12923,
  "特设": 12924,
  "外资企业": 12925,
  "认出": 12926,
  "快要": 12927,
  "机密": 12928,
  "赠@@": 12929,
  "处处": 12930,
  "千人": 12931,
  "猴子": 12932,
  "海内外": 12933,
  "歌声": 12934,
  "屏@@": 12935,
  "垮": 12936,
  "商机": 12937,
  "抵消": 12938,
  "有助": 12939,
  "起源": 12940,
  "脉@@": 12941,
  "上衣": 12942,
  "两张": 12943,
  "劫@@": 12944,
  "芭@@": 12945,
  "蒸汽": 12946,
  "老大": 12947,
  "侮辱": 12948,
  "不断@@": 12949,
  "36.@@": 12950,
  "矩阵": 12951,
  "一圈": 12952,
  "横": 12953,
  "穴": 12954,
  "文职": 12955,
  "城乡居民": 12956,
  "收养": 12957,
  "景色": 12958,
  "国八条": 12959,
  "高峰期": 12960,
  "AN@@": 12961,
  "高手": 12962,
  "两党": 12963,
  "中小学生": 12964,
  "在校": 12965,
  "赶来": 12966,
  "标明": 12967,
  "古怪": 12968,
  "拿来": 12969,
  "牛仔裤": 12970,
  "有所不同": 12971,
  "私": 12972,
  "力气": 12973,
  "羊肉": 12974,
  "带回": 12975,
  "献给": 12976,
  "消息人士": 12977,
  "审慎": 12978,
  "焊@@": 12979,
  "社会福利": 12980,
  "109": 12981,
  "副作用": 12982,
  "皇马": 12983,
  "闭": 12984,
  "中间@@": 12985,
  "抽查": 12986,
  "选择性": 12987,
  "出名": 12988,
  "注册资本": 12989,
  "费率": 12990,
  "只见": 12991,
  "at": 12992,
  "第三届": 12993,
  "身处": 12994,
  "安心": 12995,
  "排放量": 12996,
  "金融体系": 12997,
  "预防性": 12998,
  "逼@@": 12999,
  "想像": 13000,
  "岸@@": 13001,
  "露面": 13002,
  "固体": 13003,
  "出事": 13004,
  "1300": 13005,
  "犯人": 13006,
  "叶子": 13007,
  "贫困地区": 13008,
  "变相": 13009,
  "甘": 13010,
  "巴格达": 13011,
  "滑雪": 13012,
  "IC": 13013,
  "功能@@": 13014,
  "饰@@": 13015,
  "向来": 13016,
  "中小板": 13017,
  "歌迷": 13018,
  "打动": 13019,
  "推向": 13020,
  "39.@@": 13021,
  "我用": 13022,
  "赵薇": 13023,
  "旱@@": 13024,
  "见义勇为": 13025,
  "增量": 13026,
  "连同": 13027,
  "合法性": 13028,
  "瑟@@": 13029,
  "工委": 13030,
  "撞击": 13031,
  "激增": 13032,
  "这篇": 13033,
  "里程碑": 13034,
  "科研@@": 13035,
  "海淀区": 13036,
  "亿港元": 13037,
  "柴": 13038,
  "驱逐": 13039,
  "侯": 13040,
  "乒乓球": 13041,
  "创先争优": 13042,
  "主机": 13043,
  "切割": 13044,
  "房东": 13045,
  "本轮": 13046,
  "饲养": 13047,
  "金融时报": 13048,
  "埃塞俄比亚": 13049,
  "沿岸": 13050,
  "125": 13051,
  "麟": 13052,
  "疲@@": 13053,
  "做生意": 13054,
  "铁路局": 13055,
  "会费": 13056,
  "惠普": 13057,
  "茅台酒": 13058,
  "醒@@": 13059,
  "陈先生": 13060,
  "击中": 13061,
  "辩@@": 13062,
  "连任": 13063,
  "蛇@@": 13064,
  "领导@@": 13065,
  "愚@@": 13066,
  "夸大": 13067,
  "停下": 13068,
  "乐器": 13069,
  "技术创新": 13070,
  "常务": 13071,
  "盟约": 13072,
  "中信": 13073,
  "驰@@": 13074,
  "乳业": 13075,
  "妆@@": 13076,
  "11@@": 13077,
  "中美关系": 13078,
  "后卫": 13079,
  "溶液": 13080,
  "奴隶": 13081,
  "趁": 13082,
  "if@@": 13083,
  "推介": 13084,
  "俄国": 13085,
  "刑罚": 13086,
  "名誉": 13087,
  "受访": 13088,
  "法国人": 13089,
  "龚@@": 13090,
  "响起": 13091,
  "赏": 13092,
  "抛售": 13093,
  "地形": 13094,
  "核对": 13095,
  "火热": 13096,
  "字符": 13097,
  "抽象": 13098,
  "微妙": 13099,
  "益处": 13100,
  "起伏": 13101,
  "遇@@": 13102,
  "十七届": 13103,
  "袖@@": 13104,
  "店员": 13105,
  "用户@@": 13106,
  "辞去": 13107,
  "巨星": 13108,
  "盲@@": 13109,
  "文凭": 13110,
  "未有": 13111,
  "外交官": 13112,
  "降临": 13113,
  "上文": 13114,
  "送来": 13115,
  "宽度": 13116,
  "高尚": 13117,
  "细胞@@": 13118,
  "生态@@": 13119,
  "逛": 13120,
  "万余@@": 13121,
  "大众@@": 13122,
  "之争": 13123,
  "全国人民代表大会": 13124,
  "一味": 13125,
  "文物保护": 13126,
  "中央银行": 13127,
  "互助": 13128,
  "文化交流": 13129,
  "地表": 13130,
  "中美洲": 13131,
  "Twitter": 13132,
  "无须": 13133,
  "基数": 13134,
  "津@@": 13135,
  "#": 13136,
  "态@@": 13137,
  "浇@@": 13138,
  "邮箱": 13139,
  "整齐": 13140,
  "经委": 13141,
  "纽约时报": 13142,
  "中国联通": 13143,
  "通话": 13144,
  "萧条": 13145,
  "主打": 13146,
  "寿": 13147,
  "董": 13148,
  "同级": 13149,
  "冷漠": 13150,
  "可吸入颗粒物": 13151,
  "叠": 13152,
  "动车": 13153,
  "建华": 13154,
  "乘用车": 13155,
  "Car@@": 13156,
  "行动计划": 13157,
  "绯闻": 13158,
  "动车组": 13159,
  "赛车": 13160,
  "油画": 13161,
  "晕": 13162,
  "承包@@": 13163,
  "变暖": 13164,
  "ill@@": 13165,
  "坚定不移": 13166,
  "女郎": 13167,
  "乙烯": 13168,
  "舞会": 13169,
  "低成本": 13170,
  "祖先": 13171,
  "雕像": 13172,
  "鼠标": 13173,
  "副教授": 13174,
  "补救": 13175,
  "姜": 13176,
  "鹤": 13177,
  "爽@@": 13178,
  "商讨": 13179,
  "牲畜": 13180,
  "种族隔离": 13181,
  "频发": 13182,
  "乞讨": 13183,
  "eb@@": 13184,
  "仔@@": 13185,
  "跨界": 13186,
  "浮": 13187,
  "膝": 13188,
  "党员干部": 13189,
  "编程": 13190,
  "真实性": 13191,
  "妇人": 13192,
  "一小": 13193,
  "符合条件": 13194,
  "勘查": 13195,
  "境地": 13196,
  "规矩": 13197,
  "『": 13198,
  "盘中": 13199,
  "触及": 13200,
  "庇护": 13201,
  "丹尼尔": 13202,
  "重重": 13203,
  "打交道": 13204,
  "会议室": 13205,
  "畅销": 13206,
  "关键技术": 13207,
  "乃": 13208,
  "向往": 13209,
  "潘基文": 13210,
  "新低": 13211,
  "恐怖袭击": 13212,
  "瓶子": 13213,
  "就业机会": 13214,
  "风气": 13215,
  "楼下": 13216,
  "想过": 13217,
  "商界": 13218,
  "之势": 13219,
  "瓷器": 13220,
  "齿@@": 13221,
  "覆": 13222,
  "首饰": 13223,
  "炸": 13224,
  "铭@@": 13225,
  "发行价": 13226,
  "郑州市": 13227,
  "肠道": 13228,
  "海外版": 13229,
  "忙于": 13230,
  "督@@": 13231,
  "并发症": 13232,
  "伍": 13233,
  "色调": 13234,
  "保值": 13235,
  "37.@@": 13236,
  "果然": 13237,
  "独立@@": 13238,
  "第二期": 13239,
  "公立医院": 13240,
  "意识形态": 13241,
  "藤": 13242,
  "附加费": 13243,
  "规例": 13244,
  "美分": 13245,
  "头顶": 13246,
  "外籍": 13247,
  "晕@@": 13248,
  "108": 13249,
  "无视": 13250,
  "物料": 13251,
  "爆出": 13252,
  "鸭@@": 13253,
  "隐形": 13254,
  "而后": 13255,
  "最先": 13256,
  "严谨": 13257,
  "必定": 13258,
  "帐@@": 13259,
  "300@@": 13260,
  "了不起": 13261,
  "投保": 13262,
  "陶": 13263,
  "劣@@": 13264,
  "饮@@": 13265,
  "甜美": 13266,
  "生活费": 13267,
  "难受": 13268,
  "发挥作用": 13269,
  "卧": 13270,
  "号称": 13271,
  "邻近": 13272,
  "禽@@": 13273,
  "树枝": 13274,
  "便会": 13275,
  "炭": 13276,
  "碧桂园": 13277,
  "小S": 13278,
  "掩饰": 13279,
  "时节": 13280,
  "盈@@": 13281,
  "电煤": 13282,
  "涅@@": 13283,
  "最高法院": 13284,
  "游艇": 13285,
  "奎@@": 13286,
  "女演员": 13287,
  "浓缩": 13288,
  "鼎": 13289,
  "瓷": 13290,
  "代理商": 13291,
  "佛教": 13292,
  "录@@": 13293,
  "红包": 13294,
  "句@@": 13295,
  "手持": 13296,
  "沈": 13297,
  "村委会": 13298,
  "集群": 13299,
  "贩毒": 13300,
  "浦": 13301,
  "渤海": 13302,
  "嫌犯": 13303,
  "语气": 13304,
  "革@@": 13305,
  "总面积": 13306,
  "号楼": 13307,
  "不惜": 13308,
  "不懈": 13309,
  "防灾": 13310,
  "国强": 13311,
  "浴室": 13312,
  "周杰伦": 13313,
  "方向盘": 13314,
  "改编": 13315,
  "反倾销": 13316,
  "装配": 13317,
  "总能": 13318,
  "新农": 13319,
  "孕@@": 13320,
  "中共@@": 13321,
  "新盘": 13322,
  "黄瓜": 13323,
  "几分": 13324,
  "参": 13325,
  "哈萨克斯坦": 13326,
  "相关性": 13327,
  "幸福感": 13328,
  "以南": 13329,
  "柔和": 13330,
  "室外": 13331,
  "粗糙": 13332,
  "委任": 13333,
  "档次": 13334,
  "尔特": 13335,
  "实实在在": 13336,
  "援助团": 13337,
  "tr@@": 13338,
  "cn": 13339,
  "一角": 13340,
  "顺便": 13341,
  "低廉": 13342,
  "模具": 13343,
  "积水": 13344,
  "光芒": 13345,
  "il": 13346,
  "荷": 13347,
  "典范": 13348,
  "复旦大学": 13349,
  "邮寄": 13350,
  "偶": 13351,
  "品味": 13352,
  "打断": 13353,
  "党史": 13354,
  "皮革": 13355,
  "颈@@": 13356,
  "女主角": 13357,
  "恐龙": 13358,
  "案情": 13359,
  "青海省": 13360,
  "古城": 13361,
  "作弊": 13362,
  "乳腺癌": 13363,
  "上前": 13364,
  "SO@@": 13365,
  "细心": 13366,
  "批判": 13367,
  "中队": 13368,
  "叫停": 13369,
  "雕刻": 13370,
  "事迹": 13371,
  "功课": 13372,
  "新春": 13373,
  "还好": 13374,
  "磷": 13375,
  "双眼": 13376,
  "克隆": 13377,
  "IP@@": 13378,
  "粒@@": 13379,
  "缘故": 13380,
  "气象台": 13381,
  "标志性": 13382,
  "懒": 13383,
  "晚饭": 13384,
  "详尽": 13385,
  "电报": 13386,
  "界线": 13387,
  "茨@@": 13388,
  "自然保护区": 13389,
  "巢@@": 13390,
  "身旁": 13391,
  "今天下午": 13392,
  "彦@@": 13393,
  "乃@@": 13394,
  "中是": 13395,
  "未曾": 13396,
  "分量": 13397,
  "朵": 13398,
  "嫉妒": 13399,
  "磨损": 13400,
  "用法": 13401,
  "瘦身": 13402,
  "鸟儿": 13403,
  "执业": 13404,
  "时限": 13405,
  "该店": 13406,
  "脸色": 13407,
  "最强": 13408,
  "狂热": 13409,
  "求婚": 13410,
  "民政部": 13411,
  "安检": 13412,
  "颠覆": 13413,
  "肖": 13414,
  "哲@@": 13415,
  "见解": 13416,
  "供热": 13417,
  "起身": 13418,
  "摔": 13419,
  "可否": 13420,
  "分支机构": 13421,
  "液晶电视": 13422,
  "矿井": 13423,
  "巷": 13424,
  "溢价": 13425,
  "做起": 13426,
  "抢购": 13427,
  "扩建": 13428,
  "营业税": 13429,
  "1.9": 13430,
  "就医": 13431,
  "默认": 13432,
  "文化部": 13433,
  "面膜": 13434,
  "新闻媒体": 13435,
  "窗外": 13436,
  "批复": 13437,
  "妻@@": 13438,
  "乃是": 13439,
  "控件": 13440,
  "服务体系": 13441,
  "乾@@": 13442,
  "骚扰": 13443,
  "勤奋": 13444,
  "悠@@": 13445,
  "上浮": 13446,
  "自首": 13447,
  "水利@@": 13448,
  "胆固醇": 13449,
  "布雷": 13450,
  "进食": 13451,
  "沉积": 13452,
  "199@@": 13453,
  "悔@@": 13454,
  "著@@": 13455,
  "秘诀": 13456,
  "畔": 13457,
  "决策者": 13458,
  "涂抹": 13459,
  "构": 13460,
  "珍珠": 13461,
  "龙湖": 13462,
  "电力@@": 13463,
  "浙江@@": 13464,
  "有无": 13465,
  "接种": 13466,
  "口腔": 13467,
  "硅": 13468,
  "集装箱": 13469,
  "体育场": 13470,
  "幻@@": 13471,
  "麦当劳": 13472,
  "避险": 13473,
  "静态": 13474,
  "翁": 13475,
  "食盐": 13476,
  "本案": 13477,
  "新规": 13478,
  "oc@@": 13479,
  "畸形": 13480,
  "无情": 13481,
  "婆@@": 13482,
  "成型": 13483,
  "祷告": 13484,
  "点半": 13485,
  "舌@@": 13486,
  "龄@@": 13487,
  "翼@@": 13488,
  "株": 13489,
  "平日": 13490,
  "停滞": 13491,
  "议论": 13492,
  "霖": 13493,
  "红外": 13494,
  "咖啡@@": 13495,
  "小车": 13496,
  "网格": 13497,
  "永久性": 13498,
  "审计署": 13499,
  "道路交通": 13500,
  "问问": 13501,
  "可乐": 13502,
  "土著": 13503,
  "两类": 13504,
  "私下": 13505,
  "惊": 13506,
  "身价": 13507,
  "加密": 13508,
  "训@@": 13509,
  "泪水": 13510,
  "听听": 13511,
  "能为": 13512,
  "邮报": 13513,
  "闪电": 13514,
  "多条": 13515,
  "碑": 13516,
  "首款": 13517,
  "笔记": 13518,
  "乱象": 13519,
  "38.@@": 13520,
  "泥石流": 13521,
  "ER@@": 13522,
  "七条": 13523,
  "搭乘": 13524,
  "转载": 13525,
  "IN@@": 13526,
  "写出": 13527,
  "患病": 13528,
  "升起": 13529,
  "矿产": 13530,
  "横向": 13531,
  "柜@@": 13532,
  "此处": 13533,
  "内衣": 13534,
  "光电": 13535,
  "BS": 13536,
  "打败": 13537,
  "索引": 13538,
  "宿": 13539,
  "获益": 13540,
  "平均@@": 13541,
  "博会": 13542,
  "房屋@@": 13543,
  "山顶": 13544,
  "煤电": 13545,
  "鹤@@": 13546,
  "冰雪": 13547,
  "头衔": 13548,
  "邻": 13549,
  "转而": 13550,
  "树上": 13551,
  "子宫": 13552,
  "榜单": 13553,
  "中小型": 13554,
  "涝": 13555,
  "亏@@": 13556,
  "棋": 13557,
  "大蒜": 13558,
  "构想": 13559,
  "发电机": 13560,
  "歇": 13561,
  "诱导": 13562,
  "穆巴拉克": 13563,
  "整洁": 13564,
  "高等": 13565,
  "庄严": 13566,
  "一趟": 13567,
  "酸奶": 13568,
  "套数": 13569,
  "政客": 13570,
  "余地": 13571,
  "名声": 13572,
  "年份": 13573,
  "定罪": 13574,
  "深层": 13575,
  "劣": 13576,
  "消": 13577,
  "低端": 13578,
  "权重": 13579,
  "江湖": 13580,
  "决算": 13581,
  "TV": 13582,
  "绣": 13583,
  "相符": 13584,
  "疲惫": 13585,
  "恢复@@": 13586,
  "期权": 13587,
  "出庭": 13588,
  "出院": 13589,
  "不仅如此": 13590,
  "拍戏": 13591,
  "个人信息": 13592,
  "静脉": 13593,
  "专利@@": 13594,
  "阵线": 13595,
  "10000": 13596,
  "理应": 13597,
  "县委书记": 13598,
  "校方": 13599,
  "制剂": 13600,
  "退市": 13601,
  "笑声": 13602,
  "饱@@": 13603,
  "当月": 13604,
  "抑郁": 13605,
  "配有": 13606,
  "命题": 13607,
  "酮": 13608,
  "虑": 13609,
  "摩根士丹利": 13610,
  "时分": 13611,
  "不许": 13612,
  "庆典": 13613,
  "保费": 13614,
  "照射": 13615,
  "成龙": 13616,
  "巡查": 13617,
  "榜首": 13618,
  "平行": 13619,
  "党政": 13620,
  "甩@@": 13621,
  "鉴别": 13622,
  "凶手": 13623,
  "强烈@@": 13624,
  "骑士": 13625,
  "一整天": 13626,
  "一侧": 13627,
  "回调": 13628,
  "毁@@": 13629,
  "金银": 13630,
  "善意": 13631,
  "淀粉": 13632,
  "个子": 13633,
  "醒目": 13634,
  "洲@@": 13635,
  "百货": 13636,
  "荧光": 13637,
  "组装": 13638,
  "安全感": 13639,
  "高品质": 13640,
  "迪士尼": 13641,
  "地去": 13642,
  "偏离": 13643,
  "书中": 13644,
  "想象力": 13645,
  "工作队": 13646,
  "右边": 13647,
  "换取": 13648,
  "综@@": 13649,
  "物价局": 13650,
  "重金属": 13651,
  "北海": 13652,
  "侦破": 13653,
  "西湖": 13654,
  "敷@@": 13655,
  "年收入": 13656,
  "跪": 13657,
  "不好意思": 13658,
  "专栏": 13659,
  "靖@@": 13660,
  "保持@@": 13661,
  "忽@@": 13662,
  "不来": 13663,
  "违@@": 13664,
  "越是": 13665,
  "煮@@": 13666,
  "约翰逊": 13667,
  "浦东": 13668,
  "引爆": 13669,
  "享用": 13670,
  "办公楼": 13671,
  "观赏": 13672,
  "钠": 13673,
  "重大@@": 13674,
  "深层次": 13675,
  "犯罪分子": 13676,
  "口中": 13677,
  "环保局": 13678,
  "1400": 13679,
  "浑@@": 13680,
  "吻合": 13681,
  "乐于": 13682,
  "访华": 13683,
  "反响": 13684,
  "比喻": 13685,
  "手机@@": 13686,
  "固有": 13687,
  "爵": 13688,
  "拉加": 13689,
  "姐@@": 13690,
  "邮政局": 13691,
  "卫生间": 13692,
  "流动人口": 13693,
  "一连串": 13694,
  "开着": 13695,
  "幢": 13696,
  "炎热": 13697,
  "脸部": 13698,
  "流畅": 13699,
  "没关系": 13700,
  "萌": 13701,
  "公共交通": 13702,
  "戴着": 13703,
  "会议@@": 13704,
  "触摸": 13705,
  "尼泊尔": 13706,
  "提振": 13707,
  "电邮": 13708,
  "io": 13709,
  "果实": 13710,
  "母公司": 13711,
  "诱发": 13712,
  "北京地区": 13713,
  "比上": 13714,
  "坚固": 13715,
  "而定": 13716,
  "弧@@": 13717,
  "荣获": 13718,
  "厄@@": 13719,
  "发扬": 13720,
  "中科院": 13721,
  "撰文": 13722,
  "判刑": 13723,
  "较长": 13724,
  "在售": 13725,
  "酷刑": 13726,
  "菲尔德": 13727,
  "不公": 13728,
  "压迫": 13729,
  "更长": 13730,
  "纸张": 13731,
  "长途@@": 13732,
  "一大@@": 13733,
  "数字@@": 13734,
  "草坪": 13735,
  "光谱": 13736,
  "慎重": 13737,
  "省委常委": 13738,
  "长官": 13739,
  "织物": 13740,
  "钗": 13741,
  "如实": 13742,
  "生存@@": 13743,
  "好玩": 13744,
  "国有资产": 13745,
  "放贷": 13746,
  "奔腾": 13747,
  "尚无": 13748,
  "102": 13749,
  "尾部": 13750,
  "驳回": 13751,
  "点多": 13752,
  "存活": 13753,
  "河道": 13754,
  "辱": 13755,
  "来往": 13756,
  "口感": 13757,
  "115": 13758,
  "不至于": 13759,
  "法学": 13760,
  "销售价格": 13761,
  "日程": 13762,
  "显示屏": 13763,
  "第一届": 13764,
  "怎么回事": 13765,
  "媳妇": 13766,
  "腊@@": 13767,
  "赴@@": 13768,
  "藏族": 13769,
  "邮局": 13770,
  "99.@@": 13771,
  "漆@@": 13772,
  "德斯": 13773,
  "你方": 13774,
  "匮乏": 13775,
  "今年年初": 13776,
  "1981": 13777,
  "普查": 13778,
  "饼干": 13779,
  "维奇": 13780,
  "项链": 13781,
  "外媒": 13782,
  "揭晓": 13783,
  "吸纳": 13784,
  "现款": 13785,
  "毁坏": 13786,
  "有史以来": 13787,
  "汉字": 13788,
  "克莱@@": 13789,
  "动人": 13790,
  "褐色": 13791,
  "而出": 13792,
  "暴": 13793,
  "滞@@": 13794,
  "看书": 13795,
  "袋子": 13796,
  "芬@@": 13797,
  "3.4": 13798,
  "降雪": 13799,
  "汇款": 13800,
  "出面": 13801,
  "购房人": 13802,
  "筋": 13803,
  "地下@@": 13804,
  "重要讲话": 13805,
  "收音机": 13806,
  "诊@@": 13807,
  "免受": 13808,
  "豹": 13809,
  "民俗": 13810,
  "最大化": 13811,
  "低下": 13812,
  "少于": 13813,
  "屁股": 13814,
  "硬化": 13815,
  "内陆": 13816,
  "净额": 13817,
  "斜": 13818,
  "塑化剂": 13819,
  "季报": 13820,
  "题为": 13821,
  "轮流": 13822,
  "西岸": 13823,
  "执勤": 13824,
  "作证": 13825,
  "新华@@": 13826,
  "灰尘": 13827,
  "紫外线": 13828,
  "珀": 13829,
  "航天@@": 13830,
  "提拔": 13831,
  "不合": 13832,
  "星期日": 13833,
  "一分": 13834,
  "寻": 13835,
  "伯特": 13836,
  "窝点": 13837,
  "拦截": 13838,
  "缘@@": 13839,
  "精细": 13840,
  "八成": 13841,
  "维修@@": 13842,
  "自然资源": 13843,
  "阶级": 13844,
  "高性能": 13845,
  "考量": 13846,
  "高龄": 13847,
  "劝说": 13848,
  "专项资金": 13849,
  "头疼": 13850,
  "候": 13851,
  "ir": 13852,
  "后方": 13853,
  "关上": 13854,
  "小户型": 13855,
  "玉树": 13856,
  "三聚氰胺": 13857,
  "颁奖": 13858,
  "司令部": 13859,
  "欢呼": 13860,
  "中华文化": 13861,
  "淡季": 13862,
  "汉堡": 13863,
  "常设": 13864,
[...]
