{
  "<EOS>": 0,
  "<GO>": 1,
  "<UNK>": 2,
  "the": 3,
  ".": 4,
  ",": 5,
  "of": 6,
  "and": 7,
  "to": 8,
  "a": 9,
  "in": 10,
  "is": 11,
  "for": 12,
  "that": 13,
  "on": 14,
  "I": 15,
  "you": 16,
  "@-@": 17,
  "it": 18,
  "with": 19,
  "be": 20,
  "as": 21,
  "&apos;s": 22,
  "are": 23,
  "was": 24,
  "by": 25,
  "&quot;": 26,
  "this": 27,
  "he": 28,
  "have": 29,
  "at": 30,
  "not": 31,
  "or": 32,
  "from": 33,
  "we": 34,
  "an": 35,
  ")": 36,
  "(": 37,
  "will": 38,
  ":": 39,
  "?": 40,
  "has": 41,
  "but": 42,
  "his": 43,
  "can": 44,
  "they": 45,
  "all": 46,
  "their": 47,
  "your": 48,
  ";": 49,
  "its": 50,
  "one": 51,
  "my": 52,
  "which": 53,
  "had": 54,
  "-": 55,
  "&apos;t": 56,
  "more": 57,
  "if": 58,
  "were": 59,
  "there": 60,
  "been": 61,
  "up": 62,
  "so": 63,
  "she": 64,
  "out": 65,
  "when": 66,
  "do": 67,
  "me": 68,
  "her": 69,
  "would": 70,
  "people": 71,
  "also": 72,
  "time": 73,
  "said": 74,
  "what": 75,
  "about": 76,
  "other": 77,
  "our": 78,
  "no": 79,
  "should": 80,
  "who": 81,
  "some": 82,
  "into": 83,
  "like": 84,
  "new": 85,
  "China": 86,
  "them": 87,
  "than": 88,
  "him": 89,
  "shall": 90,
  "/": 91,
  "two": 92,
  "&apos;": 93,
  "these": 94,
  "may": 95,
  "only": 96,
  "any": 97,
  "such": 98,
  "work": 99,
  "!": 100,
  "after": 101,
  "how": 102,
  "could": 103,
  "development": 104,
  "now": 105,
  "make": 106,
  "well": 107,
  "over": 108,
  "first": 109,
  "just": 110,
  "many": 111,
  "very": 112,
  "system": 113,
  "United": 114,
  "most": 115,
  "made": 116,
  "good": 117,
  "know": 118,
  "year": 119,
  "under": 120,
  "years": 121,
  "get": 122,
  "then": 123,
  "through": 124,
  "us": 125,
  "must": 126,
  "take": 127,
  "international": 128,
  "world": 129,
  "between": 130,
  "use": 131,
  "way": 132,
  "countries": 133,
  "life": 134,
  "see": 135,
  "man": 136,
  "don": 137,
  "those": 138,
  "go": 139,
  "day": 140,
  "before": 141,
  "because": 142,
  "Chinese": 143,
  "much": 144,
  "need": 145,
  "right": 146,
  "Nations": 147,
  "used": 148,
  "even": 149,
  "long": 150,
  "where": 151,
  "think": 152,
  "important": 153,
  "The": 154,
  "did": 155,
  "down": 156,
  "information": 157,
  "high": 158,
  "article": 159,
  "economic": 160,
  "country": 161,
  "being": 162,
  "back": 163,
  "last": 164,
  "General": 165,
  "three": 166,
  "come": 167,
  "Council": 168,
  "1": 169,
  "still": 170,
  "each": 171,
  "want": 172,
  "here": 173,
  "while": 174,
  "States": 175,
  "government": 176,
  "during": 177,
  "2": 178,
  "water": 179,
  "say": 180,
  "off": 181,
  "part": 182,
  "both": 183,
  "great": 184,
  "too": 185,
  "same": 186,
  "without": 187,
  "every": 188,
  "$": 189,
  "human": 190,
  "un@@": 191,
  "own": 192,
  "public": 193,
  "&apos;m": 194,
  "Committee": 195,
  "company": 196,
  "number": 197,
  "help": 198,
  "process": 199,
  "&apos;re": 200,
  "little": 201,
  "against": 202,
  "business": 203,
  "women": 204,
  "let": 205,
  "support": 206,
  "always": 207,
  "report": 208,
  "never": 209,
  "old": 210,
  "control": 211,
  "set": 212,
  "law": 213,
  "market": 214,
  "love": 215,
  "children": 216,
  "give": 217,
  "however": 218,
  "order": 219,
  "s": 220,
  "A": 221,
  "different": 222,
  "since": 223,
  "per": 224,
  "put": 225,
  "within": 226,
  "going": 227,
  "am": 228,
  "place": 229,
  "&apos;ll": 230,
  "3": 231,
  "another": 232,
  "Mr.": 233,
  "level": 234,
  "does": 235,
  "national": 236,
  "based": 237,
  "social": 238,
  "study": 239,
  "able": 240,
  "activities": 241,
  "end": 242,
  "look": 243,
  "S@@": 244,
  "re@@": 245,
  "rights": 246,
  "paper": 247,
  "next": 248,
  "better": 249,
  "including": 250,
  "financial": 251,
  "management": 252,
  "i": 253,
  "says": 254,
  "money": 255,
  "Government": 256,
  "found": 257,
  "home": 258,
  "peace": 259,
  "why": 260,
  "today": 261,
  "State": 262,
  "method": 263,
  "got": 264,
  "around": 265,
  "person": 266,
  "find": 267,
  "again": 268,
  "things": 269,
  "small": 270,
  "according": 271,
  "security": 272,
  "cooperation": 273,
  "state": 274,
  "away": 275,
  "power": 276,
  "please": 277,
  "provide": 278,
  "might": 279,
  "change": 280,
  "non": 281,
  "research": 282,
  "data": 283,
  "days": 284,
  "few": 285,
  "best": 286,
  "men": 287,
  "become": 288,
  "resolution": 289,
  "Hong": 290,
  "less": 291,
  "areas": 292,
  "often": 293,
  "Kong": 294,
  "among": 295,
  "really": 296,
  "in@@": 297,
  "further": 298,
  "foreign": 299,
  "resources": 300,
  "technology": 301,
  "%": 302,
  "something": 303,
  "large": 304,
  "local": 305,
  "4": 306,
  "5": 307,
  "10": 308,
  "area": 309,
  "problem": 310,
  "quality": 311,
  "came": 312,
  "food": 313,
  "&apos;ve": 314,
  "application": 315,
  "measures": 316,
  "health": 317,
  "education": 318,
  "full": 319,
  "family": 320,
  "service": 321,
  "special": 322,
  "meeting": 323,
  "problems": 324,
  "&#91;": 325,
  "Secretary": 326,
  "efforts": 327,
  "second": 328,
  "means": 329,
  "case": 330,
  ".@@": 331,
  "B": 332,
  "hand": 333,
  "land": 334,
  "keep": 335,
  "services": 336,
  "once": 337,
  "school": 338,
  "working": 339,
  "P@@": 340,
  "political": 341,
  "--": 342,
  "given": 343,
  "T@@": 344,
  "upon": 345,
  "D@@": 346,
  "following": 347,
  "members": 348,
  "trade": 349,
  "tell": 350,
  "using": 351,
  "house": 352,
  "making": 353,
  "called": 354,
  "results": 355,
  "o": 356,
  "6": 357,
  "organizations": 358,
  "went": 359,
  "thought": 360,
  "future": 361,
  "B@@": 362,
  "&#93;": 363,
  "situation": 364,
  "present": 365,
  "period": 366,
  "production": 367,
  "C@@": 368,
  "taken": 369,
  "together": 370,
  "field": 371,
  "community": 372,
  "M@@": 373,
  "effect": 374,
  "point": 375,
  "already": 376,
  "kind": 377,
  "economy": 378,
  "students": 379,
  "developing": 380,
  "form": 381,
  "growth": 382,
  "million": 383,
  "design": 384,
  "far": 385,
  "above": 386,
  "took": 387,
  "big": 388,
  "name": 389,
  "air": 390,
  "five": 391,
  "major": 392,
  "face": 393,
  "feel": 394,
  "left": 395,
  "group": 396,
  "term": 397,
  "policy": 398,
  "role": 399,
  "possible": 400,
  "four": 401,
  "night": 402,
  "products": 403,
  "energy": 404,
  "body": 405,
  "past": 406,
  "city": 407,
  "thing": 408,
  "&apos;@@": 409,
  "light": 410,
  "relevant": 411,
  "yet": 412,
  "young": 413,
  "English": 414,
  "open": 415,
  "several": 416,
  "job": 417,
  "value": 418,
  "e": 419,
  "cent": 420,
  "1994": 421,
  "needs": 422,
  "action": 423,
  "G@@": 424,
  "F@@": 425,
  "H@@": 426,
  "A@@": 427,
  "Assembly": 428,
  "room": 429,
  "free": 430,
  "whether": 431,
  "heart": 432,
  "current": 433,
  "main": 434,
  "line": 435,
  "building": 436,
  "necessary": 437,
  "believe": 438,
  "L@@": 439,
  "whole": 440,
  "s@@": 441,
  "related": 442,
  "view": 443,
  "show": 444,
  "others": 445,
  "hard": 446,
  "week": 447,
  "continue": 448,
  "provided": 449,
  "New": 450,
  "held": 451,
  "industry": 452,
  "question": 453,
  "age": 454,
  "ever": 455,
  "rate": 456,
  "party": 457,
  "price": 458,
  "head": 459,
  "implementation": 460,
  "training": 461,
  "er": 462,
  "environment": 463,
  "result": 464,
  "various": 465,
  "effective": 466,
  "objective": 467,
  "decision": 468,
  "real": 469,
  "God": 470,
  "cost": 471,
  "course": 472,
  "region": 473,
  "t": 474,
  "American": 475,
  "issues": 476,
  "low": 477,
  "hope": 478,
  "global": 479,
  "play": 480,
  "general": 481,
  "cannot": 482,
  "until": 483,
  "early": 484,
  "side": 485,
  "told": 486,
  "increase": 487,
  "enough": 488,
  "having": 489,
  "lot": 490,
  "call": 491,
  "K@@": 492,
  "pay": 493,
  "ing": 494,
  "programme": 495,
  "e@@": 496,
  "times": 497,
  "live": 498,
  "N@@": 499,
  "common": 500,
  "experience": 501,
  "conditions": 502,
  "plan": 503,
  "nothing": 504,
  "assistance": 505,
  "project": 506,
  "analysis": 507,
  "companies": 508,
  "therefore": 509,
  "President": 510,
  "ate": 511,
  "7": 512,
  "regional": 513,
  "20": 514,
  "matter": 515,
  "staff": 516,
  "military": 517,
  "model": 518,
  "Commission": 519,
  "done": 520,
  "1993": 521,
  "least": 522,
  "meet": 523,
  "words": 524,
  "asked": 525,
  "mother": 526,
  "legal": 527,
  "&apos;d": 528,
  "child": 529,
  "self": 530,
  "mind": 531,
  "try": 532,
  "R@@": 533,
  "oil": 534,
  "US": 535,
  "International": 536,
  "Mr": 537,
  "fact": 538,
  "es": 539,
  "key": 540,
  "basis": 541,
  "E@@": 542,
  "issue": 543,
  "y@@": 544,
  "t@@": 545,
  "To": 546,
  "ensure": 547,
  "8": 548,
  "ed": 549,
  "30": 550,
  "15": 551,
  "d@@": 552,
  "parties": 553,
  "operation": 554,
  "strong": 555,
  "father": 556,
  "investment": 557,
  "half": 558,
  "administrative": 559,
  "recent": 560,
  "care": 561,
  "sure": 562,
  "didn": 563,
  "months": 564,
  "office": 565,
  "Beijing": 566,
  "car": 567,
  "improve": 568,
  "protection": 569,
  "test": 570,
  "W@@": 571,
  "woman": 572,
  "established": 573,
  "developed": 574,
  "particular": 575,
  "though": 576,
  "interest": 577,
  "total": 578,
  "month": 579,
  "higher": 580,
  "accordance": 581,
  "Republic": 582,
  "attention": 583,
  "especially": 584,
  "saw": 585,
  "performance": 586,
  "taking": 587,
  "book": 588,
  "Security": 589,
  "account": 590,
  "dis@@": 591,
  "C": 592,
  "doing": 593,
  "makes": 594,
  "bring": 595,
  "soon": 596,
  "ability": 597,
  "team": 598,
  "start": 599,
  "friends": 600,
  "construction": 601,
  "example": 602,
  "respect": 603,
  "population": 604,
  "12": 605,
  "seen": 606,
  "space": 607,
  "9": 608,
  "run": 609,
  "eyes": 610,
  "progress": 611,
  "society": 612,
  "son": 613,
  "available": 614,
  "living": 615,
  "along": 616,
  "k@@": 617,
  "session": 618,
  "force": 619,
  "later": 620,
  "certain": 621,
  "leave": 622,
  "ation": 623,
  "short": 624,
  "cases": 625,
  "position": 626,
  "People": 627,
  "third": 628,
  "structure": 629,
  "required": 630,
  "red": 631,
  "Development": 632,
  "looking": 633,
  "hours": 634,
  "technical": 635,
  "basic": 636,
  "levels": 637,
  "programmes": 638,
  "al": 639,
  "include": 640,
  "top": 641,
  "product": 642,
  "en@@": 643,
  "ago": 644,
  "won": 645,
  "war": 646,
  "ask": 647,
  "methods": 648,
  "draft": 649,
  "capital": 650,
  "property": 651,
  "treatment": 652,
  "led": 653,
  "rather": 654,
  "known": 655,
  "cause": 656,
  "language": 657,
  "forward": 658,
  "South": 659,
  "close": 660,
  "clear": 661,
  "concerned": 662,
  "percent": 663,
  "subject": 664,
  "almost": 665,
  "World": 666,
  "prices": 667,
  "changes": 668,
  "...": 669,
  "risk": 670,
  "amount": 671,
  "provisions": 672,
  "specific": 673,
  "America": 674,
  "type": 675,
  "difficult": 676,
  "history": 677,
  "understand": 678,
  "y": 679,
  "systems": 680,
  "due": 681,
  "nuclear": 682,
  "bank": 683,
  "o@@": 684,
  "turn": 685,
  "morning": 686,
  "natural": 687,
  "m": 688,
  "thus": 689,
  "p@@": 690,
  "computer": 691,
  "bad": 692,
  "Law": 693,
  "class": 694,
  "g@@": 695,
  "although": 696,
  "11": 697,
  "environmental": 698,
  "ers": 699,
  "private": 700,
  "himself": 701,
  "began": 702,
  "O@@": 703,
  "b@@": 704,
  "n@@": 705,
  "an@@": 706,
  "fire": 707,
  "Department": 708,
  "institutions": 709,
  "word": 710,
  "date": 711,
  "read": 712,
  "Africa": 713,
  "anything": 714,
  "talk": 715,
  "equipment": 716,
  "D": 717,
  "death": 718,
  "projects": 719,
  "al@@": 720,
  "groups": 721,
  "six": 722,
  "Conference": 723,
  "door": 724,
  "material": 725,
  "ated": 726,
  "adopted": 727,
  "serious": 728,
  "someone": 729,
  "gave": 730,
  "persons": 731,
  "proposed": 732,
  "ways": 733,
  "deal": 734,
  "police": 735,
  "outside": 736,
  "mean": 737,
  "operations": 738,
  "idea": 739,
  "department": 740,
  "return": 741,
  "easy": 742,
  "safety": 743,
  "quite": 744,
  "requirements": 745,
  "knowledge": 746,
  "towards": 747,
  "particularly": 748,
  "terms": 749,
  "stop": 750,
  "culture": 751,
  "considered": 752,
  "learn": 753,
  "reason": 754,
  "everything": 755,
  "practice": 756,
  "nature": 757,
  "true": 758,
  "appropriate": 759,
  "addition": 760,
  "promote": 761,
  "table": 762,
  "importance": 763,
  "decided": 764,
  "poor": 765,
  "i@@": 766,
  "received": 767,
  "trying": 768,
  "heard": 769,
  "move": 770,
  "king": 771,
  "And": 772,
  "wife": 773,
  "fully": 774,
  "single": 775,
  "friend": 776,
  "across": 777,
  "hold": 778,
  "happy": 779,
  "develop": 780,
  "3@@": 781,
  "usually": 782,
  "step": 783,
  "likely": 784,
  "goods": 785,
  "pressure": 786,
  "l": 787,
  "longer": 788,
  "network": 789,
  "Special": 790,
  "wish": 791,
  "looked": 792,
  "1995": 793,
  "European": 794,
  "University": 795,
  "individual": 796,
  "cut": 797,
  "materials": 798,
  "exchange": 799,
  "income": 800,
  "girl": 801,
  "finally": 802,
  "buy": 803,
  "workers": 804,
  "share": 805,
  "m@@": 806,
  "comes": 807,
  "reports": 808,
  "coming": 809,
  "rules": 810,
  "lost": 811,
  "on@@": 812,
  "themselves": 813,
  "enterprises": 814,
  "access": 815,
  "capacity": 816,
  "relationship": 817,
  "demand": 818,
  "policies": 819,
  "theory": 820,
  "white": 821,
  "responsibility": 822,
  "approach": 823,
  "agreement": 824,
  "It": 825,
  "directly": 826,
  "I@@": 827,
  "paragraph": 828,
  "50": 829,
  "near": 830,
  "14": 831,
  "itself": 832,
  "review": 833,
  "sometimes": 834,
  "member": 835,
  "yes": 836,
  "personal": 837,
  "planning": 838,
  "parts": 839,
  "Group": 840,
  "Japan": 841,
  "moment": 842,
  "brought": 843,
  "parents": 844,
  "getting": 845,
  "December": 846,
  "l@@": 847,
  "Convention": 848,
  "1996": 849,
  "National": 850,
  "increased": 851,
  "needed": 852,
  "late": 853,
  "cultural": 854,
  "er@@": 855,
  "road": 856,
  "S": 857,
  "n": 858,
  "behind": 859,
  "personnel": 860,
  "create": 861,
  "ting": 862,
  "lead": 863,
  "court": 864,
  "effects": 865,
  "4@@": 866,
  "yourself": 867,
  "beautiful": 868,
  "modern": 869,
  "traditional": 870,
  "offer": 871,
  "c@@": 872,
  "delegation": 873,
  "V@@": 874,
  "front": 875,
  "administration": 876,
  "letter": 877,
  "act": 878,
  "success": 879,
  "sea": 880,
  "responsible": 881,
  "boy": 882,
  "impact": 883,
  "authorities": 884,
  "hands": 885,
  "16": 886,
  "plans": 887,
  "hear": 888,
  "markets": 889,
  "u@@": 890,
  "item": 891,
  "blood": 892,
  "25": 893,
  "address": 894,
  "w@@": 895,
  "rest": 896,
  "f@@": 897,
  "works": 898,
  "doesn": 899,
  "sense": 900,
  "keeping": 901,
  "tax": 902,
  "funds": 903,
  "Organization": 904,
  "game": 905,
  "cold": 906,
  "felt": 907,
  "costs": 908,
  "news": 909,
  "billion": 910,
  "You": 911,
  "regard": 912,
  "list": 913,
  "18": 914,
  "expected": 915,
  "ground": 916,
  "de@@": 917,
  "eat": 918,
  "13": 919,
  "supply": 920,
  "es@@": 921,
  "ch@@": 922,
  "questions": 923,
  "consider": 924,
  "function": 925,
  "5@@": 926,
  "ating": 927,
  "credit": 928,
  "everyone": 929,
  "banks": 930,
  "principle": 931,
  "continued": 932,
  "saying": 933,
  "officials": 934,
  "stay": 935,
  "provides": 936,
  "forces": 937,
  "simple": 938,
  "it@@": 939,
  "h@@": 940,
  "wanted": 941,
  "follow": 942,
  "regulations": 943,
  "medical": 944,
  "either": 945,
  "organization": 946,
  "r@@": 947,
  "im@@": 948,
  "enterprise": 949,
  "started": 950,
  "remember": 951,
  "apply": 952,
  "actually": 953,
  "Asia": 954,
  "domestic": 955,
  "additional": 956,
  "relations": 957,
  "became": 958,
  "civil": 959,
  "complete": 960,
  "over@@": 961,
  "21": 962,
  "central": 963,
  "ready": 964,
  "former": 965,
  "instead": 966,
  "contract": 967,
  "k": 968,
  "learning": 969,
  "seems": 970,
  "speak": 971,
  "Europe": 972,
  "factors": 973,
  "status": 974,
  "significant": 975,
  "note": 976,
  "sound": 977,
  "visit": 978,
  "introduced": 979,
  "music": 980,
  "lower": 981,
  "stage": 982,
  "ts": 983,
  "media": 984,
  "May": 985,
  "interests": 986,
  "carry": 987,
  "June": 988,
  "software": 989,
  "laws": 990,
  "Oh": 991,
  "post": 992,
  "existing": 993,
  "build": 994,
  "gas": 995,
  "positive": 996,
  "agencies": 997,
  "sent": 998,
  "potential": 999,
  "shows": 1000,
  "similar": 1001,
  "lives": 1002,
  "reform": 1003,
  "standards": 1004,
  "surface": 1005,
  "concern": 1006,
  "points": 1007,
  "charge": 1008,
  "fine": 1009,
  "greater": 1010,
  "at@@": 1011,
  "growing": 1012,
  "July": 1013,
  "answer": 1014,
  "source": 1015,
  "bed": 1016,
  "whose": 1017,
  "sector": 1018,
  "deep": 1019,
  "carried": 1020,
  "turned": 1021,
  "science": 1022,
  "Lord": 1023,
  "bit": 1024,
  "He": 1025,
  "Office": 1026,
  "round": 1027,
  "thank": 1028,
  "st@@": 1029,
  "ar@@": 1030,
  "wide": 1031,
  "standard": 1032,
  "purpose": 1033,
  "black": 1034,
  "ten": 1035,
  "art": 1036,
  "fall": 1037,
  "exercise": 1038,
  "active": 1039,
  "caused": 1040,
  "crisis": 1041,
  "opportunity": 1042,
  "d": 1043,
  "activity": 1044,
  "criminal": 1045,
  "J@@": 1046,
  "en": 1047,
  "takes": 1048,
  "size": 1049,
  "direct": 1050,
  "6@@": 1051,
  "a@@": 1052,
  "response": 1053,
  "U.S.": 1054,
  "earth": 1055,
  "story": 1056,
  "7@@": 1057,
  "request": 1058,
  "as@@": 1059,
  "sales": 1060,
  "ted": 1061,
  "knew": 1062,
  "17": 1063,
  "final": 1064,
  "studies": 1065,
  "joint": 1066,
  "re": 1067,
  "agreed": 1068,
  "insurance": 1069,
  "met": 1070,
  "stand": 1071,
  "alone": 1072,
  "departments": 1073,
  "establishment": 1074,
  "section": 1075,
  "September": 1076,
  "24": 1077,
  "statement": 1078,
  "Israel": 1079,
  "reduce": 1080,
  "stock": 1081,
  "average": 1082,
  "achieve": 1083,
  "allow": 1084,
  "paid": 1085,
  "mechanism": 1086,
  "establish": 1087,
  "involved": 1088,
  "site": 1089,
  "disease": 1090,
  "inside": 1091,
  "Y@@": 1092,
  "am@@": 1093,
  "scale": 1094,
  "z@@": 1095,
  "content": 1096,
  "In@@": 1097,
  "program": 1098,
  "East": 1099,
  "&amp;": 1100,
  "In": 1101,
  "understanding": 1102,
  "range": 1103,
  "consideration": 1104,
  "or@@": 1105,
  "hour": 1106,
  "E": 1107,
  "unit": 1108,
  "increasing": 1109,
  "鈥": 1110,
  "speed": 1111,
  "b": 1112,
  "2008": 1113,
  "19": 1114,
  "image": 1115,
  "chapter": 1116,
  "record": 1117,
  "influence": 1118,
  "Article": 1119,
  "representative": 1120,
  "check": 1121,
  "thinking": 1122,
  "books": 1123,
  "budget": 1124,
  "ly": 1125,
  "focus": 1126,
  "ant": 1127,
  "stability": 1128,
  "Central": 1129,
  "added": 1130,
  "reported": 1131,
  "principles": 1132,
  "written": 1133,
  "hot": 1134,
  "recently": 1135,
  "March": 1136,
  "official": 1137,
  "rich": 1138,
  "teaching": 1139,
  "Bank": 1140,
  "wrong": 1141,
  "v@@": 1142,
  "sub@@": 1143,
  "comprehensive": 1144,
  "overall": 1145,
  "meetings": 1146,
  "governments": 1147,
  "ic@@": 1148,
  "u": 1149,
  "minutes": 1150,
  "fast": 1151,
  "solution": 1152,
  "quickly": 1153,
  "ship": 1154,
  "beginning": 1155,
  "machine": 1156,
  "commercial": 1157,
  "strength": 1158,
  "board": 1159,
  "ates": 1160,
  "agenda": 1161,
  "O": 1162,
  "governmental": 1163,
  "rates": 1164,
  "flow": 1165,
  "concerning": 1166,
  "prevent": 1167,
  "_": 1168,
  "strategy": 1169,
  "limited": 1170,
  "nation": 1171,
  "below": 1172,
  "conclusion": 1173,
  "discussed": 1174,
  "reached": 1175,
  "communication": 1176,
  "enjoy": 1177,
  "is@@": 1178,
  "2@@": 1179,
  "African": 1180,
  "ab@@": 1181,
  "100": 1182,
  "yesterday": 1183,
  "1992": 1184,
  "avoid": 1185,
  "Z@@": 1186,
  "strengthen": 1187,
  "write": 1188,
  "October": 1189,
  "else": 1190,
  "8@@": 1191,
  "effort": 1192,
  "teacher": 1193,
  "gold": 1194,
  "drug": 1195,
  "bodies": 1196,
  "tried": 1197,
  "voice": 1198,
  "rise": 1199,
  "22": 1200,
  "patients": 1201,
  "nor": 1202,
  "perhaps": 1203,
  "April": 1204,
  "regions": 1205,
  "di@@": 1206,
  "evidence": 1207,
  "presented": 1208,
  "conflict": 1209,
  "issued": 1210,
  "designed": 1211,
  "units": 1212,
  "Shanghai": 1213,
  "transfer": 1214,
  "text": 1215,
  "remain": 1216,
  "schools": 1217,
  "scientific": 1218,
  "president": 1219,
  "mainly": 1220,
  "North": 1221,
  "document": 1222,
  "task": 1223,
  "j@@": 1224,
  "running": 1225,
  "probably": 1226,
  "seem": 1227,
  "characteristics": 1228,
  "provision": 1229,
  "condition": 1230,
  "40": 1231,
  "th@@": 1232,
  "weapons": 1233,
  "ro@@": 1234,
  "essential": 1235,
  "el@@": 1236,
  "approval": 1237,
  "green": 1238,
  "protect": 1239,
  "applied": 1240,
  "wind": 1241,
  "9@@": 1242,
  "de": 1243,
  "seven": 1244,
  "g": 1245,
  "distribution": 1246,
  "Board": 1247,
  "humanitarian": 1248,
  "India": 1249,
  "crime": 1250,
  "2007": 1251,
  "rule": 1252,
  "physical": 1253,
  "export": 1254,
  "heavy": 1255,
  "II": 1256,
  "fish": 1257,
  "U@@": 1258,
  "series": 1259,
  "arms": 1260,
  "ad@@": 1261,
  "weeks": 1262,
  "co@@": 1263,
  "sun": 1264,
  "anti": 1265,
  "lack": 1266,
  "ine": 1267,
  "23": 1268,
  "ti@@": 1269,
  "documents": 1270,
  "Programme": 1271,
  "industrial": 1272,
  "chance": 1273,
  "town": 1274,
  "walk": 1275,
  "functions": 1276,
  "con@@": 1277,
  "send": 1278,
  "loss": 1279,
  "professional": 1280,
  "goal": 1281,
  "cover": 1282,
  "Member": 1283,
  "damage": 1284,
  "balance": 1285,
  "dead": 1286,
  "temperature": 1287,
  "fell": 1288,
  "forms": 1289,
  "card": 1290,
  "myself": 1291,
  "January": 1292,
  "ones": 1293,
  "base": 1294,
  "applications": 1295,
  "studied": 1296,
  "efficiency": 1297,
  "facilities": 1298,
  "phone": 1299,
  "mission": 1300,
  "break": 1301,
  "ac@@": 1302,
  "procedures": 1303,
  "built": 1304,
  "leaders": 1305,
  "John": 1306,
  "travel": 1307,
  "31": 1308,
  "ol@@": 1309,
  "poverty": 1310,
  "items": 1311,
  "tomorrow": 1312,
  "prepared": 1313,
  "sleep": 1314,
  "previous": 1315,
  "maybe": 1316,
  "looks": 1317,
  "ag@@": 1318,
  "Centre": 1319,
  "spirit": 1320,
  "regular": 1321,
  "trust": 1322,
  "steps": 1323,
  "gone": 1324,
  "showed": 1325,
  "throughout": 1326,
  "cities": 1327,
  "Re@@": 1328,
  "actions": 1329,
  "French": 1330,
  "tree": 1331,
  "immediately": 1332,
  "rural": 1333,
  "leading": 1334,
  "providing": 1335,
  "safe": 1336,
  "ap@@": 1337,
  "middle": 1338,
  "hair": 1339,
  "firm": 1340,
  "ations": 1341,
  "monitoring": 1342,
  "debt": 1343,
  "sign": 1344,
  "annual": 1345,
  "accept": 1346,
  "watch": 1347,
  "Party": 1348,
  "le": 1349,
  "maintain": 1350,
  "writing": 1351,
  "welcome": 1352,
  "included": 1353,
  "os@@": 1354,
  "York": 1355,
  "contact": 1356,
  "normal": 1357,
  "Governments": 1358,
  "reach": 1359,
  "code": 1360,
  "confidence": 1361,
  "traffic": 1362,
  "reading": 1363,
  "goes": 1364,
  "wait": 1365,
  "p": 1366,
  "expressed": 1367,
  "investors": 1368,
  "nearly": 1369,
  "primary": 1370,
  "F": 1371,
  "successful": 1372,
  "event": 1373,
  "matters": 1374,
  "style": 1375,
  "P": 1376,
  "opening": 1377,
  "feeling": 1378,
  "earlier": 1379,
  "created": 1380,
  "film": 1381,
  "reasons": 1382,
  "summer": 1383,
  "internal": 1384,
  "seemed": 1385,
  "processing": 1386,
  "ings": 1387,
  "2006": 1388,
  "urban": 1389,
  "competition": 1390,
  "ice": 1391,
  "isn": 1392,
  "places": 1393,
  "48": 1394,
  "sustainable": 1395,
  "century": 1396,
  "skin": 1397,
  "customers": 1398,
  "British": 1399,
  "plant": 1400,
  "be@@": 1401,
  "enhance": 1402,
  "London": 1403,
  "ar": 1404,
  "practical": 1405,
  "noted": 1406,
  "color": 1407,
  "inter@@": 1408,
  "Olympic": 1409,
  "train": 1410,
  "Economic": 1411,
  "ethnic": 1412,
  "eye": 1413,
  "anyone": 1414,
  "despite": 1415,
  "circumstances": 1416,
  "hit": 1417,
  "benefit": 1418,
  "waste": 1419,
  "weather": 1420,
  "heat": 1421,
  "beyond": 1422,
  "receive": 1423,
  "connection": 1424,
  "original": 1425,
  "co": 1426,
  "approved": 1427,
  "November": 1428,
  "framework": 1429,
  "decisions": 1430,
  "search": 1431,
  "employment": 1432,
  "states": 1433,
  "mine": 1434,
  "pre@@": 1435,
  "simply": 1436,
  "add": 1437,
  "authority": 1438,
  "complex": 1439,
  "choose": 1440,
  "uses": 1441,
  "fear": 1442,
  "x": 1443,
  "worked": 1444,
  "degree": 1445,
  "wall": 1446,
  "truth": 1447,
  "Internet": 1448,
  "sorry": 1449,
  "stress": 1450,
  "weight": 1451,
  "kept": 1452,
  "fund": 1453,
  "representatives": 1454,
  "worth": 1455,
  "th": 1456,
  "context": 1457,
  "August": 1458,
  "fields": 1459,
  "gives": 1460,
  "users": 1461,
  "reference": 1462,
  "talking": 1463,
  "benefits": 1464,
  "wants": 1465,
  "participation": 1466,
  "Rights": 1467,
  "difference": 1468,
  "remains": 1469,
  "compared": 1470,
  "win": 1471,
  "el": 1472,
  "direction": 1473,
  "ic": 1474,
  "If": 1475,
  "events": 1476,
  "box": 1477,
  "changed": 1478,
  "produce": 1479,
  "clearly": 1480,
  "ing@@": 1481,
  "largest": 1482,
  "improved": 1483,
  "We": 1484,
  "doctor": 1485,
  "affected": 1486,
  "giving": 1487,
  "27": 1488,
  "Social": 1489,
  "pass": 1490,
  "types": 1491,
  "popular": 1492,
  "dollars": 1493,
  "concept": 1494,
  "save": 1495,
  "indeed": 1496,
  "freedom": 1497,
  "generally": 1498,
  "currently": 1499,
  "user": 1500,
  "shown": 1501,
  "dark": 1502,
  "husband": 1503,
  "violence": 1504,
  "26": 1505,
  "college": 1506,
  "yuan": 1507,
  "character": 1508,
  "student": 1509,
  "--@@": 1510,
  "easily": 1511,
  "implement": 1512,
  "die": 1513,
  "conduct": 1514,
  "drive": 1515,
  "opened": 1516,
  "acts": 1517,
  "clean": 1518,
  "choice": 1519,
  "TV": 1520,
  "examination": 1521,
  "submitted": 1522,
  "skills": 1523,
  "agency": 1524,
  "aid": 1525,
  "station": 1526,
  "allowed": 1527,
  "survey": 1528,
  "passed": 1529,
  "ous": 1530,
  "T": 1531,
  "sides": 1532,
  "window": 1533,
  "chief": 1534,
  "ideas": 1535,
  "Iraq": 1536,
  "require": 1537,
  "entire": 1538,
  "assets": 1539,
  "dream": 1540,
  "recommendations": 1541,
  "opportunities": 1542,
  "file": 1543,
  "priority": 1544,
  "Japanese": 1545,
  "coordination": 1546,
  "28": 1547,
  "Human": 1548,
  "online": 1549,
  "als": 1550,
  "manner": 1551,
  "begin": 1552,
  "sh@@": 1553,
  "spend": 1554,
  "feet": 1555,
  "serve": 1556,
  "em@@": 1557,
  "um": 1558,
  "il@@": 1559,
  "grow": 1560,
  "dog": 1561,
  "to@@": 1562,
  "blue": 1563,
  "huge": 1564,
  "except": 1565,
  "aspects": 1566,
  "ec@@": 1567,
  "sell": 1568,
  "emergency": 1569,
  "ad": 1570,
  "baby": 1571,
  "calls": 1572,
  "net": 1573,
  "Fund": 1574,
  "eight": 1575,
  "sp@@": 1576,
  "Service": 1577,
  "standing": 1578,
  "street": 1579,
  "steel": 1580,
  "ill": 1581,
  "happened": 1582,
  "measure": 1583,
  "playing": 1584,
  "gonna": 1585,
  "failure": 1586,
  "maintenance": 1587,
  "press": 1588,
  "experts": 1589,
  "target": 1590,
  "..": 1591,
  "om@@": 1592,
  "le@@": 1593,
  "fixed": 1594,
  "id@@": 1595,
  "useful": 1596,
  "unto": 1597,
  "views": 1598,
  "ent": 1599,
  "cash": 1600,
  "registration": 1601,
  "ator": 1602,
  "includes": 1603,
  "piece": 1604,
  "spent": 1605,
  "2005": 1606,
  "equal": 1607,
  "op@@": 1608,
  "Union": 1609,
  "discussion": 1610,
  "object": 1611,
  "individuals": 1612,
  "ri@@": 1613,
  "speech": 1614,
  "c": 1615,
  "died": 1616,
  "born": 1617,
  "payment": 1618,
  "brain": 1619,
  "regarding": 1620,
  "est": 1621,
  "conference": 1622,
  "lose": 1623,
  "floor": 1624,
  "pain": 1625,
  "resource": 1626,
  "limit": 1627,
  "message": 1628,
  "etc": 1629,
  "climate": 1630,
  "listen": 1631,
  "speaking": 1632,
  "interested": 1633,
  "details": 1634,
  "daily": 1635,
  "Korea": 1636,
  "cross": 1637,
  "trees": 1638,
  "effectively": 1639,
  "chemical": 1640,
  "fight": 1641,
  "seek": 1642,
  "famous": 1643,
  "manager": 1644,
  "determined": 1645,
  "Court": 1646,
  "figure": 1647,
  "promoting": 1648,
  "improvement": 1649,
  "played": 1650,
  "store": 1651,
  "completed": 1652,
  "drink": 1653,
  "families": 1654,
  "highly": 1655,
  "independent": 1656,
  "core": 1657,
  "features": 1658,
  "elements": 1659,
  "City": 1660,
  "evaluation": 1661,
  "Russian": 1662,
  "pe@@": 1663,
  "Information": 1664,
  "Taiwan": 1665,
  "picture": 1666,
  "per@@": 1667,
  "election": 1668,
  "memory": 1669,
  "ancient": 1670,
  "brother": 1671,
  "29": 1672,
  "raise": 1673,
  "mass": 1674,
  "ahead": 1675,
  "enter": 1676,
  "mutual": 1677,
  "expect": 1678,
  "phase": 1679,
  "contained": 1680,
  "factor": 1681,
  "raised": 1682,
  "advanced": 1683,
  "nations": 1684,
  "duty": 1685,
  "actual": 1686,
  "advice": 1687,
  "certainly": 1688,
  "ter": 1689,
  "pollution": 1690,
  "perfect": 1691,
  "assessment": 1692,
  "citizens": 1693,
  "ling": 1694,
  "mis@@": 1695,
  "animals": 1696,
  "kinds": 1697,
  "biggest": 1698,
  "conducted": 1699,
  "G": 1700,
  "river": 1701,
  "agree": 1702,
  "transport": 1703,
  "goals": 1704,
  "improving": 1705,
  "mentioned": 1706,
  "achieved": 1707,
  "described": 1708,
  "li@@": 1709,
  "out@@": 1710,
  "followed": 1711,
  "ist": 1712,
  "investigation": 1713,
  "gets": 1714,
  "sky": 1715,
  "glass": 1716,
  "causes": 1717,
  "thanks": 1718,
  "bear": 1719,
  "whom": 1720,
  "evening": 1721,
  "toward": 1722,
  "critical": 1723,
  "he@@": 1724,
  "France": 1725,
  "pro@@": 1726,
  "ex@@": 1727,
  "bus": 1728,
  "se@@": 1729,
  "nice": 1730,
  "Asian": 1731,
  "commitment": 1732,
  "moving": 1733,
  "movement": 1734,
  "advantage": 1735,
  "clothes": 1736,
  "lo@@": 1737,
  "prevention": 1738,
  "cell": 1739,
  "ness": 1740,
  "rain": 1741,
  "notice": 1742,
  "ball": 1743,
  "returned": 1744,
  "L": 1745,
  "unless": 1746,
  "ul@@": 1747,
  "signed": 1748,
  "jobs": 1749,
  "Chairman": 1750,
  "discuss": 1751,
  "trouble": 1752,
  "relief": 1753,
  "M": 1754,
  "attack": 1755,
  "Con@@": 1756,
  "produced": 1757,
  "ha@@": 1758,
  "latest": 1759,
  "published": 1760,
  "daughter": 1761,
  "60": 1762,
  "killed": 1763,
  "customer": 1764,
  "inspection": 1765,
  "hundred": 1766,
  "owned": 1767,
  "cells": 1768,
  "Congress": 1769,
  "teachers": 1770,
  "girls": 1771,
  "completely": 1772,
  "vote": 1773,
  "Secretariat": 1774,
  "covered": 1775,
  "mouth": 1776,
  "contributions": 1777,
  "external": 1778,
  "ons": 1779,
  "center": 1780,
  "soil": 1781,
  "fundamental": 1782,
  "arrangements": 1783,
  "coal": 1784,
  "opinion": 1785,
  "meaning": 1786,
  "afraid": 1787,
  "negotiations": 1788,
  "determination": 1789,
  "medium": 1790,
  "territory": 1791,
  "rapid": 1792,
  "trading": 1793,
  "waiting": 1794,
  "double": 1795,
  "h": 1796,
  "Russia": 1797,
  "procedure": 1798,
  "values": 1799,
  "relating": 1800,
  "February": 1801,
  "proposal": 1802,
  "marriage": 1803,
  "sports": 1804,
  "happiness": 1805,
  "Al@@": 1806,
  "West": 1807,
  "join": 1808,
  "requests": 1809,
  "ed@@": 1810,
  "consumption": 1811,
  "lines": 1812,
  "ism": 1813,
  "researchers": 1814,
  "supported": 1815,
  "couple": 1816,
  "organs": 1817,
  "affairs": 1818,
  "employees": 1819,
  "animal": 1820,
  "season": 1821,
  "stood": 1822,
  "encourage": 1823,
  "operating": 1824,
  "concerns": 1825,
  "holding": 1826,
  "sale": 1827,
  "resolutions": 1828,
  "learned": 1829,
  "challenges": 1830,
  "stone": 1831,
  "obtained": 1832,
  "Mar@@": 1833,
  "tic": 1834,
  "warm": 1835,
  "sex": 1836,
  "married": 1837,
  "Executive": 1838,
  "sort": 1839,
  "wear": 1840,
  "requires": 1841,
  "armed": 1842,
  "knows": 1843,
  "agricultural": 1844,
  "requested": 1845,
  "reduction": 1846,
  "spread": 1847,
  "moved": 1848,
  "housing": 1849,
  "strengthening": 1850,
  "television": 1851,
  "negative": 1852,
  "justice": 1853,
  "System": 1854,
  "ors": 1855,
  "man@@": 1856,
  "peaceful": 1857,
  "appear": 1858,
  "forget": 1859,
  "affect": 1860,
  "ia": 1861,
  "cancer": 1862,
  "aim": 1863,
  "setting": 1864,
  "Agreement": 1865,
  "author": 1866,
  "entitled": 1867,
  "contribution": 1868,
  "2004": 1869,
  "spring": 1870,
  "generation": 1871,
  "Services": 1872,
  "et": 1873,
  "rose": 1874,
  "securities": 1875,
  "device": 1876,
  "forest": 1877,
  "fair": 1878,
  "plants": 1879,
  "couldn": 1880,
  "objectives": 1881,
  "assist": 1882,
  "thousand": 1883,
  "sources": 1884,
  "difficulties": 1885,
  "becomes": 1886,
  "numbers": 1887,
  "master": 1888,
  "technologies": 1889,
  "technique": 1890,
  "thousands": 1891,
  "healthy": 1892,
  "preparation": 1893,
  "mandate": 1894,
  "lay": 1895,
  "legislation": 1896,
  "senior": 1897,
  "qu@@": 1898,
  "1.@@": 1899,
  "video": 1900,
  "unique": 1901,
  "ans": 1902,
  "te@@": 1903,
  "sit": 1904,
  "dialogue": 1905,
  "concrete": 1906,
  "career": 1907,
  "ah": 1908,
  "announced": 1909,
  "promotion": 1910,
  "director": 1911,
  "clinical": 1912,
  "page": 1913,
  "ent@@": 1914,
  "What": 1915,
  "electronic": 1916,
  "hotel": 1917,
  "closed": 1918,
  "ring": 1919,
  "determine": 1920,
  "multi": 1921,
  "proposals": 1922,
  "registered": 1923,
  "widely": 1924,
  "movie": 1925,
  "fresh": 1926,
  "engineering": 1927,
  "decide": 1928,
  "r": 1929,
  "drop": 1930,
  "match": 1931,
  "Americans": 1932,
  "Management": 1933,
  "challenge": 1934,
  "trend": 1935,
  "whatever": 1936,
  "scientists": 1937,
  "properties": 1938,
  "increasingly": 1939,
  "shape": 1940,
  "associated": 1941,
  "committed": 1942,
  "settlement": 1943,
  "talks": 1944,
  "s.@@": 1945,
  "doubt": 1946,
  "purposes": 1947,
  "offered": 1948,
  "agreements": 1949,
  "scope": 1950,
  "element": 1951,
  "Tibet": 1952,
  "dinner": 1953,
  "estimated": 1954,
  "happen": 1955,
  "path": 1956,
  "Germany": 1957,
  "committee": 1958,
  "placed": 1959,
  "ot@@": 1960,
  "Minister": 1961,
  "Games": 1962,
  "helped": 1963,
  "claim": 1964,
  "medicine": 1965,
  "university": 1966,
  "express": 1967,
  "changing": 1968,
  "offices": 1969,
  "behavior": 1970,
  "hospital": 1971,
  "proper": 1972,
  "bill": 1973,
  "becoming": 1974,
  "dry": 1975,
  "testing": 1976,
  "notes": 1977,
  "Action": 1978,
  "specified": 1979,
  "&#124;": 1980,
  "der": 1981,
  "sold": 1982,
  "Obama": 1983,
  "abroad": 1984,
  "collection": 1985,
  "bottom": 1986,
  "Health": 1987,
  "lived": 1988,
  "tr@@": 1989,
  "efficient": 1990,
  "participate": 1991,
  "flowers": 1992,
  "organized": 1993,
  "Administration": 1994,
  "supervision": 1995,
  "starting": 1996,
  "An@@": 1997,
  "otherwise": 1998,
  "labour": 1999,
  "rising": 2000,
  "thou": 2001,
  "delivery": 2002,
  "island": 2003,
  "slow": 2004,
  "sir": 2005,
  "realize": 2006,
  "UNDP": 2007,
  "-@@": 2008,
  "pretty": 2009,
  "fuel": 2010,
  "electric": 2011,
  "tions": 2012,
  "addressed": 2013,
  "algorithm": 2014,
  "Day": 2015,
  "49": 2016,
  "ds": 2017,
  "articles": 2018,
  "western": 2019,
  "twenty": 2020,
  "fl@@": 2021,
  "pl@@": 2022,
  "officers": 2023,
  "ite": 2024,
  "suddenly": 2025,
  "drugs": 2026,
  "expression": 2027,
  "majority": 2028,
  "democratic": 2029,
  "contribute": 2030,
  "thy": 2031,
  "inter": 2032,
  "Foreign": 2033,
  "R": 2034,
  "19@@": 2035,
  "par@@": 2036,
  "closely": 2037,
  "afternoon": 2038,
  "religious": 2039,
  "Monday": 2040,
  "advance": 2041,
  "finance": 2042,
  "believed": 2043,
  "Year": 2044,
  "wood": 2045,
  "bo@@": 2046,
  "zone": 2047,
  "45": 2048,
  "foot": 2049,
  "reduced": 2050,
  "presence": 2051,
  "ran": 2052,
  "illegal": 2053,
  "separate": 2054,
  "permanent": 2055,
  "compensation": 2056,
  "border": 2057,
  "analyzed": 2058,
  "su@@": 2059,
  "yeah": 2060,
  "ter@@": 2061,
  "secret": 2062,
  "guarantee": 2063,
  "recognized": 2064,
  "mail": 2065,
  "solve": 2066,
  "leadership": 2067,
  "draw": 2068,
  "47": 2069,
  "neither": 2070,
  "mode": 2071,
  "lie": 2072,
  "Ministry": 2073,
  "sat": 2074,
  "lies": 2075,
  "distance": 2076,
  "shop": 2077,
  "This": 2078,
  "disaster": 2079,
  "threat": 2080,
  "ding": 2081,
  "winter": 2082,
  "tea": 2083,
  "reality": 2084,
  "ity": 2085,
  "dynamic": 2086,
  "accepted": 2087,
  "beauty": 2088,
  "35": 2089,
  "noise": 2090,
  "accounting": 2091,
  "variety": 2092,
  "failed": 2093,
  "highest": 2094,
  "sister": 2095,
  "pattern": 2096,
  "suggested": 2097,
  "ative": 2098,
  "female": 2099,
  "H": 2100,
  "car@@": 2101,
  "ence": 2102,
  "rock": 2103,
  "economies": 2104,
  "refugees": 2105,
  "stable": 2106,
  "buildings": 2107,
  "excellent": 2108,
  "bought": 2109,
  "developments": 2110,
  "relatively": 2111,
  "broken": 2112,
  "accident": 2113,
  "race": 2114,
  "leaves": 2115,
  "agent": 2116,
  "leaving": 2117,
  "powerful": 2118,
  "educational": 2119,
  "entered": 2120,
  "me@@": 2121,
  "Ar@@": 2122,
  "Tom": 2123,
  "democracy": 2124,
  "kill": 2125,
  "foundation": 2126,
  "executive": 2127,
  "Ch@@": 2128,
  "David": 2129,
  "moreover": 2130,
  "and@@": 2131,
  "implemented": 2132,
  "none": 2133,
  "bi@@": 2134,
  "cars": 2135,
  "Australia": 2136,
  "spending": 2137,
  "mo@@": 2138,
  "My": 2139,
  "appeared": 2140,
  "aimed": 2141,
  "shares": 2142,
  "initial": 2143,
  "version": 2144,
  "driving": 2145,
  "background": 2146,
  "tive": 2147,
  "鈥@@": 2148,
  "Britain": 2149,
  "2000": 2150,
  "extent": 2151,
  "friendly": 2152,
  "ance": 2153,
  "mark": 2154,
  "wine": 2155,
  "plane": 2156,
  "leader": 2157,
  "differences": 2158,
  "minute": 2159,
  "submit": 2160,
  "flight": 2161,
  "dangerous": 2162,
  "ks": 2163,
  "trip": 2164,
  "soft": 2165,
  "games": 2166,
  "St@@": 2167,
  "soul": 2168,
  "wasn": 2169,
  "import": 2170,
  "star": 2171,
  "ch": 2172,
  "output": 2173,
  "sight": 2174,
  "map": 2175,
  ".The": 2176,
  "suitable": 2177,
  "integration": 2178,
  "location": 2179,
  "signal": 2180,
  "organ": 2181,
  "Street": 2182,
  "cl@@": 2183,
  "broad": 2184,
  "obligations": 2185,
  "eating": 2186,
  "carrying": 2187,
  "host": 2188,
  "fourth": 2189,
  "aware": 2190,
  "scheme": 2191,
  "herself": 2192,
  "si@@": 2193,
  "labor": 2194,
  "digital": 2195,
  "operational": 2196,
  "formed": 2197,
  "greatly": 2198,
  "solid": 2199,
  "touch": 2200,
  "1991": 2201,
  "boss": 2202,
  "wouldn": 2203,
  "actively": 2204,
  "integrated": 2205,
  "ally": 2206,
  "handle": 2207,
  "strategic": 2208,
  "guy": 2209,
  "extremely": 2210,
  "boat": 2211,
  "responsibilities": 2212,
  "bright": 2213,
  "for@@": 2214,
  "financing": 2215,
  "contains": 2216,
  "av@@": 2217,
  "species": 2218,
  "mobile": 2219,
  "delegations": 2220,
  "18@@": 2221,
  "garden": 2222,
  "quarter": 2223,
  "behalf": 2224,
  "ir@@": 2225,
  "gain": 2226,
  "High": 2227,
  "ur@@": 2228,
  "Trade": 2229,
  "names": 2230,
  "index": 2231,
  "strategies": 2232,
  "peoples": 2233,
  "continues": 2234,
  "inflation": 2235,
  "under@@": 2236,
  "component": 2237,
  "radio": 2238,
  "锛": 2239,
  "south": 2240,
  "selling": 2241,
  "historical": 2242,
  "autonomous": 2243,
  "indicated": 2244,
  "0@@": 2245,
  "okay": 2246,
  "overseas": 2247,
  "vehicle": 2248,
  "currency": 2249,
  "appears": 2250,
  "technological": 2251,
  "loved": 2252,
  "enable": 2253,
  "arrived": 2254,
  "larger": 2255,
  "wealth": 2256,
  "facing": 2257,
  "Pacific": 2258,
  "army": 2259,
  "adopt": 2260,
  "Friday": 2261,
  "detailed": 2262,
  "willing": 2263,
  "mechanisms": 2264,
  "located": 2265,
  "pick": 2266,
  "marketing": 2267,
  "dollar": 2268,
  "ong": 2269,
  "village": 2270,
  "vehicles": 2271,
  "Western": 2272,
  "shot": 2273,
  "the@@": 2274,
  "desire": 2275,
  "reasonable": 2276,
  "sites": 2277,
  "correct": 2278,
  "coffee": 2279,
  "meanwhile": 2280,
  "haven": 2281,
  "practices": 2282,
  "diseases": 2283,
  "prepare": 2284,
  "explain": 2285,
  "et@@": 2286,
  "relation": 2287,
  "release": 2288,
  "finished": 2289,
  "us@@": 2290,
  "Christmas": 2291,
  "filled": 2292,
  "seeing": 2293,
  "bl@@": 2294,
  "br@@": 2295,
  "sitting": 2296,
  "Canada": 2297,
  "competent": 2298,
  "exactly": 2299,
  "dress": 2300,
  "But": 2301,
  "caught": 2302,
  "，": 2303,
  "attempt": 2304,
  "When": 2305,
  "tool": 2306,
  "creation": 2307,
  "explore": 2308,
  "stated": 2309,
  "defined": 2310,
  "length": 2311,
  "guide": 2312,
  "gradually": 2313,
  "profit": 2314,
  "track": 2315,
  "fun": 2316,
  "busy": 2317,
  "Declaration": 2318,
  "ies": 2319,
  "obtain": 2320,
  "fruit": 2321,
  "Mission": 2322,
  "recovery": 2323,
  "Director": 2324,
  "tools": 2325,
  "patient": 2326,
  "troops": 2327,
  "Public": 2328,
  "Charter": 2329,
  "consultations": 2330,
  "investigate": 2331,
  "sing": 2332,
  "planned": 2333,
  "techniques": 2334,
  "facilitate": 2335,
  "youth": 2336,
  "Washington": 2337,
  "6.@@": 2338,
  "referred": 2339,
  "transportation": 2340,
  "2009": 2341,
  "Bush": 2342,
  "arm": 2343,
  "significance": 2344,
  "models": 2345,
  "straight": 2346,
  "losses": 2347,
  "components": 2348,
  "ps": 2349,
  "prior": 2350,
  "brand": 2351,
  "ty": 2352,
  "No": 2353,
  "dont": 2354,
  "mental": 2355,
  "tests": 2356,
  "listed": 2357,
  "processes": 2358,
  "ended": 2359,
  "offers": 2360,
  "His": 2361,
  "structures": 2362,
  "Road": 2363,
  "interesting": 2364,
  "metal": 2365,
  "ob@@": 2366,
  "70": 2367,
  "House": 2368,
  "residents": 2369,
  "hurt": 2370,
  "2003": 2371,
  "factory": 2372,
  "trans@@": 2373,
  "laid": 2374,
  "aircraft": 2375,
  "En@@": 2376,
  "carefully": 2377,
  "perform": 2378,
  "experiment": 2379,
  "Affairs": 2380,
  "debate": 2381,
  "infrastructure": 2382,
  "screen": 2383,
  "fit": 2384,
  "forced": 2385,
  "Middle": 2386,
  "tasks": 2387,
  "walked": 2388,
  "manufacturing": 2389,
  "smile": 2390,
  "recommended": 2391,
  "judge": 2392,
  "remained": 2393,
  "finding": 2394,
  "ked": 2395,
  "ton": 2396,
  "ph@@": 2397,
  "campaign": 2398,
  "consumer": 2399,
  "nine": 2400,
  "Palestinian": 2401,
  "website": 2402,
  "iron": 2403,
  "Sunday": 2404,
  "statements": 2405,
  "risks": 2406,
  "milk": 2407,
  "enemy": 2408,
  "=": 2409,
  "Institute": 2410,
  "bilateral": 2411,
  "link": 2412,
  "wrote": 2413,
  "For": 2414,
  "purchase": 2415,
  "stopped": 2416,
  "00": 2417,
  "kids": 2418,
  "sc@@": 2419,
  "worry": 2420,
  "z": 2421,
  "corporate": 2422,
  "storage": 2423,
  "transition": 2424,
  "ties": 2425,
  "Sh@@": 2426,
  "Li": 2427,
  "follows": 2428,
  "*": 2429,
  "ages": 2430,
  "resistance": 2431,
  "acid": 2432,
  "telephone": 2433,
  "claims": 2434,
  "S.": 2435,
  "extra": 2436,
  "copy": 2437,
  "statistics": 2438,
  "adequate": 2439,
  "x@@": 2440,
  "bar": 2441,
  "Region": 2442,
  "instruments": 2443,
  "spot": 2444,
  "catch": 2445,
  "proved": 2446,
  "ish": 2447,
  "Jesus": 2448,
  "bridge": 2449,
  "slowly": 2450,
  "sets": 2451,
  "36": 2452,
  "recognition": 2453,
  "combined": 2454,
  "duties": 2455,
  "severe": 2456,
  "so@@": 2457,
  "ical": 2458,
  "funding": 2459,
  "exist": 2460,
  "accounts": 2461,
  "figures": 2462,
  "80": 2463,
  "German": 2464,
  "forth": 2465,
  "birth": 2466,
  "miss": 2467,
  "ve": 2468,
  "N": 2469,
  "database": 2470,
  "les": 2471,
  "volume": 2472,
  "32": 2473,
  "released": 2474,
  "entry": 2475,
  "identify": 2476,
  "wave": 2477,
  "UN": 2478,
  "partner": 2479,
  "effectiveness": 2480,
  "seat": 2481,
  "X@@": 2482,
  "ters": 2483,
  "soldiers": 2484,
  "named": 2485,
  "England": 2486,
  "corresponding": 2487,
  "weak": 2488,
  "situations": 2489,
  "horse": 2490,
  "adoption": 2491,
  "immediate": 2492,
  "count": 2493,
  "mountain": 2494,
  "heads": 2495,
  "ded": 2496,
  "conflicts": 2497,
  "Women": 2498,
  "partners": 2499,
  "fly": 2500,
  "male": 2501,
  "trial": 2502,
  "Association": 2503,
  "do@@": 2504,
  "That": 2505,
  "disarmament": 2506,
  "gr@@": 2507,
  "Administrative": 2508,
  "answered": 2509,
  "allows": 2510,
  "tion": 2511,
  "firms": 2512,
  "K": 2513,
  "records": 2514,
  "instance": 2515,
  "centre": 2516,
  "players": 2517,
  "bird": 2518,
  "greatest": 2519,
  "consumers": 2520,
  "90": 2521,
  "ment": 2522,
  "error": 2523,
  "impossible": 2524,
  "solutions": 2525,
  "county": 2526,
  "north": 2527,
  "forty": 2528,
  "V": 2529,
  "engine": 2530,
  "respectively": 2531,
  "ang@@": 2532,
  "Control": 2533,
  "500": 2534,
  "existence": 2535,
  "frequency": 2536,
  "load": 2537,
  "suggest": 2538,
  "multiple": 2539,
  "continuing": 2540,
  "ends": 2541,
  "attitude": 2542,
  "quick": 2543,
  "mining": 2544,
  "faith": 2545,
  "Tuesday": 2546,
  "creating": 2547,
  "pre": 2548,
  "reflect": 2549,
  "manage": 2550,
  "Ex@@": 2551,
  "participants": 2552,
  "fighting": 2553,
  "Earth": 2554,
  "tonight": 2555,
  "engaged": 2556,
  "programs": 2557,
  "interpretation": 2558,
  "meat": 2559,
  "ou@@": 2560,
  "200": 2561,
  "no@@": 2562,
  "unable": 2563,
  "Technology": 2564,
  "warning": 2565,
  "No.": 2566,
  "judicial": 2567,
  "appeal": 2568,
  "feelings": 2569,
  "walking": 2570,
  "besides": 2571,
  "expansion": 2572,
  "thee": 2573,
  "sweet": 2574,
  "watching": 2575,
  "display": 2576,
  "LORD": 2577,
  "receiving": 2578,
  "helps": 2579,
  "Q@@": 2580,
  "dealing": 2581,
  "communications": 2582,
  "id": 2583,
  "Working": 2584,
  "bearing": 2585,
  "plays": 2586,
  "possibility": 2587,
  "Y": 2588,
  "businesses": 2589,
  "layer": 2590,
  "fat": 2591,
  "formation": 2592,
  "ie": 2593,
  "treated": 2594,
  "academic": 2595,
  "defense": 2596,
  "ver@@": 2597,
  "rec@@": 2598,
  "hole": 2599,
  "consequences": 2600,
  "Advisory": 2601,
  "Agency": 2602,
  "objects": 2603,
  "boys": 2604,
  "seriously": 2605,
  "moon": 2606,
  "33": 2607,
  "controlled": 2608,
  "rapidly": 2609,
  "civilian": 2610,
  "hopes": 2611,
  "Iran": 2612,
  "industries": 2613,
  "ni@@": 2614,
  "Company": 2615,
  "carbon": 2616,
  "everybody": 2617,
  "identified": 2618,
  "De@@": 2619,
  "injury": 2620,
  "1997": 2621,
  "deeply": 2622,
  "suffering": 2623,
  "suit": 2624,
  "earthquake": 2625,
  "Force": 2626,
  "multilateral": 2627,
  "fill": 2628,
  "thoughts": 2629,
  "houses": 2630,
  "ordered": 2631,
  "introduce": 2632,
  "specialized": 2633,
  "innovation": 2634,
  "sons": 2635,
  "posts": 2636,
  "2001": 2637,
  "scene": 2638,
  "consensus": 2639,
  "W": 2640,
  "remove": 2641,
  "X": 2642,
  "square": 2643,
  "aged": 2644,
  "combination": 2645,
  "cast": 2646,
  "awareness": 2647,
  "danger": 2648,
  "relative": 2649,
  "crimes": 2650,
  "supplies": 2651,
  "ization": 2652,
  "34": 2653,
  "ized": 2654,
  "valuable": 2655,
  "sectors": 2656,
  "Mrs.": 2657,
  "Pro@@": 2658,
  "ourselves": 2659,
  "maximum": 2660,
  "guidelines": 2661,
  "loans": 2662,
  "furthermore": 2663,
  "ut@@": 2664,
  "signs": 2665,
  "1@@": 2666,
  "reporting": 2667,
  "undertaken": 2668,
  "edge": 2669,
  "discovered": 2670,
  "simulation": 2671,
  "respective": 2672,
  "selected": 2673,
  "instrument": 2674,
  "smaller": 2675,
  "cutting": 2676,
  "lots": 2677,
  "port": 2678,
  "elections": 2679,
  "formal": 2680,
  "birds": 2681,
  "province": 2682,
  "professor": 2683,
  "sufficient": 2684,
  "+": 2685,
  "consultation": 2686,
  "appearance": 2687,
  "liquid": 2688,
  "anti@@": 2689,
  "U.": 2690,
  "spoke": 2691,
  "increases": 2692,
  "victims": 2693,
  "faced": 2694,
  "institution": 2695,
  "informed": 2696,
  "wonder": 2697,
  "res@@": 2698,
  "regulation": 2699,
  "Ordinance": 2700,
  "invited": 2701,
  "finish": 2702,
  "tired": 2703,
  "f": 2704,
  "establishing": 2705,
  "urgent": 2706,
  "orders": 2707,
  "can@@": 2708,
  "demands": 2709,
  "park": 2710,
  "ens": 2711,
  "Your": 2712,
  "respond": 2713,
  "considering": 2714,
  "seeking": 2715,
  "vision": 2716,
  "launched": 2717,
  "treat": 2718,
  "violation": 2719,
  "concluded": 2720,
  "dear": 2721,
  "OF": 2722,
  "um@@": 2723,
  "Com@@": 2724,
  "gate": 2725,
  "37": 2726,
  "requirement": 2727,
  "dance": 2728,
  "careful": 2729,
  "player": 2730,
  "managers": 2731,
  "comments": 2732,
  "implementing": 2733,
  "expert": 2734,
  "asking": 2735,
  "song": 2736,
  "restaurant": 2737,
  "offering": 2738,
  "U": 2739,
  "helping": 2740,
  "1990": 2741,
  "cr@@": 2742,
  "snow": 2743,
  "broke": 2744,
  "independence": 2745,
  "block": 2746,
  "west": 2747,
  "corner": 2748,
  "investigated": 2749,
  "certificate": 2750,
  "District": 2751,
  "ents": 2752,
  "Education": 2753,
  "cards": 2754,
  "contain": 2755,
  "silver": 2756,
  "51": 2757,
  "agriculture": 2758,
  "enforcement": 2759,
  "observed": 2760,
  "Wednesday": 2761,
  "missions": 2762,
  "thesis": 2763,
  "pleased": 2764,
  "extended": 2765,
  "interview": 2766,
  "School": 2767,
  "feature": 2768,
  "divided": 2769,
  "e.@@": 2770,
  "studying": 2771,
  "46": 2772,
  "expensive": 2773,
  "mon@@": 2774,
  "easier": 2775,
  "reaction": 2776,
  "turning": 2777,
  "monitor": 2778,
  "All": 2779,
  "structural": 2780,
  "wild": 2781,
  "ne@@": 2782,
  "end@@": 2783,
  "positions": 2784,
  "Bureau": 2785,
  "One": 2786,
  "believes": 2787,
  "characteristic": 2788,
  "prove": 2789,
  "apart": 2790,
  "39": 2791,
  "minimum": 2792,
  "banking": 2793,
  "involving": 2794,
  "tri@@": 2795,
  "plastic": 2796,
  "ge": 2797,
  "focused": 2798,
  "fault": 2799,
  "atmosphere": 2800,
  "drawing": 2801,
  "adjustment": 2802,
  "Province": 2803,
  "miles": 2804,
  "shoes": 2805,
  "membership": 2806,
  "thin": 2807,
  "falling": 2808,
  "po@@": 2809,
  "supports": 2810,
  "ful": 2811,
  "ye": 2812,
  "res": 2813,
  "parameters": 2814,
  "pieces": 2815,
  "worse": 2816,
  "till": 2817,
  "principal": 2818,
  "officer": 2819,
  "holiday": 2820,
  "command": 2821,
  "era": 2822,
  "44": 2823,
  "rice": 2824,
  "ian": 2825,
  "chain": 2826,
  "intended": 2827,
  "tend": 2828,
  "Arab": 2829,
  "41": 2830,
  "mid": 2831,
  "River": 2832,
  "gift": 2833,
  "library": 2834,
  "III": 2835,
  "observe": 2836,
  "ery": 2837,
  "prescribed": 2838,
  "smoke": 2839,
  "annex": 2840,
  "moral": 2841,
  "2.@@": 2842,
  "Afghanistan": 2843,
  "Division": 2844,
  "via": 2845,
  "shared": 2846,
  "served": 2847,
  "advantages": 2848,
  "non@@": 2849,
  "guidance": 2850,
  "tourism": 2851,
  "38": 2852,
  "meant": 2853,
  "Li@@": 2854,
  "charges": 2855,
  "cool": 2856,
  "lady": 2857,
  "telling": 2858,
  "detail": 2859,
  "hearing": 2860,
  "joy": 2861,
  "equity": 2862,
  "gender": 2863,
  "expenses": 2864,
  "buying": 2865,
  "discrimination": 2866,
  "decades": 2867,
  "spokesman": 2868,
  "Authority": 2869,
  "grass": 2870,
  "eventually": 2871,
  "Thursday": 2872,
  "loan": 2873,
  "ators": 2874,
  "ology": 2875,
  "quiet": 2876,
  "putting": 2877,
  "confirmed": 2878,
  "pleasure": 2879,
  "As": 2880,
  "football": 2881,
  "attached": 2882,
  "Summit": 2883,
  "ore": 2884,
  "Se@@": 2885,
  "attacks": 2886,
  "calling": 2887,
  "motion": 2888,
  "promise": 2889,
  "competitive": 2890,
  "up@@": 2891,
  "farmers": 2892,
  "bu@@": 2893,
  "ard": 2894,
  "reducing": 2895,
  "ly@@": 2896,
  "letters": 2897,
  "battle": 2898,
  "selection": 2899,
  "guess": 2900,
  "Bosnia": 2901,
  "estate": 2902,
  "supporting": 2903,
  "Di@@": 2904,
  "Research": 2905,
  "realized": 2906,
  "ry": 2907,
  "electricity": 2908,
  "managed": 2909,
  "cycle": 2910,
  "aren": 2911,
  "Mary": 2912,
  "plate": 2913,
  "sick": 2914,
  "ten@@": 2915,
  "How": 2916,
  "ve@@": 2917,
  "v": 2918,
  "crucial": 2919,
  "ble": 2920,
  "delay": 2921,
  "vi@@": 2922,
  "Egypt": 2923,
  "twice": 2924,
  "Ad@@": 2925,
  "satisfaction": 2926,
  "stocks": 2927,
  "temporary": 2928,
  "push": 2929,
  "package": 2930,
  "older": 2931,
  "fail": 2932,
  "Regulations": 2933,
  "43": 2934,
  "ordinary": 2935,
  "secure": 2936,
  "elected": 2937,
  "decline": 2938,
  "achievements": 2939,
  "joined": 2940,
  "sensitive": 2941,
  "equality": 2942,
  "UK": 2943,
  "te": 2944,
  "bound": 2945,
  "we@@": 2946,
  "Where": 2947,
  "bar@@": 2948,
  "Paris": 2949,
  "topic": 2950,
  "Chief": 2951,
  "Olympics": 2952,
  "wonderful": 2953,
  "discussions": 2954,
  "Peace": 2955,
  "stars": 2956,
  "expand": 2957,
  "newspaper": 2958,
  "ality": 2959,
  "IT": 2960,
  "Web": 2961,
  "ker": 2962,
  "oc@@": 2963,
  "experimental": 2964,
  "There": 2965,
  "grown": 2966,
  "tears": 2967,
  "sanctions": 2968,
  "ideal": 2969,
  "Wang": 2970,
  "partnership": 2971,
  "properly": 2972,
  "stick": 2973,
  "els": 2974,
  "attend": 2975,
  "pointed": 2976,
  "Car@@": 2977,
  "\\": 2978,
  "depth": 2979,
  "resulting": 2980,
  "savings": 2981,
  "os": 2982,
  "obvious": 2983,
  "Cooperation": 2984,
  "grade": 2985,
  "powers": 2986,
  "forever": 2987,
  "#": 2988,
  "experienced": 2989,
  "truly": 2990,
  "Pakistan": 2991,
  "imposed": 2992,
  "evaluate": 2993,
  "fashion": 2994,
  "ves": 2995,
  "constant": 2996,
  "wishes": 2997,
  "grew": 2998,
  "southern": 2999,
  "wh@@": 3000,
  "ary": 3001,
  "platform": 3002,
  "courses": 3003,
  "dropped": 3004,
  "initiative": 3005,
  "ley": 3006,
  "vital": 3007,
  "characters": 3008,
  "sample": 3009,
  "frame": 3010,
  "initiatives": 3011,
  "languages": 3012,
  "rent": 3013,
  "communities": 3014,
  "universal": 3015,
  "ise": 3016,
  "decade": 3017,
  "pair": 3018,
  "diagnosis": 3019,
  "recognize": 3020,
  "writer": 3021,
  "der@@": 3022,
  "appointed": 3023,
  "measurement": 3024,
  "images": 3025,
  "millions": 3026,
  "exports": 3027,
  "remote": 3028,
  "ant@@": 3029,
  "handling": 3030,
  "depends": 3031,
  "faces": 3032,
  "schedule": 3033,
  "continuous": 3034,
  "east": 3035,
  "driver": 3036,
  "taste": 3037,
  "10@@": 3038,
  "prison": 3039,
  "Federal": 3040,
  "appreciation": 3041,
  "drawn": 3042,
  "weapon": 3043,
  "experiences": 3044,
  "minister": 3045,
  "dr@@": 3046,
  "terrorism": 3047,
  "bag": 3048,
  "facts": 3049,
  "violations": 3050,
  "outstanding": 3051,
  "ev@@": 3052,
  "ists": 3053,
  "ensuring": 3054,
  "occurred": 3055,
  "Rwanda": 3056,
  "glad": 3057,
  "friendship": 3058,
  "dated": 3059,
  "introduction": 3060,
  "club": 3061,
  "ars": 3062,
  "emerging": 3063,
  "ants": 3064,
  "performed": 3065,
  "angry": 3066,
  "row": 3067,
  "reply": 3068,
  "Protection": 3069,
  "strange": 3070,
  "smoking": 3071,
  "networks": 3072,
  "teams": 3073,
  "classes": 3074,
  "3.@@": 3075,
  "Jack": 3076,
  "Michael": 3077,
  "replied": 3078,
  "micro@@": 3079,
  "nobody": 3080,
  "owner": 3081,
  "hi@@": 3082,
  "producing": 3083,
  "indicate": 3084,
  "virus": 3085,
  "War": 3086,
  "integrity": 3087,
  "Iraqi": 3088,
  "empty": 3089,
  "extend": 3090,
  "onto": 3091,
  "stations": 3092,
  "familiar": 3093,
  "shopping": 3094,
  "Israeli": 3095,
  "all@@": 3096,
  "weekend": 3097,
  "relationships": 3098,
  "resolve": 3099,
  "considerable": 3100,
  "significantly": 3101,
  "acting": 3102,
  "airport": 3103,
  "hundreds": 3104,
  "encouraged": 3105,
  "ping": 3106,
  "yellow": 3107,
  "ge@@": 3108,
  "rare": 3109,
  "Business": 3110,
  "capable": 3111,
  "quantity": 3112,
  "input": 3113,
  "revised": 3114,
  "counter": 3115,
  "of@@": 3116,
  "doctors": 3117,
  "devices": 3118,
  "happens": 3119,
  "2002": 3120,
  "saving": 3121,
  "teach": 3122,
  "26@@": 3123,
  "fee": 3124,
  "alization": 3125,
  "Plan": 3126,
  "mistake": 3127,
  "client": 3128,
  "composition": 3129,
  "ins": 3130,
  "struggle": 3131,
  "White": 3132,
  "sl@@": 3133,
  "regime": 3134,
  "intellectual": 3135,
  "Le@@": 3136,
  "Q": 3137,
  "com@@": 3138,
  "emphasis": 3139,
  "grain": 3140,
  "storm": 3141,
  "ics": 3142,
  "ang": 3143,
  "go@@": 3144,
  "75": 3145,
  "conversation": 3146,
  "criteria": 3147,
  "difficulty": 3148,
  "reflected": 3149,
  "deposit": 3150,
  "cry": 3151,
  "42": 3152,
  "hardly": 3153,
  "connected": 3154,
  "mostly": 3155,
  "raising": 3156,
  "ying": 3157,
  "minority": 3158,
  "raw": 3159,
  "EU": 3160,
  "upper": 3161,
  "examples": 3162,
  "dreams": 3163,
  "alternative": 3164,
  "ceremony": 3165,
  "guys": 3166,
  "destruction": 3167,
  "Great": 3168,
  "ma": 3169,
  "prefer": 3170,
  "Co": 3171,
  "literature": 3172,
  "refer": 3173,
  "ig@@": 3174,
  "ak@@": 3175,
  "ending": 3176,
  "sounds": 3177,
  "strongly": 3178,
  "Indian": 3179,
  "church": 3180,
  "showing": 3181,
  "ation@@": 3182,
  "files": 3183,
  "secondary": 3184,
  "dec@@": 3185,
  "sought": 3186,
  "chairman": 3187,
  "liability": 3188,
  "imagine": 3189,
  "consistent": 3190,
  "vast": 3191,
  "wearing": 3192,
  "salary": 3193,
  "brings": 3194,
  "harm": 3195,
  "stuff": 3196,
  "hey": 3197,
  "ren@@": 3198,
  "Commissioner": 3199,
  "option": 3200,
  "gu@@": 3201,
  "proof": 3202,
  "sexual": 3203,
  "linked": 3204,
  "mechanical": 3205,
  "flat": 3206,
  "utilization": 3207,
  "ST@@": 3208,
  "adding": 3209,
  "branch": 3210,
  "Unit": 3211,
  "frequently": 3212,
  "transmission": 3213,
  "typical": 3214,
  "gl@@": 3215,
  "identity": 3216,
  "inner": 3217,
  "cur@@": 3218,
  "dispute": 3219,
  "pull": 3220,
  "fifth": 3221,
  "treaty": 3222,
  "crowd": 3223,
  "beat": 3224,
  "drinking": 3225,
  "explained": 3226,
  "proliferation": 3227,
  "presents": 3228,
  "suffered": 3229,
  "Saturday": 3230,
  "execution": 3231,
  "pr@@": 3232,
  "RE@@": 3233,
  "clients": 3234,
  "du@@": 3235,
  "maintaining": 3236,
  "evil": 3237,
  "whenever": 3238,
  "collective": 3239,
  "Federation": 3240,
  "remaining": 3241,
  "suggests": 3242,
  "computers": 3243,
  "introduces": 3244,
  "provinces": 3245,
  "ratio": 3246,
  "contents": 3247,
  "ste@@": 3248,
  "click": 3249,
  "shut": 3250,
  "options": 3251,
  "numerous": 3252,
  "thirty": 3253,
  "An": 3254,
  "represented": 3255,
  "definition": 3256,
  "authorized": 3257,
  "ner": 3258,
  "motor": 3259,
  "stories": 3260,
  "substantial": 3261,
  "district": 3262,
  "gh@@": 3263,
  "sharing": 3264,
  "sentence": 3265,
  "audience": 3266,
  "cat": 3267,
  "fees": 3268,
  "ll": 3269,
  "patterns": 3270,
  "expenditure": 3271,
  "bringing": 3272,
  "Yugoslavia": 3273,
  "journey": 3274,
  "cre@@": 3275,
  "combat": 3276,
  "Representative": 3277,
  "commitments": 3278,
  "novel": 3279,
  "First": 3280,
  "000": 3281,
  "IN@@": 3282,
  "King": 3283,
  "ke": 3284,
  "limits": 3285,
  "sharp": 3286,
  "ching": 3287,
  "marine": 3288,
  "cor@@": 3289,
  "sub": 3290,
  "az@@": 3291,
  "George": 3292,
  "UNICEF": 3293,
  "web": 3294,
  "recorded": 3295,
  "pace": 3296,
  "select": 3297,
  "ships": 3298,
  "suggestions": 3299,
  "exchanges": 3300,
  "license": 3301,
  "advertising": 3302,
  "Singapore": 3303,
  "bone": 3304,
  "containing": 3305,
  "Italy": 3306,
  "granted": 3307,
  "au@@": 3308,
  "abuse": 3309,
  "welcomed": 3310,
  "voluntary": 3311,
  "title": 3312,
  "commodity": 3313,
  "accordingly": 3314,
  "occur": 3315,
  "pictures": 3316,
  "represent": 3317,
  "customs": 3318,
  "achievement": 3319,
  "cup": 3320,
  "perspective": 3321,
  "describe": 3322,
  "0": 3323,
  "Co@@": 3324,
  "bid": 3325,
  "birthday": 3326,
  "salt": 3327,
  "Report": 3328,
  "surprise": 3329,
  "appointment": 3330,
  "ay@@": 3331,
  "sand": 3332,
  "ke@@": 3333,
  "OK": 3334,
  "anger": 3335,
  "ongoing": 3336,
  "wise": 3337,
  "diplomatic": 3338,
  "Dr.": 3339,
  "300": 3340,
  "politics": 3341,
  "declared": 3342,
  "timely": 3343,
  "likes": 3344,
  "phenomenon": 3345,
  "dust": 3346,
  "brief": 3347,
  "division": 3348,
  "successfully": 3349,
  "missing": 3350,
  "intelligence": 3351,
  "turns": 3352,
  "55": 3353,
  "designated": 3354,
  "Post": 3355,
  "conclusions": 3356,
  "server": 3357,
  "Do": 3358,
  "wedding": 3359,
  "centres": 3360,
  "estimates": 3361,
  "str@@": 3362,
  "painting": 3363,
  "applicable": 3364,
  "es.@@": 3365,
  "flower": 3366,
  "protected": 3367,
  "shift": 3368,
  "visitors": 3369,
  "unemployment": 3370,
  "automatic": 3371,
  "Constitution": 3372,
  "conservation": 3373,
  "flying": 3374,
  "achieving": 3375,
  "multi@@": 3376,
  "meal": 3377,
  "sad": 3378,
  "jurisdiction": 3379,
  "usual": 3380,
  "stressed": 3381,
  "bigger": 3382,
  "gi@@": 3383,
  "applying": 3384,
  "satellite": 3385,
  "ched": 3386,
  "4.@@": 3387,
  "previously": 3388,
  "Treaty": 3389,
  "tu@@": 3390,
  "se": 3391,
  "ement": 3392,
  "Latin": 3393,
  "compliance": 3394,
  "ler": 3395,
  "reconstruction": 3396,
  "supposed": 3397,
  "operate": 3398,
  "throw": 3399,
  "ments": 3400,
  "substantive": 3401,
  "paying": 3402,
  "findings": 3403,
  "ought": 3404,
  "gap": 3405,
  "homes": 3406,
  "ticket": 3407,
  "represents": 3408,
  "worst": 3409,
  "reviewed": 3410,
  "channel": 3411,
  "min@@": 3412,
  "Be@@": 3413,
  "accurate": 3414,
  "sum": 3415,
  "rescue": 3416,
  "burden": 3417,
  "lesson": 3418,
  "diet": 3419,
  "fifty": 3420,
  "ches": 3421,
  "5.@@": 3422,
  "detection": 3423,
  "passing": 3424,
  "faster": 3425,
  "Herzegovina": 3426,
  "normally": 3427,
  "latter": 3428,
  "grave": 3429,
  "begun": 3430,
  "oriented": 3431,
  "appreciate": 3432,
  "heading": 3433,
  "welfare": 3434,
  "af@@": 3435,
  "suffer": 3436,
  "origin": 3437,
  "household": 3438,
  "mat@@": 3439,
  "examine": 3440,
  "repair": 3441,
  "band": 3442,
  "decides": 3443,
  "translation": 3444,
  "false": 3445,
  "links": 3446,
  "SCO": 3447,
  "lunch": 3448,
  "absence": 3449,
  "alive": 3450,
  "鈥檚": 3451,
  "ru@@": 3452,
  "THE": 3453,
  "ay": 3454,
  "ological": 3455,
  "aspect": 3456,
  "closer": 3457,
  "obviously": 3458,
  "deliver": 3459,
  "root": 3460,
  "bread": 3461,
  "holds": 3462,
  "occupied": 3463,
  "stands": 3464,
  "outcome": 3465,
  "launch": 3466,
  "jointly": 3467,
  "profits": 3468,
  "Scheme": 3469,
  "chair": 3470,
  "hoped": 3471,
  "largely": 3472,
  "wisdom": 3473,
  "talked": 3474,
  "ms": 3475,
  "sts": 3476,
  "investments": 3477,
  "ast@@": 3478,
  "favorite": 3479,
  "excuse": 3480,
  "her@@": 3481,
  "observers": 3482,
  "comfortable": 3483,
  "extension": 3484,
  "printing": 3485,
  "fellow": 3486,
  "mar@@": 3487,
  "Harry": 3488,
  "Gu@@": 3489,
  "9.@@": 3490,
  "identification": 3491,
  "ade": 3492,
  "belief": 3493,
  "Center": 3494,
  "contracts": 3495,
  "papers": 3496,
  "Bo@@": 3497,
  "nevertheless": 3498,
  "driven": 3499,
  "marked": 3500,
  "somebody": 3501,
  "rehabilitation": 3502,
  "contrast": 3503,
  "ster": 3504,
  "electrical": 3505,
  "fishing": 3506,
  "venture": 3507,
  "skill": 3508,
  "slightly": 3509,
  "employed": 3510,
  "institutional": 3511,
  "feed": 3512,
  "newly": 3513,
  "Mainland": 3514,
  "smooth": 3515,
  "ease": 3516,
  "regarded": 3517,
  "sovereignty": 3518,
  "entirely": 3519,
  "owners": 3520,
  "Th@@": 3521,
  "listening": 3522,
  "merely": 3523,
  "uc@@": 3524,
  "super@@": 3525,
  "ain": 3526,
  "patent": 3527,
  "targets": 3528,
  "guard": 3529,
  "waters": 3530,
  "assembly": 3531,
  "Civil": 3532,
  "inform": 3533,
  "Agenda": 3534,
  "estimate": 3535,
  "ride": 3536,
  "approaches": 3537,
  "col@@": 3538,
  "undertake": 3539,
  "ver": 3540,
  "escape": 3541,
  "punishment": 3542,
  "reserve": 3543,
  "replace": 3544,
  "El@@": 3545,
  "overcome": 3546,
  "satisfied": 3547,
  "opposite": 3548,
  "arrangement": 3549,
  "lights": 3550,
  "capability": 3551,
  "removed": 3552,
  "heaven": 3553,
  "Mexico": 3554,
  "reliable": 3555,
  "maintained": 3556,
  "extensive": 3557,
  "complicated": 3558,
  "sugar": 3559,
  "proportion": 3560,
  "rooms": 3561,
  "lock": 3562,
  "Bar@@": 3563,
  "strict": 3564,
  "roads": 3565,
  "ci@@": 3566,
  "Ms.": 3567,
  "feels": 3568,
  "thinks": 3569,
  "theoretical": 3570,
  "teeth": 3571,
  "cu@@": 3572,
  "dogs": 3573,
  "therapy": 3574,
  "st": 3575,
  ".I": 3576,
  "neck": 3577,
  "Su@@": 3578,
  "marks": 3579,
  "pure": 3580,
  "agents": 3581,
  "ina": 3582,
  "ber@@": 3583,
  "Korean": 3584,
  "comment": 3585,
  "giant": 3586,
  "jump": 3587,
  "analysts": 3588,
  "gun": 3589,
  "UN@@": 3590,
  "tough": 3591,
  "streets": 3592,
  "leads": 3593,
  "ash": 3594,
  "air@@": 3595,
  "engage": 3596,
  "circuit": 3597,
  "constantly": 3598,
  "comparison": 3599,
  "Sea": 3600,
  "amounts": 3601,
  "recommendation": 3602,
  "candidates": 3603,
  "visited": 3604,
  "subjects": 3605,
  "^": 3606,
  "blind": 3607,
  "cooperate": 3608,
  "distributed": 3609,
  "headquarters": 3610,
  "theme": 3611,
  "IC@@": 3612,
  "massive": 3613,
  "farm": 3614,
  "marry": 3615,
  "lift": 3616,
  "har@@": 3617,
  "controls": 3618,
  "8.@@": 3619,
  "struck": 3620,
  "Food": 3621,
  "calculation": 3622,
  "lasting": 3623,
  "Dis@@": 3624,
  "victory": 3625,
  "coat": 3626,
  "charged": 3627,
  "understood": 3628,
  "mal@@": 3629,
  "ecological": 3630,
  "courage": 3631,
  "confident": 3632,
  "spoken": 3633,
  "socialist": 3634,
  "ites": 3635,
  "sheet": 3636,
  "losing": 3637,
  "measured": 3638,
  "mineral": 3639,
  "lying": 3640,
  "gross": 3641,
  "nose": 3642,
  "stronger": 3643,
  "creative": 3644,
  "They": 3645,
  "Man@@": 3646,
  "ically": 3647,
  "valid": 3648,
  "trends": 3649,
  "chosen": 3650,
  "ide": 3651,
  "walls": 3652,
  "Is": 3653,
  "percentage": 3654,
  "ownership": 3655,
  "Spanish": 3656,
  "clothing": 3657,
  "fe@@": 3658,
  "outer": 3659,
  "transformation": 3660,
  "hate": 3661,
  "flows": 3662,
  "terrible": 3663,
  "causing": 3664,
  "Financial": 3665,
  "mixed": 3666,
  "Section": 3667,
  "collaboration": 3668,
  "delivered": 3669,
  "unfortunately": 3670,
  "conventional": 3671,
  "poly@@": 3672,
  "union": 3673,
  "protecting": 3674,
  "hu@@": 3675,
  "passengers": 3676,
  "ines": 3677,
  "honor": 3678,
  "formulated": 3679,
  "y.@@": 3680,
  "AR@@": 3681,
  "blow": 3682,
  "lets": 3683,
  "yield": 3684,
  "accuracy": 3685,
  "ocean": 3686,
  "commission": 3687,
  "ale": 3688,
  "calm": 3689,
  "biological": 3690,
  "watched": 3691,
  "mom": 3692,
  "angle": 3693,
  "foods": 3694,
  "silence": 3695,
  "revenue": 3696,
  "Island": 3697,
  "taught": 3698,
  "runs": 3699,
  "falls": 3700,
  "iz@@": 3701,
  "ours": 3702,
  "flexible": 3703,
  "prime": 3704,
  "work@@": 3705,
  "ingly": 3706,
  "fallen": 3707,
  "reforms": 3708,
  "productive": 3709,
  "commerce": 3710,
  "leg": 3711,
  "Wall": 3712,
  "mountains": 3713,
  "opinions": 3714,
  "smart": 3715,
  "honest": 3716,
  "tall": 3717,
  "humans": 3718,
  "commodities": 3719,
  "enhanced": 3720,
  "refused": 3721,
  "proud": 3722,
  "Science": 3723,
  "equivalent": 3724,
  "stream": 3725,
  "ably": 3726,
  "back@@": 3727,
  "informal": 3728,
  "category": 3729,
  "legitimate": 3730,
  "worldwide": 3731,
  "strike": 3732,
  "Rapporteur": 3733,
  "gained": 3734,
  "preparing": 3735,
  "prosperity": 3736,
  "reaching": 3737,
  "payments": 3738,
  "infection": 3739,
  "Peter": 3740,
  "colleagues": 3741,
  "arbitration": 3742,
  "equally": 3743,
  "constitute": 3744,
  "hand@@": 3745,
  "disputes": 3746,
  "She": 3747,
  "collect": 3748,
  "transaction": 3749,
  "Qu@@": 3750,
  "mines": 3751,
  "tic@@": 3752,
  "Red": 3753,
  "deals": 3754,
  "depend": 3755,
  "tie": 3756,
  "AN@@": 3757,
  "IV": 3758,
  "pool": 3759,
  "hang": 3760,
  "indigenous": 3761,
  "ep@@": 3762,
  "incident": 3763,
  "concentration": 3764,
  "opposition": 3765,
  "functional": 3766,
  "ink": 3767,
  "resulted": 3768,
  "Park": 3769,
  "experiments": 3770,
  "convenient": 3771,
  "territorial": 3772,
  "sudden": 3773,
  "knowing": 3774,
  "la@@": 3775,
  "arrive": 3776,
  "bs": 3777,
  "hat": 3778,
  "implications": 3779,
  "composed": 3780,
  "judgment": 3781,
  "asset": 3782,
  "ational": 3783,
  "interface": 3784,
  "bottle": 3785,
  "ai@@": 3786,
  "dad": 3787,
  "thick": 3788,
  "ai": 3789,
  "pulled": 3790,
  "everywhere": 3791,
  "desk": 3792,
  "expanded": 3793,
  "surprised": 3794,
  "regularly": 3795,
  "luck": 3796,
  "kitchen": 3797,
  "machines": 3798,
  "strengthened": 3799,
  "surgery": 3800,
  "AT@@": 3801,
  "monthly": 3802,
  "employee": 3803,
  "waves": 3804,
  "revealed": 3805,
  "Mon@@": 3806,
  "genetic": 3807,
  "hall": 3808,
  "displaced": 3809,
  "universities": 3810,
  "Bill": 3811,
  "begins": 3812,
  "mer@@": 3813,
  "afford": 3814,
  "messages": 3815,
  "keeps": 3816,
  "entity": 3817,
  "Vice": 3818,
  "organize": 3819,
  "radiation": 3820,
  "plus": 3821,
  "hell": 3822,
  "On": 3823,
  "tested": 3824,
  "shoulder": 3825,
  "Smith": 3826,
  "convinced": 3827,
  "California": 3828,
  "picked": 3829,
  "puts": 3830,
  "wake": 3831,
  "og@@": 3832,
  "pursue": 3833,
  "sport": 3834,
  "discharge": 3835,
  "ure": 3836,
  "aims": 3837,
  "Miss": 3838,
  "sur@@": 3839,
  "steady": 3840,
  "tradition": 3841,
  "recommend": 3842,
  "association": 3843,
  "mention": 3844,
  "aside": 3845,
  "ily": 3846,
  "Tibetan": 3847,
  "organic": 3848,
  "ou": 3849,
  "mistakes": 3850,
  "northern": 3851,
  "courts": 3852,
  "2,@@": 3853,
  "protein": 3854,
  "ID": 3855,
  "consists": 3856,
  "65": 3857,
  "decrease": 3858,
  "federal": 3859,
  "tor": 3860,
  "solar": 3861,
  "Brazil": 3862,
  "fi@@": 3863,
  "elderly": 3864,
  "destroyed": 3865,
  "worker": 3866,
  "aging": 3867,
  "Tribunal": 3868,
  "noticed": 3869,
  "vice": 3870,
  "ys": 3871,
  "railway": 3872,
  "ati@@": 3873,
  "Dr": 3874,
  "77": 3875,
  "totally": 3876,
  "surely": 3877,
  "visual": 3878,
  "ra@@": 3879,
  "covering": 3880,
  "eliminate": 3881,
  "encouraging": 3882,
  "ach@@": 3883,
  "height": 3884,
  "personality": 3885,
  "Democratic": 3886,
  "od@@": 3887,
  "sessions": 3888,
  "applicant": 3889,
  "Am@@": 3890,
  "legs": 3891,
  "measuring": 3892,
  "expectations": 3893,
  "verification": 3894,
  "ER": 3895,
  "tight": 3896,
  "iness": 3897,
  "regret": 3898,
  "permit": 3899,
  "saved": 3900,
  "ill@@": 3901,
  "collected": 3902,
  "attended": 3903,
  "enhancing": 3904,
  "captain": 3905,
  "defence": 3906,
  "balanced": 3907,
  "exists": 3908,
  "burning": 3909,
  "argument": 3910,
  "interaction": 3911,
  "tor@@": 3912,
  "magazine": 3913,
  "ban": 3914,
  "regulatory": 3915,
  "lessons": 3916,
  "legislative": 3917,
  "Im": 3918,
  "alized": 3919,
  "machinery": 3920,
  "scheduled": 3921,
  "taxes": 3922,
  "fied": 3923,
  "representation": 3924,
  "switch": 3925,
  "Tr@@": 3926,
  "ud@@": 3927,
  "younger": 3928,
  "secretary": 3929,
  "brown": 3930,
  "Mc@@": 3931,
  "breath": 3932,
  "ER@@": 3933,
  "earnings": 3934,
  "Sudan": 3935,
  "Non": 3936,
  "indicates": 3937,
  "ned": 3938,
  "serving": 3939,
  "Haiti": 3940,
  "Geneva": 3941,
  "tour": 3942,
  "breaking": 3943,
  "With": 3944,
  "windows": 3945,
  "flood": 3946,
  "owing": 3947,
  "consent": 3948,
  "wash": 3949,
  "are@@": 3950,
  "possibly": 3951,
  "ns": 3952,
  "uh": 3953,
  "route": 3954,
  "fore@@": 3955,
  "aries": 3956,
  "golden": 3957,
  "contrary": 3958,
  "alcohol": 3959,
  "audit": 3960,
  "ear": 3961,
  "absolutely": 3962,
  "camera": 3963,
  "Ab@@": 3964,
  "Mo@@": 3965,
  "tobacco": 3966,
  "clock": 3967,
  "enjoyed": 3968,
  "description": 3969,
  "roll": 3970,
  "fiscal": 3971,
  "ho@@": 3972,
  "1998": 3973,
  "wet": 3974,
  "ering": 3975,
  "AND": 3976,
  "invention": 3977,
  "52": 3978,
  "religion": 3979,
  "ears": 3980,
  "Inter@@": 3981,
  "sw@@": 3982,
  "Ne@@": 3983,
  "winning": 3984,
  "cease": 3985,
  "tells": 3986,
  "corruption": 3987,
  "evolution": 3988,
  "tiny": 3989,
  "oral": 3990,
  "mood": 3991,
  "analyze": 3992,
  "ky": 3993,
  "mankind": 3994,
  "photo": 3995,
  "starts": 3996,
  "participating": 3997,
  "spare": 3998,
  "laser": 3999,
  "600": 4000,
  "talent": 4001,
  "derived": 4002,
  "bonds": 4003,
  "succeed": 4004,
  "ze": 4005,
  "powder": 4006,
  "biennium": 4007,
  "grant": 4008,
  "Hu@@": 4009,
  "pi@@": 4010,
  "intergovernmental": 4011,
  "Ms": 4012,
  "acute": 4013,
  "internet": 4014,
  "He@@": 4015,
  "ff": 4016,
  "Cor@@": 4017,
  "completion": 4018,
  "contributed": 4019,
  "racial": 4020,
  "returns": 4021,
  "planet": 4022,
  "committees": 4023,
  "eggs": 4024,
  "College": 4025,
  "UNHCR": 4026,
  "shadow": 4027,
  "Wan": 4028,
  "rely": 4029,
  "alism": 4030,
  "managing": 4031,
  "refers": 4032,
  "Greek": 4033,
  "summary": 4034,
  "Spain": 4035,
  "urged": 4036,
  "penalty": 4037,
  "ao": 4038,
  "drew": 4039,
  "boost": 4040,
  "pu@@": 4041,
  "define": 4042,
  "intention": 4043,
  "pipe": 4044,
  "Paul": 4045,
  "IS@@": 4046,
  "zones": 4047,
  "ase": 4048,
  "priorities": 4049,
  "hardware": 4050,
  "guests": 4051,
  "Kingdom": 4052,
  "enormous": 4053,
  "worried": 4054,
  "reflects": 4055,
  "Zhang": 4056,
  "examined": 4057,
  "approximately": 4058,
  "yours": 4059,
  "colour": 4060,
  "Christ": 4061,
  "gains": 4062,
  "automatically": 4063,
  "25@@": 4064,
  "attractive": 4065,
  "discipline": 4066,
  "cheap": 4067,
  "generated": 4068,
  "degrees": 4069,
  "54": 4070,
  "invest": 4071,
  "obligation": 4072,
  "controlling": 4073,
  "categories": 4074,
  "ot": 4075,
  "emotional": 4076,
  "den@@": 4077,
  "atic": 4078,
  "53": 4079,
  "coverage": 4080,
  "branches": 4081,
  "fiber": 4082,
  "bond": 4083,
  "samples": 4084,
  "Ro@@": 4085,
  "format": 4086,
  "meter": 4087,
  "wheel": 4088,
  "tension": 4089,
  "retail": 4090,
  "exploration": 4091,
  "secretariat": 4092,
  "detention": 4093,
  "citizen": 4094,
  "stores": 4095,
  "sal@@": 4096,
  "qualified": 4097,
  "extreme": 4098,
  "tender": 4099,
  "welcomes": 4100,
  "magnetic": 4101,
  "fying": 4102,
  "7.@@": 4103,
  "reputation": 4104,
  "shareholders": 4105,
  "AIDS": 4106,
  "pursuant": 4107,
  "specifically": 4108,
  "arranged": 4109,
  "assigned": 4110,
  "coordinate": 4111,
  "ung": 4112,
  "strictly": 4113,
  "programming": 4114,
  "HK": 4115,
  "namely": 4116,
  "helpful": 4117,
  "zed": 4118,
  "锛@@": 4119,
  "Par@@": 4120,
  "burn": 4121,
  "makers": 4122,
  "ised": 4123,
  "Water": 4124,
  "ize": 4125,
  "IT@@": 4126,
  "&apos;i": 4127,
  "apple": 4128,
  "observation": 4129,
  "cream": 4130,
  "covers": 4131,
  "entering": 4132,
  "acceptance": 4133,
  "promised": 4134,
  "imports": 4135,
  "ess": 4136,
  "candidate": 4137,
  "hydro@@": 4138,
  "fo@@": 4139,
  "publication": 4140,
  "ving": 4141,
  "witness": 4142,
  "vulnerable": 4143,
  "register": 4144,
  "forming": 4145,
  "lawyer": 4146,
  "philosophy": 4147,
  "presentation": 4148,
  "involves": 4149,
  "camp": 4150,
  "dy": 4151,
  "explanation": 4152,
  "mor@@": 4153,
  "narrow": 4154,
  "Planning": 4155,
  "conferences": 4156,
  "shock": 4157,
  "earn": 4158,
  "war@@": 4159,
  "eastern": 4160,
  "adjust": 4161,
  "primarily": 4162,
  "formula": 4163,
  "print": 4164,
  "Sha@@": 4165,
  "Environment": 4166,
  "56": 4167,
  "definitely": 4168,
  "statistical": 4169,
  "column": 4170,
  "handed": 4171,
  "habit": 4172,
  "paragraphs": 4173,
  "ously": 4174,
  "warned": 4175,
  "lu@@": 4176,
  "directors": 4177,
  "breakfast": 4178,
  "wire": 4179,
  "rational": 4180,
  "eng@@": 4181,
  "pri@@": 4182,
  "~": 4183,
  "assess": 4184,
  "ass@@": 4185,
  "tone": 4186,
  "productivity": 4187,
  "swimming": 4188,
  "declaration": 4189,
  "sending": 4190,
  "AL@@": 4191,
  "chicken": 4192,
  "settled": 4193,
  "Police": 4194,
  "certificates": 4195,
  "lucky": 4196,
  "suppose": 4197,
  "destroy": 4198,
  "est@@": 4199,
  "aff@@": 4200,
  "involve": 4201,
  "alia": 4202,
  "cloud": 4203,
  "Customs": 4204,
  "installation": 4205,
  "email": 4206,
  "discusses": 4207,
  "Him": 4208,
  "ped": 4209,
  "occasion": 4210,
  "minorities": 4211,
  "cleaning": 4212,
  "squ@@": 4213,
  "mortgage": 4214,
  "criticism": 4215,
  "boundary": 4216,
  "circle": 4217,
  "reserves": 4218,
  "cable": 4219,
  "disabled": 4220,
  "cha@@": 4221,
  "deployment": 4222,
  "wing": 4223,
  "Jerusalem": 4224,
  "lake": 4225,
  "breast": 4226,
  "12@@": 4227,
  "arrested": 4228,
  "thermal": 4229,
  "zero": 4230,
  "adult": 4231,
  "recalling": 4232,
  "domain": 4233,
  "describes": 4234,
  "bro@@": 4235,
  "replaced": 4236,
  "sees": 4237,
  "Meeting": 4238,
  "acquisition": 4239,
  "unity": 4240,
  "illness": 4241,
  "ell@@": 4242,
  "smell": 4243,
  "17@@": 4244,
  "fans": 4245,
  "Policy": 4246,
  "Community": 4247,
  "tube": 4248,
  "tissue": 4249,
  "Somalia": 4250,
  "monetary": 4251,
  "answers": 4252,
  "plenty": 4253,
  "blame": 4254,
  "exception": 4255,
  "ak": 4256,
  "EN@@": 4257,
  "ely": 4258,
  "Territories": 4259,
  "finds": 4260,
  "Gr@@": 4261,
  "historic": 4262,
  "sustained": 4263,
  "SC@@": 4264,
  "trained": 4265,
  "capabilities": 4266,
  "virtual": 4267,
  "expanding": 4268,
  "adults": 4269,
  "calculated": 4270,
  "proceedings": 4271,
  "attempts": 4272,
  "favour": 4273,
  "J": 4274,
  "accused": 4275,
  "survival": 4276,
  "participated": 4277,
  "substance": 4278,
  "everyday": 4279,
  "cuts": 4280,
  "pilot": 4281,
  "mix": 4282,
  "comfort": 4283,
  "58": 4284,
  "HK@@": 4285,
  "documentation": 4286,
  "stages": 4287,
  "head@@": 4288,
  "ently": 4289,
  "symbol": 4290,
  "allowing": 4291,
  "assume": 4292,
  "ming": 4293,
  "hi": 4294,
  "gathered": 4295,
  "visiting": 4296,
  "servant": 4297,
  "moves": 4298,
  "shirt": 4299,
  "density": 4300,
  "award": 4301,
  "prospects": 4302,
  "Power": 4303,
  "claimed": 4304,
  "Chen": 4305,
  "pages": 4306,
  "66": 4307,
  "ES": 4308,
  "subsequent": 4309,
  "arts": 4310,
  "ening": 4311,
  "alize": 4312,
  "Me@@": 4313,
  "channels": 4314,
  "string": 4315,
  "laugh": 4316,
  "Global": 4317,
  "sha@@": 4318,
  "laboratory": 4319,
  "hidden": 4320,
  "vessels": 4321,
  "hence": 4322,
  "des@@": 4323,
  "post@@": 4324,
  "brothers": 4325,
  "hide": 4326,
  "singing": 4327,
  "Italian": 4328,
  "hol@@": 4329,
  "invitation": 4330,
  "ened": 4331,
  "AC@@": 4332,
  "tics": 4333,
  "furniture": 4334,
  "thereof": 4335,
  "seed": 4336,
  "400": 4337,
  "ey": 4338,
  "Ltd": 4339,
  "occurs": 4340,
  "sin": 4341,
  "Lebanon": 4342,
  "architecture": 4343,
  "portion": 4344,
  "beside": 4345,
  "servants": 4346,
  "refuse": 4347,
  "gene": 4348,
  "Project": 4349,
  "exam": 4350,
  "exploitation": 4351,
  "coordinated": 4352,
  "heavily": 4353,
  "transactions": 4354,
  "recession": 4355,
  "Chapter": 4356,
  "directed": 4357,
  "ass": 4358,
  "fairly": 4359,
  "1999": 4360,
  "pen@@": 4361,
  "roof": 4362,
  "favor": 4363,
  "compare": 4364,
  "28@@": 4365,
  "lending": 4366,
  "sleeping": 4367,
  "apartment": 4368,
  "Standing": 4369,
  "Un@@": 4370,
  "Life": 4371,
  "ane": 4372,
  "vegetables": 4373,
  "noting": 4374,
  "separation": 4375,
  "oo@@": 4376,
  "transferred": 4377,
  "contributing": 4378,
  "tis": 4379,
  "ths": 4380,
  "hill": 4381,
  "Application": 4382,
  "involvement": 4383,
  "sed": 4384,
  "disasters": 4385,
  "victim": 4386,
  "provisional": 4387,
  "imported": 4388,
  "fewer": 4389,
  "Air": 4390,
  "precious": 4391,
  "behaviour": 4392,
  "Treasury": 4393,
  "Joint": 4394,
  "abilities": 4395,
  "ion": 4396,
  "tw@@": 4397,
  "psychological": 4398,
  "PC": 4399,
  "sk@@": 4400,
  "donor": 4401,
  "signing": 4402,
  "tur@@": 4403,
  "native": 4404,
  "killing": 4405,
  "ma@@": 4406,
  "summit": 4407,
  "tons": 4408,
  "ING": 4409,
  "linear": 4410,
  "ex": 4411,
  "permission": 4412,
  "}": 4413,
  "CH@@": 4414,
  "exposure": 4415,
  "peak": 4416,
  "Lee": 4417,
  "down@@": 4418,
  "fix": 4419,
  "seats": 4420,
  "pa@@": 4421,
  "Festival": 4422,
  "forecast": 4423,
  "Per@@": 4424,
  "funded": 4425,
  "ick": 4426,
  "organizational": 4427,
  "demonstrated": 4428,
  "static": 4429,
  "innovative": 4430,
  "affecting": 4431,
  "receipt": 4432,
  "ning": 4433,
  "harder": 4434,
  "restrictions": 4435,
  "anyway": 4436,
  "intervention": 4437,
  "spite": 4438,
  "tors": 4439,
  "coast": 4440,
  "preliminary": 4441,
  "button": 4442,
  "{": 4443,
  "unknown": 4444,
  "expertise": 4445,
  "Study": 4446,
  "fails": 4447,
  "passage": 4448,
  "thereby": 4449,
  "30@@": 4450,
  "voltage": 4451,
  "preventing": 4452,
  "cried": 4453,
  "Kowloon": 4454,
  "parent": 4455,
  "rolling": 4456,
  "commonly": 4457,
  "Islamic": 4458,
  "communicate": 4459,
  "economics": 4460,
  "atory": 4461,
  "hearts": 4462,
  "fin@@": 4463,
  "uniform": 4464,
  "comply": 4465,
  "optical": 4466,
  "graduate": 4467,
  "artificial": 4468,
  "formulation": 4469,
  "acceptable": 4470,
  "Protocol": 4471,
  "San": 4472,
  "Parties": 4473,
  "nearby": 4474,
  "tickets": 4475,
  "ats": 4476,
  "stipulated": 4477,
  "pump": 4478,
  "57": 4479,
  "0.@@": 4480,
  "fortune": 4481,
  "landscape": 4482,
  "Google": 4483,
  "periods": 4484,
  "paint": 4485,
  "somewhere": 4486,
  "complaints": 4487,
  "transparency": 4488,
  "contacts": 4489,
  "procurement": 4490,
  "wished": 4491,
  "Caribbean": 4492,
  "Prime": 4493,
  "85": 4494,
  "typically": 4495,
  "mer": 4496,
  "&apos;clock": 4497,
  "attract": 4498,
  "headed": 4499,
  "liked": 4500,
  "Macao": 4501,
  "Industry": 4502,
  "shouldn": 4503,
  "coach": 4504,
  "civilization": 4505,
  "Queen": 4506,
  "mainland": 4507,
  "dressed": 4508,
  "ear@@": 4509,
  "constructive": 4510,
  "reconciliation": 4511,
  "absolute": 4512,
  "symptoms": 4513,
  "cul@@": 4514,
  "20@@": 4515,
  "ges": 4516,
  "solving": 4517,
  "generate": 4518,
  "logic": 4519,
  "silent": 4520,
  "harmony": 4521,
  "custom": 4522,
  "inc@@": 4523,
  "honour": 4524,
  "Legislative": 4525,
  "auto": 4526,
  "secondly": 4527,
  "A.": 4528,
  "ser@@": 4529,
  "15@@": 4530,
  "gen@@": 4531,
  "Cuba": 4532,
  "unlike": 4533,
  "basically": 4534,
  "ber": 4535,
  "somewhat": 4536,
  "Her@@": 4537,
  "revolution": 4538,
  "profound": 4539,
  "izing": 4540,
  "Microsoft": 4541,
  "tongue": 4542,
  "yl@@": 4543,
  "WTO": 4544,
  "pounds": 4545,
  "exhibition": 4546,
  "beer": 4547,
  "3,@@": 4548,
  "cotton": 4549,
  "SA@@": 4550,
  "ered": 4551,
  "ne": 4552,
  "shaped": 4553,
  "films": 4554,
  "demonstrate": 4555,
  "declined": 4556,
  "necessarily": 4557,
  "violent": 4558,
  "sized": 4559,
  "Prince": 4560,
  "movements": 4561,
  "ee": 4562,
  "occupation": 4563,
  "widespread": 4564,
  "hoping": 4565,
  "shipment": 4566,
  "ial": 4567,
  "judges": 4568,
  "humanity": 4569,
  "Justice": 4570,
  "resolved": 4571,
  "damaged": 4572,
  "lips": 4573,
  "elsewhere": 4574,
  "wheat": 4575,
  "settle": 4576,
  "default": 4577,
  "Population": 4578,
  "beneficial": 4579,
  "gar@@": 4580,
  "e.": 4581,
  "chemicals": 4582,
  "iting": 4583,
  "visits": 4584,
  "ger": 4585,
  "unusual": 4586,
  "manufacture": 4587,
  "Members": 4588,
  "threats": 4589,
  "para": 4590,
  "installed": 4591,
  "copies": 4592,
  "presidential": 4593,
  "performing": 4594,
  "suggestion": 4595,
  "mouse": 4596,
  "preventive": 4597,
  "filter": 4598,
  "rough": 4599,
  "loves": 4600,
  "devoted": 4601,
  "Henry": 4602,
  "governance": 4603,
  "Liu": 4604,
  "strain": 4605,
  "64": 4606,
  "concepts": 4607,
  "crops": 4608,
  "configuration": 4609,
  "arrival": 4610,
  "geographical": 4611,
  "Greece": 4612,
  "Regional": 4613,
  "closing": 4614,
  "locked": 4615,
  "passenger": 4616,
  "EC@@": 4617,
  "Act": 4618,
  "Indonesia": 4619,
  "95": 4620,
  "vacation": 4621,
  "beings": 4622,
  "Martin": 4623,
  "dealt": 4624,
  "injured": 4625,
  "carrier": 4626,
  "realization": 4627,
  "fluid": 4628,
  "encourages": 4629,
  "precision": 4630,
  "Sun": 4631,
  "Har@@": 4632,
  "childhood": 4633,
  "allocation": 4634,
  "Children": 4635,
  "1,000": 4636,
  "pocket": 4637,
  "So": 4638,
  "threw": 4639,
  "score": 4640,
  "diversity": 4641,
  "Zealand": 4642,
  "Eastern": 4643,
  "tech": 4644,
  "speaker": 4645,
  "modified": 4646,
  "parallel": 4647,
  "stayed": 4648,
  "lion": 4649,
  "firmly": 4650,
  "obstacles": 4651,
  "72": 4652,
  "mad": 4653,
  "migration": 4654,
  "Ac@@": 4655,
  "hor@@": 4656,
  "cooperative": 4657,
  "fears": 4658,
  "darkness": 4659,
  "liver": 4660,
  "forum": 4661,
  "restore": 4662,
  "00@@": 4663,
  "cloth": 4664,
  "colors": 4665,
  "dependent": 4666,
  "egg": 4667,
  "Br@@": 4668,
  "nowadays": 4669,
  "promoted": 4670,
  "naturally": 4671,
  "governing": 4672,
  "amp": 4673,
  "vessel": 4674,
  "accidents": 4675,
  "anniversary": 4676,
  "discount": 4677,
  "repeated": 4678,
  "tion@@": 4679,
  "expenditures": 4680,
  "analyses": 4681,
  "sm@@": 4682,
  "anywhere": 4683,
  "ography": 4684,
  "ath@@": 4685,
  "territories": 4686,
  "arrange": 4687,
  "harmonious": 4688,
  "depression": 4689,
  "valve": 4690,
  "photos": 4691,
  "ads": 4692,
  "roots": 4693,
  "interference": 4694,
  "flexibility": 4695,
  "guilty": 4696,
  "sun@@": 4697,
  "restructuring": 4698,
  "seconds": 4699,
  "minor": 4700,
  "applies": 4701,
  "enti@@": 4702,
  "impose": 4703,
  "ff@@": 4704,
  "leaf": 4705,
  "innocent": 4706,
  "clouds": 4707,
  "Lu@@": 4708,
  "acquired": 4709,
  "impression": 4710,
  "confirm": 4711,
  "Min@@": 4712,
  "panel": 4713,
  "James": 4714,
  "remarkable": 4715,
  "hy@@": 4716,
  "61": 4717,
  "bn": 4718,
  "Vienna": 4719,
  "roles": 4720,
  "fired": 4721,
  "songs": 4722,
  "theories": 4723,
  "68": 4724,
  "trafficking": 4725,
  "solved": 4726,
  "Thailand": 4727,
  "assistant": 4728,
  "maritime": 4729,
  "donors": 4730,
  "beach": 4731,
  "dies": 4732,
  "1,@@": 4733,
  "signals": 4734,
  "essence": 4735,
  "Training": 4736,
  "mothers": 4737,
  "admit": 4738,
  "printed": 4739,
  "cake": 4740,
  "considers": 4741,
  "shipping": 4742,
  "16@@": 4743,
  "publications": 4744,
  "Time": 4745,
  "Or@@": 4746,
  "profile": 4747,
  "copyright": 4748,
  "necessity": 4749,
  "modernization": 4750,
  "onal": 4751,
  "entrance": 4752,
  "campus": 4753,
  "59": 4754,
  "fication": 4755,
  "w": 4756,
  "emphasized": 4757,
  "residential": 4758,
  "cargo": 4759,
  "med": 4760,
  "Limited": 4761,
  "recall": 4762,
  "14@@": 4763,
  "availability": 4764,
  "resume": 4765,
  "destination": 4766,
  "off@@": 4767,
  "09": 4768,
  "hath": 4769,
  "Labour": 4770,
  "Tokyo": 4771,
  "variable": 4772,
  "instructions": 4773,
  "ets": 4774,
  "lam@@": 4775,
  "Go@@": 4776,
  "tail": 4777,
  "exact": 4778,
  "wider": 4779,
  "fingers": 4780,
  "compound": 4781,
  "accompanied": 4782,
  "belt": 4783,
  "operators": 4784,
  "Col@@": 4785,
  "ca@@": 4786,
  "bri@@": 4787,
  "plain": 4788,
  "excess": 4789,
  "un": 4790,
  "ta": 4791,
  "choices": 4792,
  "Building": 4793,
  "bur@@": 4794,
  "excessive": 4795,
  "restricted": 4796,
  "wi@@": 4797,
  "addressing": 4798,
  "withdrawal": 4799,
  "admitted": 4800,
  "ultimate": 4801,
  "designing": 4802,
  "funny": 4803,
  "mirror": 4804,
  "mu@@": 4805,
  "aw@@": 4806,
  "missile": 4807,
  "sa@@": 4808,
  "terrorist": 4809,
  "ain@@": 4810,
  "oxygen": 4811,
  "Brown": 4812,
  "fate": 4813,
  "cultures": 4814,
  "Angola": 4815,
  "pot": 4816,
  "classification": 4817,
  "crazy": 4818,
  "shell": 4819,
  "belong": 4820,
  "istic": 4821,
  "cat@@": 4822,
  "reliability": 4823,
  "Second": 4824,
  "ture": 4825,
  "visible": 4826,
  "OR@@": 4827,
  "Cultural": 4828,
  "ray": 4829,
  "praise": 4830,
  "magic": 4831,
  "lovely": 4832,
  "badly": 4833,
  "produces": 4834,
  "routine": 4835,
  "Decade": 4836,
  "pal@@": 4837,
  "illicit": 4838,
  "ders": 4839,
  "tin": 4840,
  "maker": 4841,
  "char@@": 4842,
  "63": 4843,
  "73": 4844,
  "kid": 4845,
  "newspapers": 4846,
  "finger": 4847,
  "survive": 4848,
  "resident": 4849,
  "facility": 4850,
  "wages": 4851,
  "contemporary": 4852,
  "ultimately": 4853,
  "loving": 4854,
  "rel@@": 4855,
  "spiritual": 4856,
  "sole": 4857,
  "exciting": 4858,
  "apparently": 4859,
  "conclude": 4860,
  "depending": 4861,
  "consciousness": 4862,
  "tank": 4863,
  "Ge@@": 4864,
  "intelligent": 4865,
  "optimization": 4866,
  "oring": 4867,
  "ther@@": 4868,
  "rid": 4869,
  "Croatia": 4870,
  "highway": 4871,
  "sion": 4872,
  "urge": 4873,
  "continent": 4874,
  "injection": 4875,
  "pers": 4876,
  "conducting": 4877,
  "ip@@": 4878,
  "safeguard": 4879,
  "regardless": 4880,
  "surrounding": 4881,
  "sheep": 4882,
  "authors": 4883,
  "vocational": 4884,
  "prohibited": 4885,
  "star@@": 4886,
  "pride": 4887,
  "sections": 4888,
  "tape": 4889,
  "regards": 4890,
  "entities": 4891,
  "founded": 4892,
  "exposed": 4893,
  "invite": 4894,
  "Code": 4895,
  "deposits": 4896,
  "chronic": 4897,
  "nationality": 4898,
  "nervous": 4899,
  "imprisonment": 4900,
  "ile": 4901,
  "Don": 4902,
  "superior": 4903,
  "kiss": 4904,
  "Rec@@": 4905,
  "sequence": 4906,
  "08": 4907,
  "ae": 4908,
  "perfectly": 4909,
  "habits": 4910,
  "belongs": 4911,
  "Ap@@": 4912,
  "Exchange": 4913,
  "arising": 4914,
  "iti@@": 4915,
  "systematic": 4916,
  "05": 4917,
  "topics": 4918,
  "Let": 4919,
  "ba": 4920,
  "Army": 4921,
  "em": 4922,
  "d.@@": 4923,
  "phones": 4924,
  "sword": 4925,
  "stamp": 4926,
  "satisfy": 4927,
  "convention": 4928,
  "AS@@": 4929,
  "thr@@": 4930,
  "ose": 4931,
  "1989": 4932,
  "my@@": 4933,
  "collapse": 4934,
  "athletes": 4935,
  "Australian": 4936,
  "copper": 4937,
  "coastal": 4938,
  "substances": 4939,
  "stuck": 4940,
  "Rules": 4941,
  "ited": 4942,
  "continuously": 4943,
  "stroke": 4944,
  "kers": 4945,
  "Robert": 4946,
  "Three": 4947,
  "towns": 4948,
  "Energy": 4949,
  "stones": 4950,
  "62": 4951,
  "ved": 4952,
  "forests": 4953,
  "zing": 4954,
  "Analysis": 4955,
  "operator": 4956,
  "movies": 4957,
  "partly": 4958,
  "basketball": 4959,
  "split": 4960,
  "pan@@": 4961,
  "stem": 4962,
  "dying": 4963,
  "voting": 4964,
  "doors": 4965,
  "dignity": 4966,
  "eness": 4967,
  "hum@@": 4968,
  "Space": 4969,
  "beam": 4970,
  "tendency": 4971,
  "Permanent": 4972,
  "autumn": 4973,
  "excited": 4974,
  "integral": 4975,
  "heating": 4976,
  "utility": 4977,
  "rejected": 4978,
  "actor": 4979,
  "meters": 4980,
  "AC": 4981,
  "pen": 4982,
  "cooking": 4983,
  "twelve": 4984,
  "hasn": 4985,
  "improvements": 4986,
  "pleasant": 4987,
  "bags": 4988,
  "cy@@": 4989,
  "populations": 4990,
  "burst": 4991,
  "initiated": 4992,
  "employers": 4993,
  "operative": 4994,
  "circulation": 4995,
  "bills": 4996,
  "Society": 4997,
  "executives": 4998,
  "emissions": 4999,
  "sake": 5000,
  "allocated": 5001,
  "classroom": 5002,
  "missed": 5003,
  "ging": 5004,
  "minds": 5005,
  "chest": 5006,
  "intense": 5007,
  "negotiation": 5008,
  "disposal": 5009,
  "discover": 5010,
  "Design": 5011,
  "lawyers": 5012,
  "lin@@": 5013,
  "700": 5014,
  "gifts": 5015,
  "generations": 5016,
  "Safety": 5017,
  "guest": 5018,
  "Support": 5019,
  "grounds": 5020,
  "fy": 5021,
  "67": 5022,
  "originally": 5023,
  "Lo@@": 5024,
  "anybody": 5025,
  "satisfactory": 5026,
  "civilians": 5027,
  "eg@@": 5028,
  "ular": 5029,
  "pose": 5030,
  "arrest": 5031,
  "ses": 5032,
  "genuine": 5033,
  "Ma": 5034,
  "soldier": 5035,
  "numerical": 5036,
  "stomach": 5037,
  "Sch@@": 5038,
  "murder": 5039,
  "similarly": 5040,
  "prospect": 5041,
  "exercises": 5042,
  "stupid": 5043,
  "UNPROFOR": 5044,
  "hyper@@": 5045,
  "Sal@@": 5046,
  "globalization": 5047,
  "underground": 5048,
  "yard": 5049,
  "flag": 5050,
  "ra": 5051,
  "ana": 5052,
  "ric@@": 5053,
  "tourist": 5054,
  "ret@@": 5055,
  "Commerce": 5056,
  "prisoners": 5057,
  "chances": 5058,
  "municipalities": 5059,
  "frequent": 5060,
  "Mi@@": 5061,
  "exceed": 5062,
  "propose": 5063,
  "lowest": 5064,
  "chart": 5065,
  "Ireland": 5066,
  "Environmental": 5067,
  "gre@@": 5068,
  "rubber": 5069,
  "god": 5070,
  "intensity": 5071,
  "ail": 5072,
  "dish": 5073,
  "stored": 5074,
  "ell": 5075,
  "artist": 5076,
  "01": 5077,
  "val@@": 5078,
  "checking": 5079,
  "gear": 5080,
  "dimensional": 5081,
  "cure": 5082,
  "commit": 5083,
  "cope": 5084,
  "pushed": 5085,
  "couples": 5086,
  "fer@@": 5087,
  "ha": 5088,
  "Bi@@": 5089,
  "sions": 5090,
  "earned": 5091,
  "permitted": 5092,
  "rush": 5093,
  "dancing": 5094,
  "tip": 5095,
  "urges": 5096,
  "recommends": 5097,
  "tries": 5098,
  "tered": 5099,
  "fan": 5100,
  "Green": 5101,
  "gro@@": 5102,
  "knife": 5103,
  "Housing": 5104,
  "attracted": 5105,
  "Review": 5106,
  "lands": 5107,
  "indicators": 5108,
  "cook": 5109,
  "vibration": 5110,
  "speakers": 5111,
  "76": 5112,
  "apparent": 5113,
  "parameter": 5114,
  "Why": 5115,
  "sentenced": 5116,
  "announcement": 5117,
  "ue": 5118,
  "ham@@": 5119,
  "sil@@": 5120,
  "ash@@": 5121,
  "logical": 5122,
  "briefly": 5123,
  "Pe@@": 5124,
  "truck": 5125,
  "affects": 5126,
  "EL@@": 5127,
  "errors": 5128,
  "desert": 5129,
  "intensive": 5130,
  "Criminal": 5131,
  "IN": 5132,
  "acy": 5133,
  "la": 5134,
  "oning": 5135,
  "Of": 5136,
  "relatives": 5137,
  "update": 5138,
  "cant": 5139,
  "ene": 5140,
  "residence": 5141,
  "For@@": 5142,
  "licence": 5143,
  "dumping": 5144,
  "holy": 5145,
  "que": 5146,
  "tourists": 5147,
  "ny": 5148,
  "binding": 5149,
  "repeat": 5150,
  "jumped": 5151,
  "2010": 5152,
  "applicants": 5153,
  "71": 5154,
  "book@@": 5155,
  "Turkey": 5156,
  "che@@": 5157,
  "grateful": 5158,
  "bul@@": 5159,
  "acc@@": 5160,
  "Dynasty": 5161,
  "Headquarters": 5162,
  "proceed": 5163,
  "happening": 5164,
  "RO@@": 5165,
  "discovery": 5166,
  "serves": 5167,
  "connect": 5168,
  "bike": 5169,
  "replacement": 5170,
  "ann@@": 5171,
  "rocks": 5172,
  "economists": 5173,
  "At": 5174,
  "74": 5175,
  "checked": 5176,
  "pur@@": 5177,
  "mid@@": 5178,
  "Sir": 5179,
  "forgotten": 5180,
  "micro": 5181,
  "zhou": 5182,
  "loud": 5183,
  "chose": 5184,
  "Mor@@": 5185,
  "Jane": 5186,
  "corn": 5187,
  "holder": 5188,
  "ack": 5189,
  "Land": 5190,
  "induced": 5191,
  "dedicated": 5192,
  "Mrs": 5193,
  "designs": 5194,
  "fur@@": 5195,
  "Forum": 5196,
  "sy": 5197,
  "preceding": 5198,
  "Carrie": 5199,
  "feedback": 5200,
  "tical": 5201,
  "divorce": 5202,
  "equation": 5203,
  "submission": 5204,
  "Area": 5205,
  "municipal": 5206,
  "entertainment": 5207,
  "super": 5208,
  "constitutes": 5209,
  "functioning": 5210,
  "EM@@": 5211,
  "ox@@": 5212,
  "ninth": 5213,
  "premises": 5214,
  "den": 5215,
  "threatened": 5216,
  "hal@@": 5217,
  "DC": 5218,
  "ali@@": 5219,
  "crop": 5220,
  "water@@": 5221,
  "im": 5222,
  "aggression": 5223,
  "passion": 5224,
  "onic": 5225,
  "optimal": 5226,
  "hello": 5227,
  "ya": 5228,
  "Clinton": 5229,
  "800": 5230,
  "tes": 5231,
  "harmful": 5232,
  "shoot": 5233,
  "tower": 5234,
  "hospitals": 5235,
  "Burundi": 5236,
  "vertical": 5237,
  "loose": 5238,
  "employer": 5239,
  "rarely": 5240,
  "guns": 5241,
  "buried": 5242,
  "seal": 5243,
  "reflection": 5244,
  "returning": 5245,
  "array": 5246,
  "prize": 5247,
  "crack": 5248,
  "Georgia": 5249,
  "relate": 5250,
  "signature": 5251,
  "commissions": 5252,
  "chemistry": 5253,
  "Ambassador": 5254,
  "meets": 5255,
  "CO@@": 5256,
  "hel@@": 5257,
  "tied": 5258,
  "subsequently": 5259,
  "guided": 5260,
  "wanna": 5261,
  "hungry": 5262,
  "muscle": 5263,
  "realistic": 5264,
  "cal@@": 5265,
  "relax": 5266,
  "Organisation": 5267,
  "locations": 5268,
  "exclusive": 5269,
  "oneself": 5270,
  "Jim": 5271,
  "preserve": 5272,
  "separately": 5273,
  "freely": 5274,
  "osis": 5275,
  "ruling": 5276,
  "refugee": 5277,
  "tips": 5278,
  "manufacturers": 5279,
  "handled": 5280,
  "Sichuan": 5281,
  "hom@@": 5282,
  "composite": 5283,
  "5,000": 5284,
  "determining": 5285,
  "preparations": 5286,
  "removal": 5287,
  "Bur@@": 5288,
  "M.": 5289,
  "cap": 5290,
  "secrets": 5291,
  "kin": 5292,
  "feeding": 5293,
  "usage": 5294,
  "Love": 5295,
  "dle": 5296,
  "fruits": 5297,
  "ast": 5298,
  "ine@@": 5299,
  "packing": 5300,
  "metres": 5301,
  "Long": 5302,
  "Officer": 5303,
  "pursuit": 5304,
  "sixth": 5305,
  "shore": 5306,
  "treating": 5307,
  "ol": 5308,
  "chocolate": 5309,
  "Disarmament": 5310,
  "asleep": 5311,
  "drinks": 5312,
  "punished": 5313,
  "remembered": 5314,
  "ens@@": 5315,
  "99": 5316,
  "curve": 5317,
  "consequently": 5318,
  "provincial": 5319,
  "chip": 5320,
  "qualities": 5321,
  "eighth": 5322,
  "directions": 5323,
  "ist@@": 5324,
  "steam": 5325,
  "emerged": 5326,
  "06": 5327,
  "container": 5328,
  "argue": 5329,
  "ju@@": 5330,
  "equipped": 5331,
  "taxi": 5332,
  "drove": 5333,
  "ency": 5334,
  "au": 5335,
  "Supreme": 5336,
  "amazing": 5337,
  "Cal@@": 5338,
  "TH@@": 5339,
  "auction": 5340,
  "treaties": 5341,
  "HIV": 5342,
  "tin@@": 5343,
  "Iranian": 5344,
  "creates": 5345,
  "ari@@": 5346,
  "adds": 5347,
  "tables": 5348,
  "honey": 5349,
  "tolerance": 5350,
  "celebrate": 5351,
  "crystal": 5352,
  "Soviet": 5353,
  "suppliers": 5354,
  "reverse": 5355,
  "but@@": 5356,
  "characterized": 5357,
  "Reserve": 5358,
  "pressing": 5359,
  "expense": 5360,
  "IS": 5361,
  "Chicago": 5362,
  "luxury": 5363,
  "adapt": 5364,
  "shops": 5365,
  "hurry": 5366,
  "wound": 5367,
  "log": 5368,
  "heritage": 5369,
  "dirty": 5370,
  "ow@@": 5371,
  "touched": 5372,
  "tennis": 5373,
  "surplus": 5374,
  "alarm": 5375,
  "pat@@": 5376,
  "ier": 5377,
  "Ru@@": 5378,
  "emb@@": 5379,
  "schemes": 5380,
  "producers": 5381,
  "ards": 5382,
  "reward": 5383,
  "wor@@": 5384,
  "societies": 5385,
  "remind": 5386,
  "Finance": 5387,
  "feasibility": 5388,
  "ls": 5389,
  "As@@": 5390,
  "rer": 5391,
  "electoral": 5392,
  "seized": 5393,
  "remarks": 5394,
  "semi": 5395,
  "possess": 5396,
  "So@@": 5397,
  "silk": 5398,
  "fac@@": 5399,
  "Professor": 5400,
  "dare": 5401,
  "Legal": 5402,
  "recognizing": 5403,
  "preferred": 5404,
  "William": 5405,
  "03": 5406,
  "pol@@": 5407,
  "analyzing": 5408,
  "leather": 5409,
  "bacteria": 5410,
  "sensor": 5411,
  "instruction": 5412,
  "clearance": 5413,
  "Roman": 5414,
  "Joe": 5415,
  "ware": 5416,
  "dimension": 5417,
  "you@@": 5418,
  "grand": 5419,
  "incidents": 5420,
  "wings": 5421,
  "ous@@": 5422,
  "seeds": 5423,
  "form@@": 5424,
  "homework": 5425,
  "ven@@": 5426,
  "lonely": 5427,
  "margin": 5428,
  "Cup": 5429,
  "stake": 5430,
  "07": 5431,
  "150": 5432,
  "separated": 5433,
  "washing": 5434,
  "corporation": 5435,
  "focusing": 5436,
  "eless": 5437,
  "mi@@": 5438,
  "unified": 5439,
  "validity": 5440,
  "uncle": 5441,
  "advisory": 5442,
  "Christian": 5443,
  "trademark": 5444,
  "enemies": 5445,
  "dem@@": 5446,
  "crude": 5447,
  "departure": 5448,
  "complexity": 5449,
  "Part": 5450,
  "mature": 5451,
  "unlikely": 5452,
  "da": 5453,
  "matrix": 5454,
  "4,@@": 5455,
  "Measures": 5456,
  "acquire": 5457,
  "tropical": 5458,
  "households": 5459,
  "fathers": 5460,
  "relates": 5461,
  "Fe@@": 5462,
  "Sustainable": 5463,
  "keys": 5464,
  "lat@@": 5465,
  "Mike": 5466,
  "gather": 5467,
  "competence": 5468,
  "correlation": 5469,
  "deployed": 5470,
  "sted": 5471,
  "readers": 5472,
  "GDP": 5473,
  "worthy": 5474,
  "assessed": 5475,
  "sol@@": 5476,
  "universe": 5477,
  "analyzes": 5478,
  "bas@@": 5479,
  "constitutional": 5480,
  "Yang": 5481,
  "Prevention": 5482,
  "filed": 5483,
  "observations": 5484,
  "extraordinary": 5485,
  "acted": 5486,
  "waited": 5487,
  "ination": 5488,
  "Bri@@": 5489,
  "ick@@": 5490,
  "enthusiasm": 5491,
  "Offr": 5492,
  "ce": 5493,
  "ances": 5494,
  "carries": 5495,
  "retirement": 5496,
  "Who": 5497,
  "ong@@": 5498,
  "wage": 5499,
  "broader": 5500,
  "fed": 5501,
  "conformity": 5502,
  "amid": 5503,
  "villages": 5504,
  "88": 5505,
  "sen@@": 5506,
  "ising": 5507,
  "Jones": 5508,
  "ore@@": 5509,
  "lists": 5510,
  "crew": 5511,
  "voters": 5512,
  "glory": 5513,
  "glasses": 5514,
  "Res@@": 5515,
  "denied": 5516,
  "suspect": 5517,
  "ord@@": 5518,
  "constraints": 5519,
  "beneath": 5520,
  "ah@@": 5521,
  "holes": 5522,
  "romantic": 5523,
  "mere": 5524,
  "rats": 5525,
  "pop": 5526,
  "Ma@@": 5527,
  "tro@@": 5528,
  "ish@@": 5529,
  "immune": 5530,
  "win@@": 5531,
  "69": 5532,
  "ft": 5533,
  "suspended": 5534,
  "han@@": 5535,
  "farmer": 5536,
  "brush": 5537,
  "&gt;": 5538,
  "logistics": 5539,
  "spectrum": 5540,
  "nursing": 5541,
  "shooting": 5542,
  "top@@": 5543,
  "investigations": 5544,
  "sincere": 5545,
  "temple": 5546,
  "Two": 5547,
  "02": 5548,
  "eli@@": 5549,
  "Ti@@": 5550,
  "Father": 5551,
  "pul@@": 5552,
  "78": 5553,
  "angel": 5554,
  "ids": 5555,
  "ple": 5556,
  "whereas": 5557,
  "C.": 5558,
  "memories": 5559,
  "ums": 5560,
  "dramatic": 5561,
  "Tai": 5562,
  "ished": 5563,
  "shortly": 5564,
  "representing": 5565,
  "sponsors": 5566,
  "Shenzhen": 5567,
  "hung": 5568,
  "drivers": 5569,
  "exit": 5570,
  "posed": 5571,
  "98": 5572,
  "ov@@": 5573,
  "ide@@": 5574,
  "initially": 5575,
  "accelerate": 5576,
  "Covenant": 5577,
  "politicians": 5578,
  "arise": 5579,
  "13@@": 5580,
  "Richard": 5581,
  "ur": 5582,
  "reproductive": 5583,
  "clo@@": 5584,
  "gs": 5585,
  "lamp": 5586,
  "holidays": 5587,
  "viewed": 5588,
  "ory": 5589,
  "Construction": 5590,
  "invested": 5591,
  "ban@@": 5592,
  "bil@@": 5593,
  "Charles": 5594,
  "Pl@@": 5595,
  "ow": 5596,
  "ere": 5597,
  "rivers": 5598,
  "bor@@": 5599,
  "workshop": 5600,
  "elling": 5601,
  "eng": 5602,
  "mate": 5603,
  "imagination": 5604,
  "juice": 5605,
  "land@@": 5606,
  "advised": 5607,
  "Quality": 5608,
  "instant": 5609,
  "defend": 5610,
  "Well": 5611,
  "Man": 5612,
  "formulate": 5613,
  "ides": 5614,
  "possession": 5615,
  "pregnant": 5616,
  "blocks": 5617,
  "treasure": 5618,
  "ing.@@": 5619,
  "dozen": 5620,
  "sive": 5621,
  "anymore": 5622,
  "investor": 5623,
  "Can": 5624,
  "IC": 5625,
  "adjusted": 5626,
  "hero": 5627,
  "Ministers": 5628,
  "moments": 5629,
  "aviation": 5630,
  "County": 5631,
  "random": 5632,
  "Deputy": 5633,
  "toxic": 5634,
  "Dr@@": 5635,
  "After": 5636,
  "purchasing": 5637,
  "deaths": 5638,
  "gentle": 5639,
  "graduates": 5640,
  "Guangdong": 5641,
  "ged": 5642,
  "upset": 5643,
  "Im@@": 5644,
  "asks": 5645,
  "uncertainty": 5646,
  "cement": 5647,
  "mil@@": 5648,
  "anc@@": 5649,
  "hanging": 5650,
  "Moscow": 5651,
  "29@@": 5652,
  "AD@@": 5653,
  "96": 5654,
  "underlying": 5655,
  "League": 5656,
  "reveal": 5657,
  "ministers": 5658,
  "transform": 5659,
  "Mer@@": 5660,
  "firstly": 5661,
  "simultaneously": 5662,
  "sacrifice": 5663,
  "bomb": 5664,
  "Morgan": 5665,
  "distinct": 5666,
  "disk": 5667,
  "foreigners": 5668,
  "forgot": 5669,
  "filling": 5670,
  "equitable": 5671,
  "ath": 5672,
  "concert": 5673,
  "lit@@": 5674,
  "stepped": 5675,
  "concentrate": 5676,
  "emotions": 5677,
  "deficit": 5678,
  "Data": 5679,
  "Yes": 5680,
  "rac@@": 5681,
  "artistic": 5682,
  "IAEA": 5683,
  "shelter": 5684,
  "rolled": 5685,
  "ess@@": 5686,
  "Hu": 5687,
  "Jordan": 5688,
  "abandoned": 5689,
  "mortality": 5690,
  "adverse": 5691,
  "hydraulic": 5692,
  "Ming": 5693,
  "telecommunications": 5694,
  "displayed": 5695,
  "sec@@": 5696,
  "transparent": 5697,
  "lifted": 5698,
  "vary": 5699,
  "shake": 5700,
  "accomplished": 5701,
  "allowance": 5702,
  "crash": 5703,
  "troop": 5704,
  "subsidiary": 5705,
  "conscious": 5706,
  "kick": 5707,
  "detect": 5708,
  "elimination": 5709,
  "supplier": 5710,
  "79": 5711,
  "ach": 5712,
  "fever": 5713,
  "inventory": 5714,
  "compete": 5715,
  "ities": 5716,
  "flu": 5717,
  "grows": 5718,
  "Station": 5719,
  "ans@@": 5720,
  "dri@@": 5721,
  "Ukraine": 5722,
  "Fifth": 5723,
  "86": 5724,
  "lim@@": 5725,
  "mice": 5726,
  "failing": 5727,
  "pe": 5728,
  "partial": 5729,
  "ham": 5730,
  "inevitable": 5731,
  "10.@@": 5732,
  "organisations": 5733,
  "pres@@": 5734,
  "electro@@": 5735,
  "Good": 5736,
  "bitter": 5737,
  "abide": 5738,
  "feasible": 5739,
  "processed": 5740,
  "install": 5741,
  "shortage": 5742,
  "trace": 5743,
  "pile": 5744,
  "quit": 5745,
  "prof@@": 5746,
  "wore": 5747,
  "ED": 5748,
  "Fi@@": 5749,
  "tens": 5750,
  "drought": 5751,
  "92": 5752,
  "influenced": 5753,
  "organizing": 5754,
  "cas@@": 5755,
  "imp@@": 5756,
  "soup": 5757,
  "districts": 5758,
  "abstract": 5759,
  "tremendous": 5760,
  "defeat": 5761,
  "bones": 5762,
  "transit": 5763,
  "epidemic": 5764,
  "climb": 5765,
  "searching": 5766,
  "conversion": 5767,
  "particles": 5768,
  "duration": 5769,
  "flesh": 5770,
  "restaurants": 5771,
  "observer": 5772,
  "staying": 5773,
  "Communist": 5774,
  "Home": 5775,
  "suspension": 5776,
  "horses": 5777,
  "sti@@": 5778,
  "ment@@": 5779,
  "professionals": 5780,
  "precise": 5781,
  "rep@@": 5782,
  "com": 5783,
  "dates": 5784,
  "swim": 5785,
  "fies": 5786,
  "manual": 5787,
  "museum": 5788,
  "qualifications": 5789,
  "desired": 5790,
  "undertaking": 5791,
  "borne": 5792,
  "dev@@": 5793,
  "surveillance": 5794,
  "emphasize": 5795,
  "thoroughly": 5796,
  "mixture": 5797,
  "painful": 5798,
  "lend": 5799,
  "jet": 5800,
  "loading": 5801,
  "suspected": 5802,
  "correctly": 5803,
  "Bu@@": 5804,
  "assumed": 5805,
  "Political": 5806,
  "reporters": 5807,
  "debts": 5808,
  "hem@@": 5809,
  "bo": 5810,
  "socio": 5811,
  "factories": 5812,
  "approve": 5813,
  "she@@": 5814,
  "Cambodia": 5815,
  "lifetime": 5816,
  "Wu": 5817,
  "fulfil": 5818,
  "school@@": 5819,
  "ta@@": 5820,
  "complaint": 5821,
  "opposed": 5822,
  "oned": 5823,
  "B.": 5824,
  "AP@@": 5825,
  "pension": 5826,
  "seventh": 5827,
  "kin@@": 5828,
  "momentum": 5829,
  "orientation": 5830,
  "Mal@@": 5831,
  "PR@@": 5832,
  "odd": 5833,
  "Fed": 5834,
  "terminal": 5835,
  "ays": 5836,
  "distant": 5837,
  "chamber": 5838,
  "Bay": 5839,
  "injuries": 5840,
  "inv@@": 5841,
  "ey@@": 5842,
  "Form": 5843,
  "Academy": 5844,
  "advise": 5845,
  "Times": 5846,
  "strive": 5847,
  "by@@": 5848,
  "Rome": 5849,
  "nerve": 5850,
  "slip": 5851,
  "q@@": 5852,
  "guaranteed": 5853,
  "fulfill": 5854,
  "Model": 5855,
  "Moses": 5856,
  "reviews": 5857,
  "Nor@@": 5858,
  "classical": 5859,
  "gray": 5860,
  "Apple": 5861,
  "bet": 5862,
  "boards": 5863,
  "ladies": 5864,
  "94": 5865,
  "wireless": 5866,
  "04": 5867,
  "alleged": 5868,
  "sovereign": 5869,
  "Jean": 5870,
  "The@@": 5871,
  "dual": 5872,
  "ek": 5873,
  "extraction": 5874,
  "brilliant": 5875,
  "Medical": 5876,
  "tly": 5877,
  "Po@@": 5878,
  "Jo@@": 5879,
  "gathering": 5880,
  "essentially": 5881,
  "internationally": 5882,
  "fabric": 5883,
  "buyers": 5884,
  "exp@@": 5885,
  "borders": 5886,
  "ome": 5887,
  "recording": 5888,
  "News": 5889,
  "ON@@": 5890,
  "Argentina": 5891,
  "Pol@@": 5892,
  "SO@@": 5893,
  "affair": 5894,
  "demonstration": 5895,
  "81": 5896,
  "drag": 5897,
  "L.@@": 5898,
  "Northern": 5899,
  "parking": 5900,
  "updated": 5901,
  "curriculum": 5902,
  "pursued": 5903,
  "ind@@": 5904,
  "recover": 5905,
  "ji@@": 5906,
  "CD": 5907,
  "existed": 5908,
  "unprecedented": 5909,
  "bell": 5910,
  "ious": 5911,
  "worn": 5912,
  "93": 5913,
  "journalists": 5914,
  "dissemination": 5915,
  "mathematical": 5916,
  "module": 5917,
  "und@@": 5918,
  "Dec@@": 5919,
  "Shi@@": 5920,
  "festival": 5921,
  "Elizabeth": 5922,
  "responses": 5923,
  "jo@@": 5924,
  "constructed": 5925,
  "limitation": 5926,
  "colleges": 5927,
  "pack": 5928,
  "att@@": 5929,
  "robot": 5930,
  "CS@@": 5931,
  "download": 5932,
  "backed": 5933,
  "forgive": 5934,
  "centers": 5935,
  "diverse": 5936,
  "compulsory": 5937,
  "behold": 5938,
  "valley": 5939,
  "classic": 5940,
  "Other": 5941,
  "Based": 5942,
  "gratitude": 5943,
  "Corporation": 5944,
  "intend": 5945,
  "Islands": 5946,
  "ka": 5947,
  "RMB": 5948,
  "engagement": 5949,
  "By": 5950,
  "La@@": 5951,
  "Panel": 5952,
  "graphic": 5953,
  "deemed": 5954,
  "velocity": 5955,
  "wherever": 5956,
  "actors": 5957,
  "declare": 5958,
  "brave": 5959,
  "endorsed": 5960,
  "aggressive": 5961,
  "Hongkong": 5962,
  "Any": 5963,
  "ake": 5964,
  "navigation": 5965,
  "bling": 5966,
  "ented": 5967,
  "ac": 5968,
  "repeatedly": 5969,
  "centuries": 5970,
  "fool": 5971,
  "tim@@": 5972,
  "sharply": 5973,
  "youre": 5974,
  "TO": 5975,
  "deserve": 5976,
  "frozen": 5977,
  "pray": 5978,
  "flew": 5979,
  "pale": 5980,
  "91": 5981,
  "ole": 5982,
  "synthesis": 5983,
  "talents": 5984,
  "Bl@@": 5985,
  "ei@@": 5986,
  "del@@": 5987,
  "pushing": 5988,
  "radi@@": 5989,
  "girlfriend": 5990,
  "adopting": 5991,
  "preservation": 5992,
  "weakness": 5993,
  "occupational": 5994,
  "D.": 5995,
  "900": 5996,
  "listened": 5997,
  "accomplish": 5998,
  "nutrition": 5999,
  "dic@@": 6000,
  "interior": 6001,
  "subregional": 6002,
  "outlook": 6003,
  "engineer": 6004,
  "fuzzy": 6005,
  "assignment": 6006,
  "82": 6007,
  "des": 6008,
  "Fourth": 6009,
  "Network": 6010,
  "Foundation": 6011,
  "traveling": 6012,
  "that@@": 6013,
  "VI": 6014,
  "layout": 6015,
  "syn@@": 6016,
  "bars": 6017,
  "compromise": 6018,
  "dered": 6019,
  "Contract": 6020,
  "hire": 6021,
  "bath": 6022,
  "Gaza": 6023,
  "oma": 6024,
  "profession": 6025,
  "babies": 6026,
  "Palestine": 6027,
  "AM@@": 6028,
  "broadcast": 6029,
  "cer@@": 6030,
  "occasions": 6031,
  "1988": 6032,
  "walks": 6033,
  "genes": 6034,
  "AT": 6035,
  "tunnel": 6036,
  "Liberia": 6037,
  "literary": 6038,
  "fracture": 6039,
  "autonomy": 6040,
  "methodology": 6041,
  "specify": 6042,
  "protective": 6043,
  "welding": 6044,
  "warming": 6045,
  "mm": 6046,
  "ack@@": 6047,
  "boxes": 6048,
  "Ben@@": 6049,
  "crying": 6050,
  "eager": 6051,
  "seminars": 6052,
  "Pi@@": 6053,
  "Resources": 6054,
  "hunger": 6055,
  "winner": 6056,
  "deeper": 6057,
  "tends": 6058,
  "IL@@": 6059,
  "folk": 6060,
  "83": 6061,
  "wooden": 6062,
  "guarantees": 6063,
  "Manager": 6064,
  "reservoir": 6065,
  "evident": 6066,
  "Tri@@": 6067,
  "our@@": 6068,
  "Atlantic": 6069,
  "ements": 6070,
  "flame": 6071,
  "Ver@@": 6072,
  "somehow": 6073,
  "Governing": 6074,
  "battery": 6075,
  "thorough": 6076,
  "speaks": 6077,
  "awarded": 6078,
  "Family": 6079,
  "any@@": 6080,
  "cooling": 6081,
  "alizing": 6082,
  "alist": 6083,
  "withdraw": 6084,
  "assisted": 6085,
  "soci@@": 6086,
  "Are": 6087,
  "bel@@": 6088,
  "countryside": 6089,
  "na": 6090,
  "sor@@": 6091,
  "ures": 6092,
  "executed": 6093,
  "potentially": 6094,
  "borrow": 6095,
  "87": 6096,
  "tide": 6097,
  "promptly": 6098,
  "WHO": 6099,
  "expresses": 6100,
  "loaded": 6101,
  "budgetary": 6102,
  "reservation": 6103,
  "respected": 6104,
  "ton@@": 6105,
  "hadn": 6106,
  "Cha@@": 6107,
  "capture": 6108,
  "cigarette": 6109,
  "interim": 6110,
  "decreased": 6111,
  "mandates": 6112,
  "Black": 6113,
  "singer": 6114,
  "cher": 6115,
  "personally": 6116,
  "emotion": 6117,
  "predict": 6118,
  "afterwards": 6119,
  "editor": 6120,
  "combine": 6121,
  "bears": 6122,
  "resistant": 6123,
  "ame": 6124,
  "liable": 6125,
  "menu": 6126,
  "ports": 6127,
  "kingdom": 6128,
  "Gen@@": 6129,
  "possibilities": 6130,
  "quietly": 6131,
  "collecting": 6132,
  "spots": 6133,
  "consequence": 6134,
  "anxiety": 6135,
  "introducing": 6136,
  "concentrated": 6137,
  "meaningful": 6138,
  "periodic": 6139,
  "equ@@": 6140,
  "virtue": 6141,
  "eligible": 6142,
  "suicide": 6143,
  "Engineering": 6144,
  "sn@@": 6145,
  "Trans@@": 6146,
  "tumor": 6147,
  "holders": 6148,
  "focuses": 6149,
  "corporations": 6150,
  "SA": 6151,
  "promulgated": 6152,
  "keen": 6153,
  "verify": 6154,
  "Joseph": 6155,
  "hedge": 6156,
  "CE@@": 6157,
  "packed": 6158,
  "peacekeeping": 6159,
  "Registration": 6160,
  "appeals": 6161,
  "Daniel": 6162,
  "operated": 6163,
  "pet": 6164,
  "pricing": 6165,
  "passes": 6166,
  "diamond": 6167,
  "delayed": 6168,
  "assure": 6169,
  "prince": 6170,
  "IP": 6171,
  "Hall": 6172,
  "grid": 6173,
  "amp@@": 6174,
  "acknowledged": 6175,
  "craft": 6176,
  "tional": 6177,
  "por@@": 6178,
  "favorable": 6179,
  "settlements": 6180,
  "11.@@": 6181,
  "pos@@": 6182,
  "seminar": 6183,
  "ices": 6184,
  "ulation": 6185,
  "packaging": 6186,
  "wounded": 6187,
  "explains": 6188,
  "Third": 6189,
  "barriers": 6190,
  "responded": 6191,
  "flights": 6192,
  "salaries": 6193,
  "advances": 6194,
  "Technical": 6195,
  "outs": 6196,
  "1990s": 6197,
  "cap@@": 6198,
  "mut@@": 6199,
  "bow": 6200,
  "counter@@": 6201,
  "eling": 6202,
  "manufacturer": 6203,
  "choosing": 6204,
  "Republican": 6205,
  "Switzerland": 6206,
  "tracking": 6207,
  "considerations": 6208,
  "DNA": 6209,
  "Vietnam": 6210,
  "thread": 6211,
  "Nuclear": 6212,
  "Canadian": 6213,
  "plenary": 6214,
  "Hotel": 6215,
  "vers": 6216,
  "USA": 6217,
  "molecular": 6218,
  "laughter": 6219,
  "explosion": 6220,
  "dose": 6221,
  "knee": 6222,
  "ir": 6223,
  "din@@": 6224,
  "dictionary": 6225,
  "advancement": 6226,
  "publicity": 6227,
  "subsidies": 6228,
  "12.@@": 6229,
  "resort": 6230,
  "ries": 6231,
  "Museum": 6232,
  "unexpected": 6233,
  "Library": 6234,
  "Cl@@": 6235,
  "artists": 6236,
  "consult": 6237,
  "UR@@": 6238,
  "convenience": 6239,
  "didnt": 6240,
  "ino": 6241,
  "willingness": 6242,
  "sting": 6243,
  "mud": 6244,
  "checks": 6245,
  "foster": 6246,
  "graph": 6247,
  "integrate": 6248,
  "grace": 6249,
  "drunk": 6250,
  "preparatory": 6251,
  "thrown": 6252,
  "calculate": 6253,
  "targeted": 6254,
  "ignore": 6255,
  "isolated": 6256,
  "rises": 6257,
  "enjoying": 6258,
  "islands": 6259,
  "i.e.": 6260,
  "writers": 6261,
  "Ber@@": 6262,
  "Sam@@": 6263,
  "shoe": 6264,
  "harvest": 6265,
  "ills": 6266,
  "disappeared": 6267,
  "ID@@": 6268,
  "protocol": 6269,
  "gently": 6270,
  "We@@": 6271,
  "200@@": 6272,
  "ward": 6273,
  "ades": 6274,
  "Master": 6275,
  "day@@": 6276,
  "mutually": 6277,
  "favourable": 6278,
  "Lake": 6279,
  "ium": 6280,
  "virtually": 6281,
  "fiftieth": 6282,
  "ET@@": 6283,
  "influences": 6284,
  "ians": 6285,
  "Under": 6286,
  "reporter": 6287,
  "．": 6288,
  "Self": 6289,
  "coordinates": 6290,
  "quarters": 6291,
  "modeling": 6292,
  "tear": 6293,
  "seller": 6294,
  "damages": 6295,
  "qualification": 6296,
  "mill": 6297,
  "physics": 6298,
  "il": 6299,
  "thats": 6300,
  "Sweden": 6301,
  "risen": 6302,
  "tooth": 6303,
  "finite": 6304,
  "AS": 6305,
  "Work": 6306,
  "enabling": 6307,
  "nurse": 6308,
  "ef@@": 6309,
  "diplomacy": 6310,
  "fu@@": 6311,
  "tering": 6312,
  "eaten": 6313,
  "construct": 6314,
  "budgets": 6315,
  "prominent": 6316,
  "delicate": 6317,
  "Lehman": 6318,
  "comm@@": 6319,
  "medal": 6320,
  "play@@": 6321,
  "boom": 6322,
  "Si@@": 6323,
  "int@@": 6324,
  "bus@@": 6325,
  "psychology": 6326,
  "pregnancy": 6327,
  "Mother": 6328,
  "there@@": 6329,
  "pay@@": 6330,
  "night@@": 6331,
  "dimensions": 6332,
  "Military": 6333,
  "Cross": 6334,
  "sentences": 6335,
  "discussing": 6336,
  "hired": 6337,
  "ishing": 6338,
  "skilled": 6339,
  "hydrogen": 6340,
  "expressions": 6341,
  "united": 6342,
  "UNFPA": 6343,
  "pending": 6344,
  "ws": 6345,
  "5,@@": 6346,
  "independently": 6347,
  "stresses": 6348,
  "Southern": 6349,
  "Whoever": 6350,
  "rail": 6351,
  "coordinating": 6352,
  "IP@@": 6353,
  "84": 6354,
  "variation": 6355,
  "bite": 6356,
  "UNCTAD": 6357,
  "bio@@": 6358,
  "recruitment": 6359,
  "bidding": 6360,
  "capacities": 6361,
  "Assistance": 6362,
  "audio": 6363,
  "PL@@": 6364,
  "daughters": 6365,
  "rev@@": 6366,
  "steadily": 6367,
  "89": 6368,
  "orange": 6369,
  "advertisement": 6370,
  "oid": 6371,
  "princess": 6372,
  "dly": 6373,
  "pity": 6374,
  "tragedy": 6375,
  "Guangzhou": 6376,
  "dawn": 6377,
  "fought": 6378,
  "slight": 6379,
  "enabled": 6380,
  "norms": 6381,
  "gy": 6382,
  "votes": 6383,
  "burned": 6384,
  "computing": 6385,
  "assessments": 6386,
  "lung": 6387,
  "retain": 6388,
  "contr@@": 6389,
  "euro": 6390,
  "gravity": 6391,
  "tation": 6392,
  "Sha": 6393,
  "shoulders": 6394,
  "resumed": 6395,
  "dishes": 6396,
  "yl": 6397,
  "coating": 6398,
  "shed": 6399,
  "Tang": 6400,
  "woods": 6401,
  "brands": 6402,
  "retired": 6403,
  "patience": 6404,
  "weren": 6405,
  "stranger": 6406,
  "accurately": 6407,
  "encountered": 6408,
  "prompt": 6409,
  "incorporated": 6410,
  "constitution": 6411,
  "At@@": 6412,
  "moderate": 6413,
  "lifting": 6414,
  "Han": 6415,
  "absorption": 6416,
  "producer": 6417,
  "breathing": 6418,
  "joke": 6419,
  "restoration": 6420,
  "arguments": 6421,
  ".It": 6422,
  "lighting": 6423,
  "Please": 6424,
  "consistently": 6425,
  "sensitivity": 6426,
  "ace": 6427,
  "offence": 6428,
  "120": 6429,
  "deputy": 6430,
  "supplied": 6431,
  "floating": 6432,
  "snow@@": 6433,
  "comp@@": 6434,
  "transmitted": 6435,
  "fil@@": 6436,
  "bankruptcy": 6437,
  "associations": 6438,
  "mol@@": 6439,
  "developers": 6440,
  "10,000": 6441,
  "HA": 6442,
  "comparative": 6443,
  "Ste@@": 6444,
  "Assistant": 6445,
  "modest": 6446,
  "crowded": 6447,
  "combining": 6448,
  "Netherlands": 6449,
  "arm@@": 6450,
  "def@@": 6451,
  "2,000": 6452,
  "attach": 6453,
  "mile": 6454,
  "ok@@": 6455,
  "Ocean": 6456,
  "Airport": 6457,
  "horizontal": 6458,
  "rope": 6459,
  ".A": 6460,
  "casting": 6461,
  "flu@@": 6462,
  "royal": 6463,
  "piano": 6464,
  "entrusted": 6465,
  "roughly": 6466,
  "bled": 6467,
  "gentleman": 6468,
  "Wen": 6469,
  "gotta": 6470,
  "breaks": 6471,
  "ute": 6472,
  "dering": 6473,
  "Be": 6474,
  "PO@@": 6475,
  "painted": 6476,
  "rank": 6477,
  "ave": 6478,
  "vacuum": 6479,
  "Now": 6480,
  "conducive": 6481,
  "severely": 6482,
  "fun@@": 6483,
  "throat": 6484,
  "solidarity": 6485,
  "connections": 6486,
  "Muslim": 6487,
  "immigration": 6488,
  "masses": 6489,
  "detected": 6490,
  "scholars": 6491,
  "annually": 6492,
  "assured": 6493,
  "engineers": 6494,
  "sto@@": 6495,
  "Tax": 6496,
  "specially": 6497,
  "sorrow": 6498,
  "summarized": 6499,
  "one@@": 6500,
  "ables": 6501,
  "critics": 6502,
  "ce@@": 6503,
  "requiring": 6504,
  "ble@@": 6505,
  "carriage": 6506,
  "eg": 6507,
  "bedroom": 6508,
  "rap@@": 6509,
  "promising": 6510,
  "stamps": 6511,
  "fre@@": 6512,
  "rival": 6513,
  "smiled": 6514,
  "Hospital": 6515,
  "ugly": 6516,
  "inf@@": 6517,
  "generous": 6518,
  "alloy": 6519,
  "defects": 6520,
  "precisely": 6521,
  "shan": 6522,
  "ney": 6523,
  "gran@@": 6524,
  "Pre@@": 6525,
  "fa@@": 6526,
  "renewed": 6527,
  "inspired": 6528,
  "opens": 6529,
  "rem@@": 6530,
  "cluster": 6531,
  "scientist": 6532,
  "recalled": 6533,
  "torture": 6534,
  "Child": 6535,
  "Inter": 6536,
  "lecture": 6537,
  "notify": 6538,
  "controller": 6539,
  "ils": 6540,
  "PS": 6541,
  "develops": 6542,
  "arch@@": 6543,
  "Journal": 6544,
  "expects": 6545,
  "Use": 6546,
  "designer": 6547,
  "admission": 6548,
  "prosecution": 6549,
  "tre@@": 6550,
  "lawful": 6551,
  "Gar@@": 6552,
  "Du@@": 6553,
  "rows": 6554,
  "wealthy": 6555,
  "attacked": 6556,
  "Ba@@": 6557,
  "Transport": 6558,
  "No.@@": 6559,
  "sth": 6560,
  "conventions": 6561,
  "s.": 6562,
  "diabetes": 6563,
  "PA": 6564,
  "wed": 6565,
  "lease": 6566,
  "kindness": 6567,
  "bases": 6568,
  "Malaysia": 6569,
  "ama": 6570,
  "assisting": 6571,
  "analysed": 6572,
  "Vi@@": 6573,
  "reflecting": 6574,
  "meals": 6575,
  "Ger@@": 6576,
  "abundant": 6577,
  "Mag@@": 6578,
  "gri@@": 6579,
  "surveys": 6580,
  "terror": 6581,
  "Sub@@": 6582,
  "Industrial": 6583,
  "FAO": 6584,
  "fraud": 6585,
  "km": 6586,
  "landing": 6587,
  "priest": 6588,
  "freight": 6589,
  "divide": 6590,
  "crossed": 6591,
  "Cap@@": 6592,
  "efficiently": 6593,
  "succeeded": 6594,
  "Pr@@": 6595,
  "Yuan": 6596,
  "pm": 6597,
  "Award": 6598,
  "vegetable": 6599,
  "Coordination": 6600,
  "radar": 6601,
  "reserved": 6602,
  "fr@@": 6603,
  "plan@@": 6604,
  "generating": 6605,
  "matching": 6606,
  "infected": 6607,
  "Kuwait": 6608,
  "calendar": 6609,
  "petroleum": 6610,
  "winds": 6611,
  "ire": 6612,
  "volunteers": 6613,
  "affection": 6614,
  "with@@": 6615,
  "ethics": 6616,
  "handsome": 6617,
  "ises": 6618,
  "resist": 6619,
  "enables": 6620,
  "bowl": 6621,
  "Survey": 6622,
  "eth": 6623,
  "fatigue": 6624,
  "icity": 6625,
  "Senate": 6626,
  "spell": 6627,
  "poetry": 6628,
  "letting": 6629,
  "economist": 6630,
  "dominant": 6631,
  "rat": 6632,
  "competitiveness": 6633,
  "purchased": 6634,
  "pulse": 6635,
  "qui@@": 6636,
  "attitudes": 6637,
  "privacy": 6638,
  "hai": 6639,
  "inquiry": 6640,
  "bubble": 6641,
  "Insurance": 6642,
  "97": 6643,
  "Capital": 6644,
  "contest": 6645,
  "sel@@": 6646,
  "inclusion": 6647,
  "knock": 6648,
  "enc@@": 6649,
  "identifying": 6650,
  "cont@@": 6651,
  "stretch": 6652,
  "smiling": 6653,
  "Swiss": 6654,
  "ther": 6655,
  "e.g.": 6656,
  "red@@": 6657,
  "impacts": 6658,
  "Mac@@": 6659,
  "IM@@": 6660,
  "Thomas": 6661,
  "ups": 6662,
  "promises": 6663,
  "shook": 6664,
  "€": 6665,
  "Works": 6666,
  "2nd": 6667,
  "investing": 6668,
  "zz@@": 6669,
  "leisure": 6670,
  "segment": 6671,
  "pursuing": 6672,
  "bulk": 6673,
  "automobile": 6674,
  "grey": 6675,
  "clever": 6676,
  "Not": 6677,
  "fold": 6678,
  "Z": 6679,
  "publishing": 6680,
  "don@@": 6681,
  "governor": 6682,
  "indispensable": 6683,
  "SS": 6684,
  "Norway": 6685,
  "consolidation": 6686,
  "shame": 6687,
  "ranging": 6688,
  "membrane": 6689,
  "sisters": 6690,
  "joining": 6691,
  "minded": 6692,
  "crossing": 6693,
  "expecting": 6694,
  "offset": 6695,
  "inadequate": 6696,
  "reader": 6697,
  "outlined": 6698,
  "acknowledge": 6699,
  "boring": 6700,
  "stri@@": 6701,
  "Investment": 6702,
  "visa": 6703,
  "degradation": 6704,
  "temperatures": 6705,
  "pig": 6706,
  "quantitative": 6707,
  "cheaper": 6708,
  "ences": 6709,
  "unnecessary": 6710,
  "jacket": 6711,
  "traditionally": 6712,
  "seldom": 6713,
  "nights": 6714,
  "appoint": 6715,
  "ON": 6716,
  "Club": 6717,
  "RA@@": 6718,
  "bicycle": 6719,
  "distinction": 6720,
  "meantime": 6721,
  ".com": 6722,
  "DVD": 6723,
  "Products": 6724,
  "tures": 6725,
  "capita": 6726,
  "Los": 6727,
  "efficacy": 6728,
  "analytical": 6729,
  "complain": 6730,
  "pressed": 6731,
  "sponsored": 6732,
  "ceiling": 6733,
  "creativity": 6734,
  "ster@@": 6735,
  ",@@": 6736,
  "Rio": 6737,
  "spatial": 6738,
  "mess": 6739,
  "workshops": 6740,
  "seismic": 6741,
  "fusion": 6742,
  "ple@@": 6743,
  "p.m.": 6744,
  "unhappy": 6745,
  "pays": 6746,
  "Town": 6747,
  "CC@@": 6748,
  "From": 6749,
  "GM": 6750,
  "Ji@@": 6751,
  "disorder": 6752,
  "bal@@": 6753,
  "itation": 6754,
  "sophisticated": 6755,
  "hon@@": 6756,
  "cheese": 6757,
  "wars": 6758,
  "steal": 6759,
  "real@@": 6760,
  "LO@@": 6761,
  "threshold": 6762,
  "ingredients": 6763,
  "shaft": 6764,
  "MO@@": 6765,
  "negotiating": 6766,
  "ministry": 6767,
  "circular": 6768,
  "phrase": 6769,
  "appraisal": 6770,
  "sincerely": 6771,
  "expressing": 6772,
  "Five": 6773,
  "bly": 6774,
  "El": 6775,
  "grasp": 6776,
  "tar@@": 6777,
  "lover": 6778,
  "law@@": 6779,
  "amendment": 6780,
  "Austria": 6781,
  "cattle": 6782,
  "china": 6783,
  "syndrome": 6784,
  "spirits": 6785,
  "US@@": 6786,
  "anticipated": 6787,
  "Gulf": 6788,
  "sheets": 6789,
  "Lands": 6790,
  "subjected": 6791,
  "prediction": 6792,
  "Our": 6793,
  "revenues": 6794,
  "accepting": 6795,
  "label": 6796,
  "lab": 6797,
  "trick": 6798,
  "chi@@": 6799,
  "notification": 6800,
  "mathematics": 6801,
  "witnesses": 6802,
  "tan@@": 6803,
  "elegant": 6804,
  "Program": 6805,
  "fined": 6806,
  "cro@@": 6807,
  "journal": 6808,
  "ty@@": 6809,
  "hunting": 6810,
  "7,@@": 6811,
  "attempted": 6812,
  "stolen": 6813,
  "strip": 6814,
  "Then": 6815,
  "sul@@": 6816,
  "spreading": 6817,
  "drama": 6818,
  "om": 6819,
  "musical": 6820,
  "imaging": 6821,
  "charity": 6822,
  "These": 6823,
  "slept": 6824,
  "confirmation": 6825,
  "Operations": 6826,
  "NGOs": 6827,
  "accountability": 6828,
  "EC": 6829,
  "Fu@@": 6830,
  "ethical": 6831,
  "pressures": 6832,
  "Sr": 6833,
  "hotels": 6834,
  "cultivation": 6835,
  "beef": 6836,
  "nonlinear": 6837,
  "analyst": 6838,
  "issuing": 6839,
  "bent": 6840,
  "pink": 6841,
  "yp@@": 6842,
  "ED@@": 6843,
  "loc@@": 6844,
  "clerk": 6845,
  "barrel": 6846,
  "differential": 6847,
  "posted": 6848,
  "Open": 6849,
  "Goldman": 6850,
  "phenomena": 6851,
  "tot@@": 6852,
  "Wal@@": 6853,
  "Sol@@": 6854,
  "buyer": 6855,
  "Team": 6856,
  "ail@@": 6857,
  "portfolio": 6858,
  "anxious": 6859,
  "breeding": 6860,
  "decisive": 6861,
  "migrant": 6862,
  "wives": 6863,
  "Des@@": 6864,
  "accommodation": 6865,
  "valued": 6866,
  "ram@@": 6867,
  "mit@@": 6868,
  "Stanley": 6869,
  "Susan": 6870,
  "blessed": 6871,
  "sooner": 6872,
  "insufficient": 6873,
  "boats": 6874,
  "plug": 6875,
  "pin@@": 6876,
  "ella": 6877,
  "installations": 6878,
  "Territory": 6879,
  "neuro@@": 6880,
  "listing": 6881,
  "hoc": 6882,
  "scared": 6883,
  "person@@": 6884,
  "captured": 6885,
  "AN": 6886,
  "mic@@": 6887,
  "authorization": 6888,
  "Letter": 6889,
  "Tur@@": 6890,
  "legally": 6891,
  "v.": 6892,
  "poses": 6893,
  "drops": 6894,
  "loop": 6895,
  "clay": 6896,
  "accounted": 6897,
  "Standard": 6898,
  "reception": 6899,
  "surgical": 6900,
  "SP@@": 6901,
  "infant": 6902,
  "considerably": 6903,
  "tensions": 6904,
  "surrounded": 6905,
  "ica": 6906,
  "men@@": 6907,
  "AP": 6908,
  "pillar": 6909,
  "happily": 6910,
  "noble": 6911,
  "wolf": 6912,
  "rocket": 6913,
  "Is@@": 6914,
  "fierce": 6915,
  "Bob": 6916,
  "proposes": 6917,
  "Afghan": 6918,
  "ces": 6919,
  "Johnson": 6920,
  "yn@@": 6921,
  "enhancement": 6922,
  "Preparatory": 6923,
  "Al": 6924,
  "illegally": 6925,
  "dro@@": 6926,
  "aps": 6927,
  "argued": 6928,
  "Certificate": 6929,
  "premium": 6930,
  "delays": 6931,
  "Implementation": 6932,
  "CO": 6933,
  "cancel": 6934,
  "midnight": 6935,
  "intr@@": 6936,
  "delicious": 6937,
  "ruled": 6938,
  "dull": 6939,
  "camps": 6940,
  "hills": 6941,
  "Crime": 6942,
  "upgrade": 6943,
  "Countries": 6944,
  "1st": 6945,
  "py": 6946,
  "ographic": 6947,
  "Steve": 6948,
  "hear@@": 6949,
  "fire@@": 6950,
  "new@@": 6951,
  "reservations": 6952,
  "attending": 6953,
  "rental": 6954,
  "Strategy": 6955,
  "slope": 6956,
  "alike": 6957,
  "perceived": 6958,
  "economically": 6959,
  "timing": 6960,
  "occasionally": 6961,
  "Do@@": 6962,
  "Basic": 6963,
  "colored": 6964,
  "ao@@": 6965,
  "quarantine": 6966,
  "motivation": 6967,
  "ranks": 6968,
  "unions": 6969,
  "ax": 6970,
  "Pri@@": 6971,
  "Ob@@": 6972,
  "emission": 6973,
  "shower": 6974,
  "supplementary": 6975,
  "pharmaceutical": 6976,
  "outline": 6977,
  "ger@@": 6978,
  "Market": 6979,
  "Philippines": 6980,
  "Art": 6981,
  "amendments": 6982,
  "modification": 6983,
  "flowing": 6984,
  "pan": 6985,
  "lig@@": 6986,
  "sunshine": 6987,
  "predicted": 6988,
  "apping": 6989,
  "classified": 6990,
  "educated": 6991,
  "CC": 6992,
  ".鈥": 6993,
  "oul@@": 6994,
  "riding": 6995,
  "ure@@": 6996,
  "elled": 6997,
  "screw": 6998,
  "traders": 6999,
  "conviction": 7000,
  "black@@": 7001,
  "Me": 7002,
  "TA@@": 7003,
  "likewise": 7004,
  "toys": 7005,
  "med@@": 7006,
  "1980": 7007,
  "Old": 7008,
  "associate": 7009,
  "CT": 7010,
  "appreciated": 7011,
  "Xinjiang": 7012,
  "obtaining": 7013,
  "struggling": 7014,
  "officially": 7015,
  "conscience": 7016,
  "challenging": 7017,
  "taxation": 7018,
  "Order": 7019,
  "barely": 7020,
  "aking": 7021,
  "Its": 7022,
  "invites": 7023,
  "fled": 7024,
  "OAU": 7025,
  "Wil@@": 7026,
  "displacement": 7027,
  "deformation": 7028,
  "statutory": 7029,
  "kilometres": 7030,
  "IMF": 7031,
  "ignored": 7032,
  "notion": 7033,
  "til@@": 7034,
  "Provisions": 7035,
  "LE@@": 7036,
  "MI@@": 7037,
  "ug@@": 7038,
  "lit": 7039,
  "Gi@@": 7040,
  "magnitude": 7041,
  "creatures": 7042,
  "bing": 7043,
  "witnessed": 7044,
  "hygiene": 7045,
  "conservative": 7046,
  "fax": 7047,
  "styles": 7048,
  "Nigeria": 7049,
  "pit@@": 7050,
  "Val@@": 7051,
  "publicly": 7052,
  "Frank": 7053,
  "Subcommittee": 7054,
  "traditions": 7055,
  "contingent": 7056,
  "Spring": 7057,
  "foot@@": 7058,
  "ros@@": 7059,
  "temporarily": 7060,
  "Poland": 7061,
  "objection": 7062,
  "bol@@": 7063,
  "blade": 7064,
  "deny": 7065,
  "incentives": 7066,
  "aesthetic": 7067,
  "lab@@": 7068,
  "Turkish": 7069,
  "dy@@": 7070,
  "knocked": 7071,
  "Bosnian": 7072,
  "allegations": 7073,
  "deliberations": 7074,
  "aluminum": 7075,
  "ound": 7076,
  "ater": 7077,
  "vo@@": 7078,
  "Mu@@": 7079,
  "boyfriend": 7080,
  "creature": 7081,
  "inhabitants": 7082,
  "No@@": 7083,
  "bold": 7084,
  "spl@@": 7085,
  "Scientific": 7086,
  "transfers": 7087,
  "passport": 7088,
  "isolation": 7089,
  "specifications": 7090,
  "threatening": 7091,
  "washed": 7092,
  "eth@@": 7093,
  "safely": 7094,
  "aming": 7095,
  "Securities": 7096,
  "differ": 7097,
  "dioxide": 7098,
  "lord": 7099,
  "Angeles": 7100,
  "muscles": 7101,
  "snake": 7102,
  "earliest": 7103,
  "ate@@": 7104,
  "extending": 7105,
  "impressive": 7106,
  "devil": 7107,
  "proven": 7108,
  "insisted": 7109,
  "plates": 7110,
  "ris@@": 7111,
  "certification": 7112,
  "neighbouring": 7113,
  "IR@@": 7114,
  "PC@@": 7115,
  "rear": 7116,
  "port@@": 7117,
  "correction": 7118,
  "---@@": 7119,
  "protest": 7120,
  "revision": 7121,
  "Hy@@": 7122,
  "pro": 7123,
  "desirable": 7124,
  "striking": 7125,
  "conc@@": 7126,
  "receives": 7127,
  "tackle": 7128,
  "ude": 7129,
  "layers": 7130,
  "revolutionary": 7131,
  "fragile": 7132,
  "SH@@": 7133,
  "globe": 7134,
  "focal": 7135,
  "performances": 7136,
  "barrier": 7137,
  "spec@@": 7138,
  "counsel": 7139,
  "uring": 7140,
  "6,@@": 7141,
  "endless": 7142,
  "IF@@": 7143,
  "poll": 7144,
  "ancy": 7145,
  "Je@@": 7146,
  "postal": 7147,
  "racism": 7148,
  "quantities": 7149,
  "1987": 7150,
  "recovered": 7151,
  "elect": 7152,
  "toll": 7153,
  "ford": 7154,
  "liquidity": 7155,
  "substantially": 7156,
  "indication": 7157,
  "calcium": 7158,
  "congress": 7159,
  "substitute": 7160,
  "kes": 7161,
  "Ri@@": 7162,
  "bles": 7163,
  "bre@@": 7164,
  "approached": 7165,
  "ners": 7166,
  "wondered": 7167,
  "Parliament": 7168,
  "sells": 7169,
  "custody": 7170,
  "owns": 7171,
  "extract": 7172,
  "nit@@": 7173,
  "Myanmar": 7174,
  "deadline": 7175,
  "reaches": 7176,
  "ush@@": 7177,
  "Will": 7178,
  "mobilization": 7179,
  "Have": 7180,
  "encounter": 7181,
  "freedoms": 7182,
  "guiding": 7183,
  "researches": 7184,
  "stimulus": 7185,
  "limitations": 7186,
  "perception": 7187,
  "restored": 7188,
  "hur@@": 7189,
  "incurred": 7190,
  "sis": 7191,
  "time@@": 7192,
  "trigger": 7193,
  "drilling": 7194,
  "surprising": 7195,
  "ax@@": 7196,
  "noon": 7197,
  "competitors": 7198,
  "pec@@": 7199,
  "grandfather": 7200,
  "settings": 7201,
  "pin": 7202,
  "Windows": 7203,
  "reinforced": 7204,
  "ori@@": 7205,
  "assurance": 7206,
  "geological": 7207,
  "sphere": 7208,
  "mystery": 7209,
  "Royal": 7210,
  "Trust": 7211,
  "Yu": 7212,
  "employ": 7213,
  "distinguished": 7214,
  "persistent": 7215,
  "dynamics": 7216,
  "tent": 7217,
  "paintings": 7218,
  "congresses": 7219,
  "junior": 7220,
  "negotiate": 7221,
  "avoided": 7222,
  "awards": 7223,
  "planted": 7224,
  "disappointed": 7225,
  "insist": 7226,
  "queen": 7227,
  "mighty": 7228,
  "versions": 7229,
  "fulness": 7230,
  "EN": 7231,
  "Er@@": 7232,
  "emergencies": 7233,
  "voted": 7234,
  "MS": 7235,
  "prisoner": 7236,
  "circles": 7237,
  "soccer": 7238,
  "counties": 7239,
  "pitch": 7240,
  "tations": 7241,
  "ep": 7242,
  "champion": 7243,
  "laughing": 7244,
  "Humanitarian": 7245,
  "ok": 7246,
  "impressed": 7247,
  "Corp.": 7248,
  "destiny": 7249,
  "altogether": 7250,
  "conception": 7251,
  "lar@@": 7252,
  "Po": 7253,
  "She@@": 7254,
  "Sam": 7255,
  "oh": 7256,
  "Export": 7257,
  "Because": 7258,
  "particle": 7259,
  "Premier": 7260,
  "humor": 7261,
  "trials": 7262,
  "palace": 7263,
  "shi@@": 7264,
  "Method": 7265,
  "ard@@": 7266,
  "boundaries": 7267,
  "a.@@": 7268,
  "UNITA": 7269,
  "Texas": 7270,
  "extr@@": 7271,
  "bride": 7272,
  "accessible": 7273,
  "sorts": 7274,
  "thief": 7275,
  "Mil@@": 7276,
  "basin": 7277,
  "Hol@@": 7278,
  "graduation": 7279,
  "slide": 7280,
  "defendant": 7281,
  "sho@@": 7282,
  "IG@@": 7283,
  "Inc": 7284,
  "fake": 7285,
  "midst": 7286,
  "ES@@": 7287,
  "UL@@": 7288,
  "neighbor": 7289,
  "cruel": 7290,
  "consolidated": 7291,
  "matches": 7292,
  "identical": 7293,
  "troubled": 7294,
  "inate": 7295,
  "neighbors": 7296,
  "Autonomous": 7297,
  "sunlight": 7298,
  "imperative": 7299,
  "neighbours": 7300,
  "reduces": 7301,
  "dam": 7302,
  "ential": 7303,
  "ishes": 7304,
  "liberty": 7305,
  "ams": 7306,
  "CPC": 7307,
  "Em@@": 7308,
  "exercising": 7309,
  "ran@@": 7310,
  "monopoly": 7311,
  "Kim": 7312,
  "Agriculture": 7313,
  "mild": 7314,
  "ese": 7315,
  "occurrence": 7316,
  "Pearl": 7317,
  "ashes": 7318,
  "poet": 7319,
  "Tin": 7320,
  "criminals": 7321,
  "ship@@": 7322,
  "seeks": 7323,
  "alter": 7324,
  "basket": 7325,
  "pole": 7326,
  "pped": 7327,
  "Card": 7328,
  "conf@@": 7329,
  "scores": 7330,
  "relay": 7331,
  "therapeutic": 7332,
  "lip": 7333,
  "responding": 7334,
  "mounted": 7335,
  "vitamin": 7336,
  "Staff": 7337,
  "Drug": 7338,
  "council": 7339,
  "t.@@": 7340,
  "weekly": 7341,
  "CEO": 7342,
  "sing@@": 7343,
  "rod": 7344,
  "beating": 7345,
  "regulate": 7346,
  "dressing": 7347,
  "ette": 7348,
  "safeguarding": 7349,
  "entrepreneurs": 7350,
  "AL": 7351,
  "ined": 7352,
  "ining": 7353,
  "ki": 7354,
  "alert": 7355,
  "golf": 7356,
  "butter": 7357,
  "Nature": 7358,
  "Treatment": 7359,
  "demanded": 7360,
  "variables": 7361,
  "magazines": 7362,
  "corrosion": 7363,
  "engaging": 7364,
  "pound": 7365,
  "Mark": 7366,
  "fancy": 7367,
  "thirds": 7368,
  "trap": 7369,
  "respects": 7370,
  "examining": 7371,
  "prevented": 7372,
  "despair": 7373,
  "probability": 7374,
  "ner@@": 7375,
  "facilitating": 7376,
  "mercy": 7377,
  "intends": 7378,
  "Harvard": 7379,
  "voices": 7380,
  "bare": 7381,
  "gods": 7382,
  "closure": 7383,
  "moisture": 7384,
  "Professional": 7385,
  "Wong": 7386,
  "essay": 7387,
  "tribute": 7388,
  "constituted": 7389,
  "blast": 7390,
  "laying": 7391,
  "uni@@": 7392,
  "bon@@": 7393,
  "radical": 7394,
  "optimistic": 7395,
  "references": 7396,
  "amended": 7397,
  "coefficient": 7398,
  "width": 7399,
  "contractor": 7400,
  "tal@@": 7401,
  "demanding": 7402,
  "laughed": 7403,
  "credibility": 7404,
  "apples": 7405,
  "concerted": 7406,
  "ATION": 7407,
  "crises": 7408,
  "dar@@": 7409,
  "elastic": 7410,
  "ank@@": 7411,
  "Principles": 7412,
  "removing": 7413,
  "13.@@": 7414,
  "shit": 7415,
  "farming": 7416,
  "son@@": 7417,
  "Relations": 7418,
  "tract": 7419,
  "climbing": 7420,
  "Te@@": 7421,
  "Mount": 7422,
  "publish": 7423,
  "Cur@@": 7424,
  "synthetic": 7425,
  "launching": 7426,
  "peasants": 7427,
  "grandmother": 7428,
  "absorbed": 7429,
  "flo@@": 7430,
  "accumulation": 7431,
  "Ford": 7432,
  "Denmark": 7433,
  "compounds": 7434,
  "poultry": 7435,
  "Movement": 7436,
  "travelling": 7437,
  "Test": 7438,
  "contractual": 7439,
  "termination": 7440,
  "eradication": 7441,
  "deserves": 7442,
  "VII": 7443,
  "breathe": 7444,
  "ata": 7445,
  "plot": 7446,
  "them@@": 7447,
  "furnace": 7448,
  "ket": 7449,
  "infectious": 7450,
  "embargo": 7451,
  "plasma": 7452,
  "dining": 7453,
  "masters": 7454,
  "rushed": 7455,
  "grades": 7456,
  "metals": 7457,
  "Ben": 7458,
  "drafting": 7459,
  "span": 7460,
  "alists": 7461,
  "www.@@": 7462,
  "defect": 7463,
  "long@@": 7464,
  "fitting": 7465,
  "placing": 7466,
  "Press": 7467,
  "proceeds": 7468,
  "Marine": 7469,
  "supervise": 7470,
  "ect": 7471,
  "announce": 7472,
  "creditors": 7473,
  "orbit": 7474,
  "bun@@": 7475,
  "kilometers": 7476,
  "add@@": 7477,
  "currencies": 7478,
  "popularity": 7479,
  "loads": 7480,
  "belonging": 7481,
  "suits": 7482,
  "tically": 7483,
  "edition": 7484,
  "incidence": 7485,
  "orderly": 7486,
  "Church": 7487,
  "Dutch": 7488,
  "influenza": 7489,
  "swear": 7490,
  "atomic": 7491,
  "gotten": 7492,
  "specification": 7493,
  "spr@@": 7494,
  "algorithms": 7495,
  "financed": 7496,
  "organisation": 7497,
  "isation": 7498,
  "incomes": 7499,
  "Por@@": 7500,
  "det@@": 7501,
  "BS": 7502,
  "owed": 7503,
  "calculating": 7504,
  "instances": 7505,
  "enter@@": 7506,
  "250": 7507,
  "Operation": 7508,
  "Mat@@": 7509,
  "100@@": 7510,
  "questioned": 7511,
  "repatriation": 7512,
  "Bal@@": 7513,
  "PDF": 7514,
  "probe": 7515,
  "confusion": 7516,
  "tap": 7517,
  "a.m.": 7518,
  "CSCE": 7519,
  "themes": 7520,
  "Holy": 7521,
  ",000": 7522,
  "fulfilled": 7523,
  "mag@@": 7524,
  "mayor": 7525,
  "biology": 7526,
  "greenhouse": 7527,
  "HKSAR": 7528,
  "way@@": 7529,
  "owe": 7530,
  "wondering": 7531,
  "rotation": 7532,
  "attribute": 7533,
  "idi@@": 7534,
  "inherent": 7535,
  "inch": 7536,
  "stricken": 7537,
  "lifestyle": 7538,
  "engines": 7539,
  "medi@@": 7540,
  "1980s": 7541,
  "hiding": 7542,
  "Ros@@": 7543,
  "stops": 7544,
  "Youth": 7545,
  "indicating": 7546,
  "abl@@": 7547,
  "Valentine": 7548,
  "billions": 7549,
  "flies": 7550,
  "trains": 7551,
  "convey": 7552,
  "guards": 7553,
  "viable": 7554,
  "Local": 7555,
  "delight": 7556,
  "marking": 7557,
  "aling": 7558,
  "environments": 7559,
  "flash": 7560,
  "rating": 7561,
  "reactions": 7562,
  "Ju@@": 7563,
  "congratulations": 7564,
  "alistic": 7565,
  "capit@@": 7566,
  "quar@@": 7567,
  "shelf": 7568,
  "deadly": 7569,
  "medicines": 7570,
  "Saudi": 7571,
  "pot@@": 7572,
  "Barack": 7573,
  "nic@@": 7574,
  "enquiries": 7575,
  "deb@@": 7576,
  "addresses": 7577,
  "UNESCO": 7578,
  "obliged": 7579,
  "Property": 7580,
  "blog": 7581,
  "toy": 7582,
  "reminded": 7583,
  "connecting": 7584,
  "14.@@": 7585,
  "Administrator": 7586,
  "evaluated": 7587,
  "Hel@@": 7588,
  "glance": 7589,
  "lacking": 7590,
  "acti@@": 7591,
  "modes": 7592,
  "excitement": 7593,
  "codes": 7594,
  "displays": 7595,
  "Cyprus": 7596,
  "Hollywood": 7597,
  "bin": 7598,
  "script": 7599,
  "agrees": 7600,
  "ro": 7601,
  "facial": 7602,
  "stimulate": 7603,
  "tragic": 7604,
  "Culture": 7605,
  "gang": 7606,
  "swing": 7607,
  "3,000": 7608,
  "respondents": 7609,
  "net@@": 7610,
  "Cre@@": 7611,
  "wrapped": 7612,
  "routes": 7613,
  "raises": 7614,
  "draws": 7615,
  "hood": 7616,
  "breeze": 7617,
  "socialism": 7618,
  "beliefs": 7619,
  "commander": 7620,
  "Pen@@": 7621,
  "utmost": 7622,
  "aunt": 7623,
  "radioactive": 7624,
  "Hon@@": 7625,
  "warehouse": 7626,
  "dried": 7627,
  "incentive": 7628,
  "blank": 7629,
  "leg@@": 7630,
  "torch": 7631,
  "wa@@": 7632,
  "hazardous": 7633,
  "villagers": 7634,
  "escaped": 7635,
  "proves": 7636,
  "tile": 7637,
  "St.": 7638,
  "locally": 7639,
  "stretched": 7640,
  "conjunction": 7641,
  "luggage": 7642,
  "obstacle": 7643,
  "relaxed": 7644,
  "accord": 7645,
  "sectoral": 7646,
  "lin": 7647,
  "100,000": 7648,
  "bother": 7649,
  "forestry": 7650,
  "decent": 7651,
  "worship": 7652,
  "robust": 7653,
  "hostile": 7654,
  "maintains": 7655,
  "poem": 7656,
  "realizing": 7657,
  "Change": 7658,
  "shine": 7659,
  "Point": 7660,
  "11@@": 7661,
  "theatre": 7662,
  "Big": 7663,
  "oldest": 7664,
  "vaccine": 7665,
  "BC": 7666,
  "rings": 7667,
  "jury": 7668,
  "threaten": 7669,
  "Welfare": 7670,
  "payable": 7671,
  "Helen": 7672,
  "reconsideration": 7673,
  "Dalai": 7674,
  "stairs": 7675,
  "adjustments": 7676,
  "bi": 7677,
  "ashed": 7678,
  "Yu@@": 7679,
  "int": 7680,
  "pledged": 7681,
  "garbage": 7682,
  "1985": 7683,
  "safeguards": 7684,
  "thickness": 7685,
  "toilet": 7686,
  "consolidate": 7687,
  "conform": 7688,
  "attaches": 7689,
  "Platform": 7690,
  "eve": 7691,
  "pit": 7692,
  "mapping": 7693,
  "Observer": 7694,
  "Commercial": 7695,
  "adhere": 7696,
  "cats": 7697,
  "sodium": 7698,
  "dramatically": 7699,
  "bankers": 7700,
  "contractors": 7701,
  "wal@@": 7702,
  "detained": 7703,
  "immigrants": 7704,
  "cognitive": 7705,
  "node": 7706,
  "convened": 7707,
  "asting": 7708,
  "show@@": 7709,
  "bonus": 7710,
  "ech@@": 7711,
  "sweat": 7712,
  "environmentally": 7713,
  "macro": 7714,
  "cabinet": 7715,
  "fifteen": 7716,
  "arbitrary": 7717,
  "merger": 7718,
  "instability": 7719,
  "za": 7720,
  "diagnostic": 7721,
  "dating": 7722,
  "minimize": 7723,
  "ologist": 7724,
  "electron": 7725,
  "cents": 7726,
  "grief": 7727,
  "celebration": 7728,
  "inal": 7729,
  "sav@@": 7730,
  "inevitably": 7731,
  "definite": 7732,
  "stan@@": 7733,
  "reg@@": 7734,
  "smuggling": 7735,
  "inheritance": 7736,
  "Circular": 7737,
  "administering": 7738,
  "friction": 7739,
  "Florida": 7740,
  "AB@@": 7741,
  "Cu@@": 7742,
  "tal": 7743,
  "let@@": 7744,
  "promotes": 7745,
  "pulling": 7746,
  "Char@@": 7747,
  "planes": 7748,
  "cow": 7749,
  "wool": 7750,
  "Fr@@": 7751,
  "transnational": 7752,
  "supervisory": 7753,
  "renewal": 7754,
  "shorter": 7755,
  "eas@@": 7756,
  "resolving": 7757,
  "placement": 7758,
  "ye@@": 7759,
  "Some": 7760,
  "directory": 7761,
  "shade": 7762,
  "progressive": 7763,
  "filing": 7764,
  "ili@@": 7765,
  "Palestinians": 7766,
  "Grand": 7767,
  "berg": 7768,
  "Fl@@": 7769,
  "tale": 7770,
  "tioned": 7771,
  "breach": 7772,
  "ideological": 7773,
  "therein": 7774,
  "Dad": 7775,
  "attributes": 7776,
  "wind@@": 7777,
  "lows": 7778,
  "differently": 7779,
  "thrust": 7780,
  "Cy@@": 7781,
  "Spirit": 7782,
  "gates": 7783,
  "comparing": 7784,
  "trac@@": 7785,
  "mas@@": 7786,
  "confused": 7787,
  "prevailing": 7788,
  "worries": 7789,
  "Judah": 7790,
  "vis@@": 7791,
  "sympathy": 7792,
  "pipeline": 7793,
  "exceeding": 7794,
  "Language": 7795,
  "diversification": 7796,
  "doc@@": 7797,
  "oth": 7798,
  "Cr@@": 7799,
  "crown": 7800,
  "Macau": 7801,
  "ION": 7802,
  "purchases": 7803,
  "freeze": 7804,
  "verified": 7805,
  "accelerated": 7806,
  "emergence": 7807,
  "Portugal": 7808,
  "Pur@@": 7809,
  "brains": 7810,
  "continuation": 7811,
  "McCain": 7812,
  "uncertain": 7813,
  "undertakings": 7814,
  "analyse": 7815,
  "1986": 7816,
  "Cairo": 7817,
  "Mongolia": 7818,
  "cru@@": 7819,
  "bathroom": 7820,
  "igh@@": 7821,
  "mask": 7822,
  "absorb": 7823,
  "secured": 7824,
  "prosperous": 7825,
  "him@@": 7826,
  "behaviors": 7827,
  "Little": 7828,
  "tiger": 7829,
  "futures": 7830,
  "Star": 7831,
  "oting": 7832,
  "abnormal": 7833,
  "consist": 7834,
  "recognizes": 7835,
  "FOR": 7836,
  "UNOSOM": 7837,
  "nationwide": 7838,
  "approaching": 7839,
  "bury": 7840,
  "mes@@": 7841,
  "ron": 7842,
  "modify": 7843,
  "climbed": 7844,
  "Democrats": 7845,
  "clearing": 7846,
  "erosion": 7847,
  "cave": 7848,
  "criterion": 7849,
  "deeds": 7850,
  "ink@@": 7851,
  "relevance": 7852,
  "photograph": 7853,
  "scenes": 7854,
  "powered": 7855,
  "Pal@@": 7856,
  "hybrid": 7857,
  "fat@@": 7858,
  "sealed": 7859,
  "formally": 7860,
  "27@@": 7861,
  "solely": 7862,
  "emerge": 7863,
  "irrigation": 7864,
  "eliminated": 7865,
  "adventure": 7866,
  "desperate": 7867,
  "resin": 7868,
  "rigid": 7869,
  "temper": 7870,
  "grants": 7871,
  "abundance": 7872,
  "emperor": 7873,
  "ins@@": 7874,
  "supporters": 7875,
  "disabilities": 7876,
  "maid": 7877,
  "break@@": 7878,
  "execute": 7879,
  "shy": 7880,
  "undoubtedly": 7881,
  "founding": 7882,
  "spray": 7883,
  "reviewing": 7884,
  "absent": 7885,
  "campaigns": 7886,
  "welcoming": 7887,
  "overwhelming": 7888,
  "ural": 7889,
  "shield": 7890,
  "cited": 7891,
  "Cheung": 7892,
  "3rd": 7893,
  "ign@@": 7894,
  "spo@@": 7895,
  "exceptional": 7896,
  "Daily": 7897,
  "verse": 7898,
  "embrace": 7899,
  "distinguish": 7900,
  "fare": 7901,
  "ambitious": 7902,
  "equations": 7903,
  "ti": 7904,
  "hast": 7905,
  "offensive": 7906,
  "flat@@": 7907,
  "bit@@": 7908,
  "cooked": 7909,
  "pping": 7910,
  "Tony": 7911,
  "chat": 7912,
  "prayer": 7913,
  "opponent": 7914,
  "reads": 7915,
  "reasonably": 7916,
  "rain@@": 7917,
  "congratulate": 7918,
  "cleared": 7919,
  "Statistics": 7920,
  "slowdown": 7921,
  "hook": 7922,
  "app@@": 7923,
  "query": 7924,
  "sustain": 7925,
  "enjoys": 7926,
  "password": 7927,
  "Guinea": 7928,
  "exhausted": 7929,
  "ric": 7930,
  "Natural": 7931,
  "Branch": 7932,
  "translated": 7933,
  "5th": 7934,
  "economical": 7935,
  "Medicine": 7936,
  "roller": 7937,
  "Lin": 7938,
  "seas": 7939,
  "hot@@": 7940,
  "sb": 7941,
  "div@@": 7942,
  "highlight": 7943,
  "planting": 7944,
  "charm": 7945,
  "alised": 7946,
  "mobilize": 7947,
  "exclusively": 7948,
  "dirt": 7949,
  "mount": 7950,
  "aspirations": 7951,
  "Au@@": 7952,
  "neighborhood": 7953,
  "varied": 7954,
  "wil@@": 7955,
  "envisaged": 7956,
  "dig": 7957,
  "dangers": 7958,
  "mul@@": 7959,
  "permits": 7960,
  "clubs": 7961,
  "sewage": 7962,
  "projected": 7963,
  "Serbia": 7964,
  "enjoyment": 7965,
  "lic@@": 7966,
  "impl@@": 7967,
  "21st": 7968,
  "balls": 7969,
  "stat@@": 7970,
  "tier": 7971,
  "adaptive": 7972,
  "duck": 7973,
  "alities": 7974,
  "feared": 7975,
  "wicked": 7976,
  "ski": 7977,
  ".1": 7978,
  "worlds": 7979,
  "gentlemen": 7980,
  "bye": 7981,
  "upward": 7982,
  "silly": 7983,
  "naked": 7984,
  "employing": 7985,
  "ket@@": 7986,
  "bridges": 7987,
  "buses": 7988,
  "Sports": 7989,
  "actress": 7990,
  "supplement": 7991,
  "wildlife": 7992,
  "assumption": 7993,
  "uan": 7994,
  "Rel@@": 7995,
  "renewable": 7996,
  "brick": 7997,
  "ut": 7998,
  "pon@@": 7999,
  "equilibrium": 8000,
  "liber@@": 8001,
  "fro@@": 8002,
  "axis": 8003,
  "Round": 8004,
  "favourite": 8005,
  "invasion": 8006,
  "foolish": 8007,
  "reveals": 8008,
  "Qing": 8009,
  "50,000": 8010,
  "parks": 8011,
  "transformed": 8012,
  "Small": 8013,
  "nat@@": 8014,
  "mysterious": 8015,
  "passive": 8016,
  "Str@@": 8017,
  "finishing": 8018,
  "preserved": 8019,
  "apparatus": 8020,
  "Ive": 8021,
  "Sarah": 8022,
  "scenery": 8023,
  "amed": 8024,
  "bore": 8025,
  "preference": 8026,
  "combating": 8027,
  "panic": 8028,
  "fortunately": 8029,
  "duc@@": 8030,
  "Uganda": 8031,
  "Ser@@": 8032,
  "nitrogen": 8033,
  "Ku@@": 8034,
  "roses": 8035,
  "examinations": 8036,
  "pupils": 8037,
  "scattered": 8038,
  "surge": 8039,
  "complement": 8040,
  "drives": 8041,
  "durable": 8042,
  "Valley": 8043,
  "flavor": 8044,
  "diameter": 8045,
  "illa": 8046,
  "liabilities": 8047,
  "adequately": 8048,
  "Chung": 8049,
  "continually": 8050,
  "improves": 8051,
  "quoted": 8052,
  "presidency": 8053,
  "geographic": 8054,
  "AD": 8055,
  "Room": 8056,
  "broadcasting": 8057,
  "terrorists": 8058,
  "hosted": 8059,
  "indirect": 8060,
  "optimum": 8061,
  "ement@@": 8062,
  "aying": 8063,
  "SD": 8064,
  "honesty": 8065,
  "edly": 8066,
  "heated": 8067,
  "tracks": 8068,
  "wastes": 8069,
  "selecting": 8070,
  "Mozambique": 8071,
  "enters": 8072,
  "drying": 8073,
  "nationals": 8074,
  "founder": 8075,
  "Tong": 8076,
  "16.@@": 8077,
  "Computer": 8078,
  "interviews": 8079,
  "opera": 8080,
  "tariff": 8081,
  "expectation": 8082,
  "referring": 8083,
  "8,@@": 8084,
  "neutral": 8085,
  "counting": 8086,
  "shaking": 8087,
  "stro@@": 8088,
  "UNDCP": 8089,
  "pigs": 8090,
  "accumulated": 8091,
  "math": 8092,
  "reliance": 8093,
  "judgement": 8094,
  "ains": 8095,
  "faults": 8096,
  "initi@@": 8097,
  "genius": 8098,
  "Systems": 8099,
  "institute": 8100,
  "depressed": 8101,
  "lean": 8102,
  "accommodate": 8103,
  "gener@@": 8104,
  "Inspection": 8105,
  "pie": 8106,
  "smoothly": 8107,
  "reinforce": 8108,
  "indicator": 8109,
  "110": 8110,
  "justified": 8111,
  "designers": 8112,
  "admire": 8113,
  "colonial": 8114,
  "volunteer": 8115,
  "positively": 8116,
  "mates": 8117,
  "wishing": 8118,
  "networking": 8119,
  "disability": 8120,
  "vain": 8121,
  "fitness": 8122,
  "Arts": 8123,
  "subprogramme": 8124,
  "licensing": 8125,
  "partially": 8126,
  "textile": 8127,
  "breakdown": 8128,
  "Bel@@": 8129,
  "landed": 8130,
  "generator": 8131,
  "vel@@": 8132,
  "ained": 8133,
  "grammar": 8134,
  "doubts": 8135,
  "jail": 8136,
  "neural": 8137,
  "consulting": 8138,
  "backward": 8139,
  "retained": 8140,
  "batch": 8141,
  "gged": 8142,
  "ions": 8143,
  "borrowing": 8144,
  "remuneration": 8145,
  "containers": 8146,
  "entr@@": 8147,
  "Persons": 8148,
  "wholly": 8149,
  "Field": 8150,
  "gay": 8151,
  "interfere": 8152,
  "dol@@": 8153,
  "inspiration": 8154,
  "stu@@": 8155,
  "pledge": 8156,
  "estimation": 8157,
  "halt": 8158,
  "abandon": 8159,
  "ared": 8160,
  "sters": 8161,
  "harsh": 8162,
  "chaos": 8163,
  "baseball": 8164,
  "electronics": 8165,
  "scr@@": 8166,
  "curious": 8167,
  "condemned": 8168,
  "sink": 8169,
  "wanting": 8170,
  "mediation": 8171,
  "clause": 8172,
  "infrared": 8173,
  "atics": 8174,
  "To@@": 8175,
  "demonstrates": 8176,
  "translate": 8177,
  "vocabulary": 8178,
  "comprises": 8179,
  "purple": 8180,
  "photographs": 8181,
  "sanitation": 8182,
  "preferential": 8183,
  "races": 8184,
  "persuade": 8185,
  "ading": 8186,
  "P.@@": 8187,
  "lightning": 8188,
  "Just": 8189,
  "poured": 8190,
  "ounding": 8191,
  "caring": 8192,
  "aining": 8193,
  "Senator": 8194,
  "Chang@@": 8195,
  "deck": 8196,
  "tune": 8197,
  "ison": 8198,
  "speculation": 8199,
  "Task": 8200,
  "clinic": 8201,
  "dozens": 8202,
  "physically": 8203,
  "defining": 8204,
  "highlighted": 8205,
  "ailing": 8206,
  "beaten": 8207,
  "elaborate": 8208,
  "exploring": 8209,
  "recipient": 8210,
  "offences": 8211,
  "compression": 8212,
  "reaffirmed": 8213,
  "dom": 8214,
  "eternal": 8215,
  "sman": 8216,
  "bamboo": 8217,
  "spe@@": 8218,
  "ony": 8219,
  "deputies": 8220,
  "catalyst": 8221,
  "nest": 8222,
  "ied": 8223,
  "intent": 8224,
  "cli@@": 8225,
  "eller": 8226,
  "San@@": 8227,
  "violated": 8228,
  "cord": 8229,
  "sible": 8230,
  "Regulation": 8231,
  "touching": 8232,
  "sensing": 8233,
  "avoiding": 8234,
  "apartheid": 8235,
  "maturity": 8236,
  "dominated": 8237,
  "troubles": 8238,
  "Main": 8239,
  "assign": 8240,
  "converted": 8241,
  "urgently": 8242,
  "eliminating": 8243,
  "colleague": 8244,
  "picking": 8245,
  "Ham@@": 8246,
  "Mac": 8247,
  "lovers": 8248,
  "surfaces": 8249,
  "Go": 8250,
  "zes": 8251,
  "wn": 8252,
  "Discrimination": 8253,
  "Athens": 8254,
  "appetite": 8255,
  "embedded": 8256,
  "4th": 8257,
  "fertility": 8258,
  "elec@@": 8259,
  "ano": 8260,
  "spaces": 8261,
  "Out@@": 8262,
  "Yi": 8263,
  "utilized": 8264,
  "NATO": 8265,
  "microwave": 8266,
  "varieties": 8267,
  "Acc@@": 8268,
  "disappear": 8269,
  "shots": 8270,
  "utilize": 8271,
  "Mediterranean": 8272,
  "Qi@@": 8273,
  "disclosure": 8274,
  "A.@@": 8275,
  "enforce": 8276,
  "internally": 8277,
  "Sp@@": 8278,
  "Pat@@": 8279,
  "unfair": 8280,
  "NO@@": 8281,
  "satellites": 8282,
  "oun@@": 8283,
  "PRC": 8284,
  "oxide": 8285,
  "baggage": 8286,
  "render": 8287,
  "kindly": 8288,
  "obey": 8289,
  "nuts": 8290,
  "readily": 8291,
  "vector": 8292,
  "Ram@@": 8293,
  "van": 8294,
  "dam@@": 8295,
  "Enterprise": 8296,
  "home@@": 8297,
  "forecasts": 8298,
  "compensate": 8299,
  "thro@@": 8300,
  "burnt": 8301,
  "investigating": 8302,
  "rendered": 8303,
  "Bible": 8304,
  "Benjamin": 8305,
  "Tu@@": 8306,
  "intensify": 8307,
  "cylinder": 8308,
  "dependence": 8309,
  "aked": 8310,
  "shining": 8311,
  "rest@@": 8312,
  "nail": 8313,
  "ga@@": 8314,
  "encouragement": 8315,
  "shocked": 8316,
  "compact": 8317,
  "faithful": 8318,
  "invented": 8319,
  "enclosed": 8320,
  "berry": 8321,
  "storms": 8322,
  "arose": 8323,
  "funeral": 8324,
  "spin": 8325,
  "diagram": 8326,
  "pointing": 8327,
  "outbreak": 8328,
  "hatred": 8329,
  "Jiang": 8330,
  "Jackson": 8331,
  "auto@@": 8332,
  "grab": 8333,
  "drank": 8334,
  "nearest": 8335,
  "atives": 8336,
  "liaison": 8337,
  "ap": 8338,
  "mandatory": 8339,
  "servicing": 8340,
  "hair@@": 8341,
  "drainage": 8342,
  "amine": 8343,
  "ghost": 8344,
  "succession": 8345,
  "writes": 8346,
  "coupled": 8347,
  "vigorous": 8348,
  "Sino": 8349,
  "Xinhua": 8350,
  "Mic@@": 8351,
  "bunch": 8352,
  "ress": 8353,
  "Fin@@": 8354,
  "deterioration": 8355,
  "farms": 8356,
  "bes": 8357,
  "explored": 8358,
  "adi@@": 8359,
  "Gre@@": 8360,
  "attain": 8361,
  "Id": 8362,
  "throwing": 8363,
  "useless": 8364,
  "quake": 8365,
  "transitional": 8366,
  "meteorological": 8367,
  "drill": 8368,
  "outdoor": 8369,
  "blew": 8370,
  "flour": 8371,
  "sail": 8372,
  "seize": 8373,
  "sauce": 8374,
  "Kenya": 8375,
  "castle": 8376,
  "supper": 8377,
  "sentiment": 8378,
  "minerals": 8379,
  "costly": 8380,
  "dness": 8381,
  "Studies": 8382,
  "enacted": 8383,
  "it.@@": 8384,
  "evolved": 8385,
  "consume": 8386,
  "Lu": 8387,
  "&apos;the": 8388,
  "arriving": 8389,
  "scenario": 8390,
  "Jacob": 8391,
  "Chamber": 8392,
  "fastest": 8393,
  "hypo@@": 8394,
  "lens": 8395,
  "jiang": 8396,
  "knees": 8397,
  "varying": 8398,
  "1978": 8399,
  "politically": 8400,
  "recurrent": 8401,
  "explosive": 8402,
  "alleviate": 8403,
  "huh": 8404,
  "lately": 8405,
  "Serb": 8406,
  "monkey": 8407,
  "aves": 8408,
  "ich": 8409,
  "sacred": 8410,
  "Port": 8411,
  "emphasizes": 8412,
  "Ping": 8413,
  "charming": 8414,
  "delighted": 8415,
  "dragon": 8416,
  "administered": 8417,
  "iled": 8418,
  "needle": 8419,
  "UNAMIR": 8420,
  "nowhere": 8421,
  "elementary": 8422,
  "ometer": 8423,
  "Uruguay": 8424,
  "Wei": 8425,
  "Ko@@": 8426,
  "novels": 8427,
  "determines": 8428,
  "ful@@": 8429,
  "od": 8430,
  "les@@": 8431,
  "tactics": 8432,
  "gases": 8433,
  "hazard": 8434,
  "fications": 8435,
  "tle": 8436,
  "Election": 8437,
  "Hor@@": 8438,
  "deficiency": 8439,
  "mainstream": 8440,
  "ys@@": 8441,
  "thanked": 8442,
  "met@@": 8443,
  "TR@@": 8444,
  "excluding": 8445,
  "manufactured": 8446,
  "blocked": 8447,
  "ed.@@": 8448,
  "countermeasures": 8449,
  "realities": 8450,
  "casual": 8451,
  "missiles": 8452,
  "organised": 8453,
  "multinational": 8454,
  "inspections": 8455,
  "initiate": 8456,
  "Ter@@": 8457,
  "exchanged": 8458,
  "testimony": 8459,
  "Weapons": 8460,
  "slipped": 8461,
  "ji": 8462,
  "forbidden": 8463,
  "Emperor": 8464,
  "presently": 8465,
  "ologic": 8466,
  "policeman": 8467,
  "trips": 8468,
  "specialist": 8469,
  "thirdly": 8470,
  "worm": 8471,
  "ranking": 8472,
  "inspect": 8473,
  "frontier": 8474,
  "gradual": 8475,
  "mus@@": 8476,
  "beds": 8477,
  "Kar@@": 8478,
  "altered": 8479,
  "Hill": 8480,
  "adjusting": 8481,
  "punish": 8482,
  "dismissed": 8483,
  "phases": 8484,
  "hop@@": 8485,
  "intermediate": 8486,
  "combustion": 8487,
  "Cap": 8488,
  "reaffirms": 8489,
  "aiming": 8490,
  "distress": 8491,
  "soap": 8492,
  "Sur@@": 8493,
  "1.5": 8494,
  "Super@@": 8495,
  "banned": 8496,
  "hes": 8497,
  "forthcoming": 8498,
  "vol@@": 8499,
  "rated": 8500,
  "CR@@": 8501,
  "confrontation": 8502,
  "failures": 8503,
  "TS": 8504,
  "consultants": 8505,
  "Offices": 8506,
  "interactive": 8507,
  "ity@@": 8508,
  "mel@@": 8509,
  "rers": 8510,
  "unemployed": 8511,
  "oversight": 8512,
  "Wh@@": 8513,
  "Reform": 8514,
  "eh": 8515,
  "elder": 8516,
  "cultivated": 8517,
  "C.@@": 8518,
  "remedy": 8519,
  "consultant": 8520,
  "motivated": 8521,
  "fox": 8522,
  "attempting": 8523,
  "My@@": 8524,
  "profitable": 8525,
  "Can@@": 8526,
  "diesel": 8527,
  "consisting": 8528,
  "sixty": 8529,
  "carpet": 8530,
  "titles": 8531,
  "cigarettes": 8532,
  "desertification": 8533,
  "offshore": 8534,
  "Enterprises": 8535,
  "websites": 8536,
  "boo@@": 8537,
  "Finland": 8538,
  "reportedly": 8539,
  "lazy": 8540,
  "doesnt": 8541,
  "certified": 8542,
  "ump": 8543,
  "Ke@@": 8544,
  "dat@@": 8545,
  "ze@@": 8546,
  "workplace": 8547,
  "ET": 8548,
  "compatible": 8549,
  "1.": 8550,
  "constructing": 8551,
  "relieve": 8552,
  "strikes": 8553,
  "conditioning": 8554,
  "hat@@": 8555,
  "ager": 8556,
  "dairy": 8557,
  "parliament": 8558,
  "1984": 8559,
  "ately": 8560,
  "ith": 8561,
  "Electronic": 8562,
  "talented": 8563,
  "straw": 8564,
  "incredible": 8565,
  "Ni@@": 8566,
  "hunt": 8567,
  "psych@@": 8568,
  "packages": 8569,
  "provider": 8570,
  "insects": 8571,
  "genocide": 8572,
  "demographic": 8573,
  "B.@@": 8574,
  "prejudice": 8575,
  "Tower": 8576,
  "residual": 8577,
  "gaining": 8578,
  "governed": 8579,
  "controversial": 8580,
  "foundations": 8581,
  "lav@@": 8582,
  "Bro@@": 8583,
  "turmoil": 8584,
  "fires": 8585,
  "reiterated": 8586,
  "read@@": 8587,
  "&apos;it": 8588,
  "Ed@@": 8589,
  "hosts": 8590,
  "Sydney": 8591,
  "fucking": 8592,
  "XX@@": 8593,
  "subway": 8594,
  "iss@@": 8595,
  "Francisco": 8596,
  "Mars": 8597,
  "Square": 8598,
  "Son": 8599,
  "Assessment": 8600,
  "cultivate": 8601,
  "Coordinator": 8602,
  "saith": 8603,
  "sen": 8604,
  "AR": 8605,
  "wheels": 8606,
  "Rent": 8607,
  "libraries": 8608,
  "warn": 8609,
  "CT@@": 8610,
  "Theory": 8611,
  "Rev@@": 8612,
  "managerial": 8613,
  "OR": 8614,
  "readiness": 8615,
  "catching": 8616,
  "rivals": 8617,
  "hometown": 8618,
  "peasant": 8619,
  "popul@@": 8620,
  "Observatory": 8621,
  "maps": 8622,
  "Zhou": 8623,
  "transmitting": 8624,
  "ition": 8625,
  "MA": 8626,
  "Palace": 8627,
  "Stephen": 8628,
  "rape": 8629,
  "maternal": 8630,
  "overnight": 8631,
  "destructive": 8632,
  "dial": 8633,
  "counted": 8634,
  "rage": 8635,
  "beloved": 8636,
  "manners": 8637,
  "fulfilling": 8638,
  "Free": 8639,
  "Bas@@": 8640,
  "cadres": 8641,
  "sni@@": 8642,
  "attendance": 8643,
  "trunk": 8644,
  "ambition": 8645,
  "Liverpool": 8646,
  "Questions": 8647,
  "umbrella": 8648,
  "venue": 8649,
  "electromagnetic": 8650,
  "BO@@": 8651,
  "woke": 8652,
  "morality": 8653,
  "rum@@": 8654,
  "tightly": 8655,
  "awake": 8656,
  "bureau": 8657,
  "iling": 8658,
  "shapes": 8659,
  "vic@@": 8660,
  "kidney": 8661,
  "theater": 8662,
  "deciding": 8663,
  "liquidation": 8664,
  "Right": 8665,
  "gam@@": 8666,
  "protests": 8667,
  "gated": 8668,
  "experiencing": 8669,
  "Uni@@": 8670,
  "ball@@": 8671,
  "now@@": 8672,
  "tom@@": 8673,
  "providers": 8674,
  "sends": 8675,
  "texture": 8676,
  "stopping": 8677,
  "activated": 8678,
  "envelope": 8679,
  "ara": 8680,
  "reject": 8681,
  "phot@@": 8682,
  "inches": 8683,
  "staffing": 8684,
  "lateral": 8685,
  "lane": 8686,
  "Colombia": 8687,
  "evaluating": 8688,
  "rude": 8689,
  "orally": 8690,
  "slowing": 8691,
  "Scotland": 8692,
  "Chinas": 8693,
  "gg@@": 8694,
  "yen": 8695,
  "eye@@": 8696,
  "utter": 8697,
  "anda": 8698,
  "class@@": 8699,
  "Madrid": 8700,
  "Tajikistan": 8701,
  "ani": 8702,
  "miserable": 8703,
  "pour": 8704,
  "suspend": 8705,
  "casualties": 8706,
  "grav@@": 8707,
  "colorful": 8708,
  "Bre@@": 8709,
  "mos@@": 8710,
  "continental": 8711,
  "Ag@@": 8712,
  "industrialized": 8713,
  "Class": 8714,
  "traded": 8715,
  "competing": 8716,
  "j": 8717,
  "consumed": 8718,
  "consuming": 8719,
  "restriction": 8720,
  "drum": 8721,
  "Chelsea": 8722,
  "Gates": 8723,
  "restrict": 8724,
  "cop@@": 8725,
  "ort": 8726,
  "structured": 8727,
  "screening": 8728,
  "scandal": 8729,
  "frightened": 8730,
  "convert": 8731,
  "mad@@": 8732,
  "nurses": 8733,
  "commits": 8734,
  "Bridge": 8735,
  "Country": 8736,
  "regulators": 8737,
  "statute": 8738,
  "Serbs": 8739,
  "itis": 8740,
  "ab": 8741,
  "Tourism": 8742,
  "supportive": 8743,
  "1949": 8744,
  "measurements": 8745,
  "Xiao": 8746,
  "fame": 8747,
  "hip": 8748,
  "sponsor": 8749,
  "well@@": 8750,
  "quest": 8751,
  "violate": 8752,
  "collapsed": 8753,
  "sits": 8754,
  "react": 8755,
  "stir": 8756,
  "ome@@": 8757,
  "Bangladesh": 8758,
  "scal@@": 8759,
  "Somali": 8760,
  "Anti": 8761,
  "icated": 8762,
  ".He": 8763,
  "olds": 8764,
  "cleansing": 8765,
  "Sa@@": 8766,
  "Mel@@": 8767,
  "2.": 8768,
  "sampling": 8769,
  "dense": 8770,
  "ases": 8771,
  "obesity": 8772,
  "columns": 8773,
  "specialists": 8774,
  "collar": 8775,
  "ez": 8776,
  "bottles": 8777,
  "fier": 8778,
  "ratification": 8779,
  "undermine": 8780,
  "adjacent": 8781,
  "swept": 8782,
  "lessly": 8783,
  "damn": 8784,
  "consultative": 8785,
  "0,000": 8786,
  "Mao": 8787,
  "attraction": 8788,
  "neg@@": 8789,
  "yi": 8790,
  "assessing": 8791,
  "magnificent": 8792,
  "confined": 8793,
  "mur@@": 8794,
  "cou@@": 8795,
  "allies": 8796,
  "pled": 8797,
  "105": 8798,
  "instantly": 8799,
  "consecutive": 8800,
  "Jews": 8801,
  "heal": 8802,
  "bull": 8803,
  "monitored": 8804,
  "pants": 8805,
  "winners": 8806,
  "longest": 8807,
  "inferior": 8808,
  "mechanics": 8809,
  "DP": 8810,
  "valuation": 8811,
  "stainless": 8812,
  "Sil@@": 8813,
  "Head": 8814,
  "trades": 8815,
  "tru@@": 8816,
  "loyal": 8817,
  "league": 8818,
  "Commonwealth": 8819,
  "ayed": 8820,
  "airline": 8821,
  "circumstance": 8822,
  "Book": 8823,
  "centr@@": 8824,
  "year@@": 8825,
  "Republicans": 8826,
  "formulating": 8827,
  "bullet": 8828,
  "Alan": 8829,
  "plat@@": 8830,
  "ba@@": 8831,
  "medals": 8832,
  "blessing": 8833,
  "candy": 8834,
  "sizes": 8835,
  "pine": 8836,
  "Alice": 8837,
  "counterparts": 8838,
  "nan@@": 8839,
  "tra@@": 8840,
  "justify": 8841,
  "io": 8842,
  "bot@@": 8843,
  "alongside": 8844,
  "shouted": 8845,
  "ratified": 8846,
  "War@@": 8847,
  "convicted": 8848,
  "confidential": 8849,
  "sign@@": 8850,
  "advocate": 8851,
  "apologize": 8852,
  "part@@": 8853,
  "ala": 8854,
  "anch@@": 8855,
  "livestock": 8856,
  "researched": 8857,
  "graduated": 8858,
  "subtle": 8859,
  "cancelled": 8860,
  "penalties": 8861,
  "izes": 8862,
  "Shan": 8863,
  "here@@": 8864,
  "stole": 8865,
  "indoor": 8866,
  "lied": 8867,
  "motherland": 8868,
  "dissertation": 8869,
  "mal": 8870,
  "24@@": 8871,
  "adopts": 8872,
  "kings": 8873,
  "Chi@@": 8874,
  "Men": 8875,
  "chains": 8876,
  "systematically": 8877,
  "hard@@": 8878,
  "some@@": 8879,
  "unclear": 8880,
  "mounting": 8881,
  "Fre@@": 8882,
  "shallow": 8883,
  "reluctant": 8884,
  "trusted": 8885,
  "amounted": 8886,
  "CN@@": 8887,
  "Del@@": 8888,
  "twin": 8889,
  "CL@@": 8890,
  "selfish": 8891,
  "macroeconomic": 8892,
  "drain": 8893,
  "ache": 8894,
  "Garden": 8895,
  "silicon": 8896,
  "skirt": 8897,
  "bleeding": 8898,
  "sle@@": 8899,
  "disc": 8900,
  "inclined": 8901,
  "remark": 8902,
  "act@@": 8903,
  "helicopter": 8904,
  "proceeding": 8905,
  "fence": 8906,
  "accession": 8907,
  "celebrated": 8908,
  "Saint": 8909,
  "aster": 8910,
  "ignorance": 8911,
  "texts": 8912,
  "endure": 8913,
  "monitors": 8914,
  "reaffirming": 8915,
  "doubled": 8916,
  "horizon": 8917,
  "Edward": 8918,
  "assuming": 8919,
  "EA": 8920,
  "relics": 8921,
  "Four": 8922,
  "CP@@": 8923,
  "rein@@": 8924,
  "Habitat": 8925,
  "cage": 8926,
  "deepen": 8927,
  "Zone": 8928,
  "protects": 8929,
  "issuance": 8930,
  "distribute": 8931,
  "Age": 8932,
  "aching": 8933,
  "suited": 8934,
  "automation": 8935,
  "eu@@": 8936,
  "cautious": 8937,
  "etc.": 8938,
  "blowing": 8939,
  "sion@@": 8940,
  "Emergency": 8941,
  "Xi@@": 8942,
  "sufficiently": 8943,
  "Customer": 8944,
  "pun@@": 8945,
  "nationalities": 8946,
  "divisions": 8947,
  "keywords": 8948,
  "trillion": 8949,
  "runner": 8950,
  "liberal": 8951,
  "emp@@": 8952,
  "zation": 8953,
  "SE": 8954,
  "IV@@": 8955,
  "negotiated": 8956,
  "headache": 8957,
  "Heads": 8958,
  "cousin": 8959,
  "Lesson": 8960,
  "VIII": 8961,
  "comparable": 8962,
  "roc@@": 8963,
  "auditing": 8964,
  "poison": 8965,
  "arch": 8966,
  "9,@@": 8967,
  "ater@@": 8968,
  "candle": 8969,
  "Sk@@": 8970,
  "sup@@": 8971,
  "tanks": 8972,
  "criticized": 8973,
  "declining": 8974,
  "seated": 8975,
  "curb": 8976,
  "speeds": 8977,
  "Personal": 8978,
  "Dar@@": 8979,
  "cinema": 8980,
  "nut": 8981,
  "neglect": 8982,
  "ASEAN": 8983,
  "reductions": 8984,
  "tended": 8985,
  "disclosed": 8986,
  "gun@@": 8987,
  "axial": 8988,
  "liberation": 8989,
  "Han@@": 8990,
  "mentally": 8991,
  "treatments": 8992,
  "rad@@": 8993,
  "tery": 8994,
  "trapped": 8995,
  "Digital": 8996,
  "fond": 8997,
  "refined": 8998,
  "assi@@": 8999,
  "row@@": 9000,
  "asylum": 9001,
  "Catherine": 9002,
  "Steel": 9003,
  "other@@": 9004,
  "on.@@": 9005,
  "tangible": 9006,
  "zinc": 9007,
  "Index": 9008,
  "slave": 9009,
  "band@@": 9010,
  "Thank": 9011,
  "wat@@": 9012,
  "Mom": 9013,
  "pollutants": 9014,
  "wins": 9015,
  "---": 9016,
  "cameras": 9017,
  "Sim@@": 9018,
  "advertisements": 9019,
  "delegates": 9020,
  "tag": 9021,
  "eful": 9022,
  "incorporate": 9023,
  "urgency": 9024,
  "kg": 9025,
  "dil@@": 9026,
  "visitor": 9027,
  "BP": 9028,
  "proteins": 9029,
  "ensures": 9030,
  "journalist": 9031,
  "idle": 9032,
  "ame@@": 9033,
  "regulated": 9034,
  "restraint": 9035,
  "fiction": 9036,
  "participant": 9037,
  "life@@": 9038,
  "dropping": 9039,
  "coalition": 9040,
  "gas@@": 9041,
  "spar@@": 9042,
  "wears": 9043,
  "Bor@@": 9044,
  "Defense": 9045,
  "withdrawn": 9046,
  "Catholic": 9047,
  "Stock": 9048,
  "alien": 9049,
  "Yahoo": 9050,
  "Dan@@": 9051,
  "Import": 9052,
  "dge": 9053,
  "mixing": 9054,
  "additionally": 9055,
  "aled": 9056,
  "sticks": 9057,
  "yang": 9058,
  "Come": 9059,
  "ILO": 9060,
  "aboard": 9061,
  "esti@@": 9062,
  "happier": 9063,
  "institutes": 9064,
  "aches": 9065,
  "convince": 9066,
  "23@@": 9067,
  "classmates": 9068,
  "Vol@@": 9069,
  "endeavour": 9070,
  "may@@": 9071,
  "appointments": 9072,
  "Berlin": 9073,
  "alliance": 9074,
  "wont": 9075,
  "hid": 9076,
  "strangers": 9077,
  "Ha@@": 9078,
  "Dan": 9079,
  "TO@@": 9080,
  "rejection": 9081,
  "worrying": 9082,
  "altitude": 9083,
  "Exhibition": 9084,
  "eco": 9085,
  "commands": 9086,
  "companion": 9087,
  "Syrian": 9088,
  "hammer": 9089,
  "Village": 9090,
  "possessed": 9091,
  "optimism": 9092,
  "immense": 9093,
  "conv@@": 9094,
  "ulated": 9095,
  "romance": 9096,
  "odds": 9097,
  "grinding": 9098,
  "interpret": 9099,
  "shear": 9100,
  "invisible": 9101,
  "hostilities": 9102,
  "municipality": 9103,
  "behave": 9104,
  "warmth": 9105,
  "ts@@": 9106,
  "adaptation": 9107,
  "ental": 9108,
  "Commander": 9109,
  "Simon": 9110,
  "Citigroup": 9111,
  "upstairs": 9112,
  "switching": 9113,
  "oot": 9114,
  "sunny": 9115,
  "ko": 9116,
  "Chile": 9117,
  "praised": 9118,
  "inputs": 9119,
  "contracting": 9120,
  "dor@@": 9121,
  "licensed": 9122,
  "transmit": 9123,
  "lob@@": 9124,
  "how@@": 9125,
  "horror": 9126,
  "chips": 9127,
  "sco@@": 9128,
  "iously": 9129,
  "fairness": 9130,
  "tum@@": 9131,
  "mp@@": 9132,
  "vigorously": 9133,
  "recycling": 9134,
  "Song": 9135,
  "aph@@": 9136,
  "ena": 9137,
  "breed": 9138,
  "Nobel": 9139,
  "polymer": 9140,
  "backs": 9141,
  "complementary": 9142,
  "reactor": 9143,
  "rays": 9144,
  "coherent": 9145,
  "forums": 9146,
  "fits": 9147,
  "wholesale": 9148,
  "optimize": 9149,
  "Refugees": 9150,
  "oceans": 9151,
  "ands": 9152,
  "aks": 9153,
  "survived": 9154,
  "Santa": 9155,
  "Hon": 9156,
  "healing": 9157,
  "101": 9158,
  "infl@@": 9159,
  "ada": 9160,
  "Sun@@": 9161,
  "je@@": 9162,
  "chairs": 9163,
  "formerly": 9164,
  "hyp@@": 9165,
  "Tai@@": 9166,
  "Light": 9167,
  "ceramic": 9168,
  "contracted": 9169,
  "coupling": 9170,
  "describing": 9171,
  "refuses": 9172,
  "freezing": 9173,
  "cleaner": 9174,
  "sadness": 9175,
  "intake": 9176,
  "zoo": 9177,
  "Jewish": 9178,
  "supermarket": 9179,
  "steep": 9180,
  "adapted": 9181,
  "molecules": 9182,
  "Line": 9183,
  "timetable": 9184,
  "zo@@": 9185,
  "rabbit": 9186,
  "exc@@": 9187,
  "gasoline": 9188,
  "inations": 9189,
  "Estate": 9190,
  "crum@@": 9191,
  "arity": 9192,
  "ologists": 9193,
  "mist": 9194,
  "debris": 9195,
  "practically": 9196,
  "march": 9197,
  "mold": 9198,
  "mac@@": 9199,
  "cerebral": 9200,
  "intensified": 9201,
  "exporters": 9202,
  "....": 9203,
  "Stamp": 9204,
  "PLA": 9205,
  "18.@@": 9206,
  "infringement": 9207,
  "ever@@": 9208,
  "sem@@": 9209,
  "complications": 9210,
  "fel@@": 9211,
  "lining": 9212,
  "Czech": 9213,
  "disturbed": 9214,
  "DS": 9215,
  "vit@@": 9216,
  "Bon@@": 9217,
  "20th": 9218,
  "judged": 9219,
  "staring": 9220,
  "20,000": 9221,
  "ideology": 9222,
  "Reuters": 9223,
  "borrowed": 9224,
  "influential": 9225,
  "complained": 9226,
  "Huang": 9227,
  "legend": 9228,
  "literally": 9229,
  "Andrew": 9230,
  "potatoes": 9231,
  "bench": 9232,
  "tense": 9233,
  "zi": 9234,
  "yan": 9235,
  "wilderness": 9236,
  "fantastic": 9237,
  "Rom@@": 9238,
  "sang": 9239,
  "Louis": 9240,
  "Phase": 9241,
  "UNRWA": 9242,
  "Arabia": 9243,
  "bronze": 9244,
  "torn": 9245,
  "proceeded": 9246,
  "hollow": 9247,
  "Yao": 9248,
  "claiming": 9249,
  "oms": 9250,
  "refrain": 9251,
  "Blue": 9252,
  "waiter": 9253,
  "tory": 9254,
  "consistency": 9255,
  "Ki@@": 9256,
  "ock": 9257,
  "hun@@": 9258,
  "Cs": 9259,
  "AG@@": 9260,
  "briefing": 9261,
  "solvent": 9262,
  "decoration": 9263,
  "Mobile": 9264,
  "tenth": 9265,
  "Chan": 9266,
  "sailing": 9267,
  "ques": 9268,
  "Albert": 9269,
  "call@@": 9270,
  "CON@@": 9271,
  "defensive": 9272,
  "garage": 9273,
  "hearted": 9274,
  "ories": 9275,
  "bits": 9276,
  "CD@@": 9277,
  "tively": 9278,
  "Princess": 9279,
  "hiring": 9280,
  "vitality": 9281,
  "gambling": 9282,
  "operates": 9283,
  "quote": 9284,
  "nie": 9285,
  "1982": 9286,
  "industrialization": 9287,
  "Committees": 9288,
  "elite": 9289,
  "ailed": 9290,
  "Salvador": 9291,
  "bat@@": 9292,
  "recruited": 9293,
  "appropriately": 9294,
  "ecosystem": 9295,
  "matched": 9296,
  "album": 9297,
  "HO@@": 9298,
  "motor@@": 9299,
  "Guide": 9300,
  "clarify": 9301,
  "ashing": 9302,
  "pharmac@@": 9303,
  "loses": 9304,
  "2.5": 9305,
  "&apos;we": 9306,
  "lov@@": 9307,
  "History": 9308,
  "learnt": 9309,
  "List": 9310,
  "fried": 9311,
  "Timor": 9312,
  "cavity": 9313,
  "miracle": 9314,
  "atmospheric": 9315,
  "coll@@": 9316,
  "oxidation": 9317,
  "stock@@": 9318,
  "assembled": 9319,
  "sensors": 9320,
  "renal": 9321,
  "door@@": 9322,
  "sustainability": 9323,
  "eleven": 9324,
  "UNEP": 9325,
  "downturn": 9326,
  "prompted": 9327,
  "weigh": 9328,
  "curiosity": 9329,
  "Cat@@": 9330,
  "litigation": 9331,
  "Pos@@": 9332,
  "Production": 9333,
  "van@@": 9334,
  "integrating": 9335,
  "ough": 9336,
  "Libyan": 9337,
  "----@@": 9338,
  "Baghdad": 9339,
  "nominated": 9340,
  "licenses": 9341,
  "overhead": 9342,
  "pork": 9343,
  "log@@": 9344,
  "artery": 9345,
  "arian": 9346,
  "poems": 9347,
  "attorney": 9348,
  "caution": 9349,
  "awful": 9350,
  "confiscated": 9351,
  "lem@@": 9352,
  "thine": 9353,
  "explanations": 9354,
  "blamed": 9355,
  "vari@@": 9356,
  "Patent": 9357,
  "ca": 9358,
  "RC": 9359,
  "scan": 9360,
  "Session": 9361,
  "humble": 9362,
  "ashamed": 9363,
  "cut@@": 9364,
  "fleet": 9365,
  "ona": 9366,
  "err@@": 9367,
  "breakthrough": 9368,
  "alternatives": 9369,
  "females": 9370,
  "Independent": 9371,
  "coin": 9372,
  "palm": 9373,
  "mak@@": 9374,
  "Urban": 9375,
  "cute": 9376,
  "encies": 9377,
  "outcomes": 9378,
  "disciplinary": 9379,
  "fuels": 9380,
  "AI": 9381,
  "Egyptian": 9382,
  "carriers": 9383,
  "pets": 9384,
  "donation": 9385,
  "migrants": 9386,
  "repairs": 9387,
  "subsistence": 9388,
  "BR@@": 9389,
  "arc": 9390,
  "New@@": 9391,
  "slower": 9392,
  "ols": 9393,
  "shortcomings": 9394,
  "yields": 9395,
  "Copenhagen": 9396,
  "strongest": 9397,
  "sit@@": 9398,
  "scarce": 9399,
  "Eve": 9400,
  "Revolution": 9401,
  "opponents": 9402,
  "val": 9403,
  "WFP": 9404,
  "sent@@": 9405,
  "eman": 9406,
  "ideals": 9407,
  "refusal": 9408,
  "wit@@": 9409,
  "GA": 9410,
  "partnerships": 9411,
  "Coun@@": 9412,
  "glorious": 9413,
  "collision": 9414,
  "set@@": 9415,
  "Traffic": 9416,
  "exploit": 9417,
  "unfortunate": 9418,
  "reimbursement": 9419,
  "factions": 9420,
  "jumping": 9421,
  "yourselves": 9422,
  "infinite": 9423,
  "advancing": 9424,
  "Don@@": 9425,
  "Abraham": 9426,
  "Ir@@": 9427,
  "potato": 9428,
  "wounds": 9429,
  "invalid": 9430,
  "n.": 9431,
  "Take": 9432,
  "selective": 9433,
  "splendid": 9434,
  "Lincoln": 9435,
  "quantum": 9436,
  "incomplete": 9437,
  "minimal": 9438,
  "imposing": 9439,
  "Fire": 9440,
  "Venezuela": 9441,
  "rav@@": 9442,
  "cleaned": 9443,
  "chess": 9444,
  "lawsuit": 9445,
  "Zhejiang": 9446,
  "forecasting": 9447,
  "carcinoma": 9448,
  "lively": 9449,
  "township": 9450,
  "chang@@": 9451,
  "cough": 9452,
  "dist@@": 9453,
  "OS": 9454,
  "figured": 9455,
  "accompany": 9456,
  "distinctive": 9457,
  "unacceptable": 9458,
  "notably": 9459,
  "insul@@": 9460,
  "Cas@@": 9461,
  "oped": 9462,
  "metric": 9463,
  "fatal": 9464,
  "han": 9465,
  "shalt": 9466,
  "spouse": 9467,
  "petrol": 9468,
  "Registry": 9469,
  "insect": 9470,
  "conce@@": 9471,
  "curtain": 9472,
  "paths": 9473,
  "wood@@": 9474,
  "flooding": 9475,
  "Ethiopia": 9476,
  "di": 9477,
  "aded": 9478,
  "Ho": 9479,
  "occurring": 9480,
  "beans": 9481,
  "replies": 9482,
  "swe@@": 9483,
  "tastes": 9484,
  "ington": 9485,
  "serum": 9486,
  "stared": 9487,
  "mod@@": 9488,
  "charging": 9489,
  "seasons": 9490,
  "Captain": 9491,
  "volumes": 9492,
  "defeated": 9493,
  "cri@@": 9494,
  "mic": 9495,
  "folks": 9496,
  "rhythm": 9497,
  "loyalty": 9498,
  "main@@": 9499,
  "firing": 9500,
  "ventures": 9501,
  "overview": 9502,
  "goodbye": 9503,
  "downtown": 9504,
  "tible": 9505,
  "suspicion": 9506,
  "urbanization": 9507,
  "priests": 9508,
  "ag": 9509,
  "Ph@@": 9510,
  "strengths": 9511,
  "misery": 9512,
  "shipped": 9513,
  "prolonged": 9514,
  "documented": 9515,
  "Six": 9516,
  "trail": 9517,
  "regulating": 9518,
  "PRO@@": 9519,
  "deliberately": 9520,
  "trucks": 9521,
  "Level": 9522,
  "esses": 9523,
  "olog@@": 9524,
  "heart@@": 9525,
  "servers": 9526,
  "Ten@@": 9527,
  "beast": 9528,
  "reasoning": 9529,
  "rainfall": 9530,
  "frog": 9531,
  "matic": 9532,
  "Bulgaria": 9533,
  "cho@@": 9534,
  "souls": 9535,
  "prerequisite": 9536,
  "lers": 9537,
  "throne": 9538,
  "commanded": 9539,
  "youll": 9540,
  "hitting": 9541,
  "linguistic": 9542,
  "confronted": 9543,
  "argues": 9544,
  "illustrate": 9545,
  "fic@@": 9546,
  "liberalization": 9547,
  "symbols": 9548,
  "Monitoring": 9549,
  "contributes": 9550,
  "Shel@@": 9551,
  "Lama": 9552,
  "far@@": 9553,
  "Media": 9554,
  "Sec@@": 9555,
  "viruses": 9556,
  "15.@@": 9557,
  "inviting": 9558,
  "males": 9559,
  "itors": 9560,
  "Sy@@": 9561,
  "desires": 9562,
  "130": 9563,
  "universally": 9564,
  "asts": 9565,
  "Tianjin": 9566,
  "keyboard": 9567,
  "farther": 9568,
  "Tre@@": 9569,
  "Download": 9570,
  "upgrading": 9571,
  "prop@@": 9572,
  "wasted": 9573,
  "leap": 9574,
  "Cheng": 9575,
  "isi@@": 9576,
  "ceased": 9577,
  "backup": 9578,
  "colours": 9579,
  "exceeded": 9580,
  "bending": 9581,
  "sand@@": 9582,
  "understands": 9583,
  "pragmatic": 9584,
  "stepping": 9585,
  "stance": 9586,
  "1979": 9587,
  "requesting": 9588,
  "ri": 9589,
  "successor": 9590,
  "shareholder": 9591,
  "pipes": 9592,
  "situated": 9593,
  "Real": 9594,
  "uncomfortable": 9595,
  "gym": 9596,
  "shirts": 9597,
  "tran@@": 9598,
  "undergoing": 9599,
  "gauge": 9600,
  "answering": 9601,
  "accustomed": 9602,
  "establishes": 9603,
  "killer": 9604,
  "renew": 9605,
  "simulated": 9606,
  "sy@@": 9607,
  "UT@@": 9608,
  "care@@": 9609,
  "Monetary": 9610,
  "May@@": 9611,
  "drift": 9612,
  "Paulson": 9613,
  "infections": 9614,
  "Dear": 9615,
  "FT@@": 9616,
  "otic": 9617,
  "Belgium": 9618,
  "suggesting": 9619,
  "oted": 9620,
  "Best": 9621,
  "rs": 9622,
  "Young": 9623,
  "Acting": 9624,
  "databases": 9625,
  "deploy": 9626,
  "Tor@@": 9627,
  "inherited": 9628,
  "phrases": 9629,
  "explicit": 9630,
  "ministries": 9631,
  "linking": 9632,
  "imagined": 9633,
  "pockets": 9634,
  "depend@@": 9635,
  "tops": 9636,
  "oper@@": 9637,
  "ston": 9638,
  "Nanjing": 9639,
  "Ann": 9640,
  "Shu@@": 9641,
  "kissed": 9642,
  "yed": 9643,
  "handful": 9644,
  "ided": 9645,
  "Sen@@": 9646,
  "OM": 9647,
  "Ill": 9648,
  "guilt": 9649,
  "4,000": 9650,
  "Most": 9651,
  "depos@@": 9652,
  "liquor": 9653,
  "disappointment": 9654,
  "exercised": 9655,
  "forcing": 9656,
  "prevail": 9657,
  "horrible": 9658,
  "Sciences": 9659,
  "clam@@": 9660,
  "devote": 9661,
  "comprising": 9662,
  "Nicaragua": 9663,
  "stealing": 9664,
  "eds": 9665,
  "limiting": 9666,
  "zy": 9667,
  "delivering": 9668,
  "IR": 9669,
  "tives": 9670,
  "harbour": 9671,
  "W.": 9672,
  "Activities": 9673,
  "tun@@": 9674,
  "fitted": 9675,
  "kins": 9676,
  "CF@@": 9677,
  "waist": 9678,
  "rot@@": 9679,
  "ean": 9680,
  "unilateral": 9681,
  "shifting": 9682,
  "studio": 9683,
  "Mountain": 9684,
  "richest": 9685,
  "Process": 9686,
  "nd": 9687,
  "faint": 9688,
  "portable": 9689,
  "Syria": 9690,
  "enting": 9691,
  "spiral": 9692,
  "pairs": 9693,
  "primitive": 9694,
  "melt": 9695,
  "legacy": 9696,
  "prone": 9697,
  "intentions": 9698,
  "collectively": 9699,
  "6th": 9700,
  "MP@@": 9701,
  "inger": 9702,
  "XML": 9703,
  "rewards": 9704,
  "Oil": 9705,
  "determin@@": 9706,
  "scarcely": 9707,
  "Note": 9708,
  "unt": 9709,
  "presenting": 9710,
  "asted": 9711,
  "thetic": 9712,
  "oppose": 9713,
  "EM": 9714,
  "expiration": 9715,
  "ren": 9716,
  "ull": 9717,
  "inform@@": 9718,
  "gan@@": 9719,
  "AA": 9720,
  "procedural": 9721,
  "anim@@": 9722,
  "Reg@@": 9723,
  "fisheries": 9724,
  "yer": 9725,
  "sounded": 9726,
  "aer@@": 9727,
  "gal@@": 9728,
  "Practice": 9729,
  "zer": 9730,
  "rit@@": 9731,
  "importantly": 9732,
  "disposition": 9733,
  "terminate": 9734,
  "Rol@@": 9735,
  "Immigration": 9736,
  "pic@@": 9737,
  "sometime": 9738,
  "minim@@": 9739,
  "reunification": 9740,
  "unlawful": 9741,
  "tel@@": 9742,
  "Jud@@": 9743,
  "cheque": 9744,
  "purely": 9745,
  "panels": 9746,
  "Morocco": 9747,
  "atively": 9748,
  "eff@@": 9749,
  "highlights": 9750,
  "chlor@@": 9751,
  "stadium": 9752,
  "esteem": 9753,
  "variations": 9754,
  "sim@@": 9755,
  "verbal": 9756,
  "disadvantages": 9757,
  "op": 9758,
  "delete": 9759,
  "Charlie": 9760,
  "volatile": 9761,
  "ree": 9762,
  "Ly@@": 9763,
  "Pan@@": 9764,
  "Which": 9765,
  "dig@@": 9766,
  "low@@": 9767,
  "multimedia": 9768,
  "sch@@": 9769,
  "oph@@": 9770,
  "50@@": 9771,
  "abortion": 9772,
  "Long@@": 9773,
  "aper": 9774,
  "disorders": 9775,
  "theft": 9776,
  "ich@@": 9777,
  "assault": 9778,
  "IX": 9779,
  "locate": 9780,
  "booking": 9781,
  "surrender": 9782,
  "fog": 9783,
  "Wu@@": 9784,
  "Jin": 9785,
  "acids": 9786,
  "ari": 9787,
  "teenagers": 9788,
  "ove": 9789,
  "EX@@": 9790,
  "scanning": 9791,
  "lac@@": 9792,
  "ram": 9793,
  "vent": 9794,
  "elders": 9795,
  "videos": 9796,
  "blown": 9797,
  "ops": 9798,
  "Records": 9799,
  "rebuild": 9800,
  "Series": 9801,
  "Fu": 9802,
  "hua": 9803,
  "ffs": 9804,
  "farmland": 9805,
  "smiles": 9806,
  "vegetation": 9807,
  "bes@@": 9808,
  "hurts": 9809,
  "energetic": 9810,
  "Nepal": 9811,
  "damaging": 9812,
  "arr@@": 9813,
  "mandated": 9814,
  "guides": 9815,
  "uphold": 9816,
  "sensible": 9817,
  "Tom@@": 9818,
  "phen@@": 9819,
  "Putin": 9820,
  "Paper": 9821,
  "rub": 9822,
  "bra": 9823,
  "flown": 9824,
  "sickness": 9825,
  "impulse": 9826,
  "extradition": 9827,
  "believing": 9828,
  "Shakespeare": 9829,
  "convergence": 9830,
  "&apos;you": 9831,
  "scored": 9832,
  "itor": 9833,
  "rid@@": 9834,
  "ication": 9835,
  "reproduction": 9836,
  "free@@": 9837,
  "audiences": 9838,
  "dreamed": 9839,
  "manpower": 9840,
  "Competition": 9841,
  "reiterate": 9842,
  "gesture": 9843,
  "gli@@": 9844,
  "immunity": 9845,
  "retreat": 9846,
  "Software": 9847,
  "aggregate": 9848,
  "observing": 9849,
  "surveyed": 9850,
  "athlete": 9851,
  "bend": 9852,
  "inated": 9853,
  "Yan": 9854,
  "sum@@": 9855,
  "referendum": 9856,
  "Conservation": 9857,
  "prescription": 9858,
  ".We": 9859,
  "ken": 9860,
  "ville": 9861,
  "judging": 9862,
  "was@@": 9863,
  "Heaven": 9864,
  "safer": 9865,
  "respiratory": 9866,
  "fertilizer": 9867,
  "Prize": 9868,
  "ranked": 9869,
  "bra@@": 9870,
  "sin@@": 9871,
  "Shar@@": 9872,
  "granting": 9873,
  "blanket": 9874,
  "serial": 9875,
  "sect": 9876,
  "bean": 9877,
  "garment": 9878,
  "hopefully": 9879,
  "not@@": 9880,
  "nec@@": 9881,
  "rolls": 9882,
  "Zaire": 9883,
  "EV@@": 9884,
  "Shui": 9885,
  "optional": 9886,
  "thers": 9887,
  "uded": 9888,
  "cad@@": 9889,
  "acoustic": 9890,
  "backing": 9891,
  "developer": 9892,
  "merchant": 9893,
  "boots": 9894,
  "Irish": 9895,
  "Deng": 9896,
  "trousers": 9897,
  "etic": 9898,
  "merits": 9899,
  "Elimination": 9900,
  "SU@@": 9901,
  "winding": 9902,
  "Investigation": 9903,
  "wr@@": 9904,
  "discretion": 9905,
  "deprived": 9906,
  "bless": 9907,
  "enzyme": 9908,
  "Chris": 9909,
  "brake": 9910,
  "duly": 9911,
  "lacks": 9912,
  "where@@": 9913,
  "cables": 9914,
  "Articles": 9915,
  "priced": 9916,
  "kicked": 9917,
  "executing": 9918,
  "vine": 9919,
  "weird": 9920,
  "laundry": 9921,
  "continuity": 9922,
  "Sin@@": 9923,
  "cle@@": 9924,
  "ologically": 9925,
  "void": 9926,
  "derivatives": 9927,
  "steering": 9928,
  "Oc@@": 9929,
  "cancellation": 9930,
  "oon": 9931,
  "sty@@": 9932,
  "influencing": 9933,
  "Monte": 9934,
  "plac@@": 9935,
  "stack": 9936,
  "attracting": 9937,
  "insur@@": 9938,
  "cabin": 9939,
  "lined": 9940,
  "wastewater": 9941,
  "17.@@": 9942,
  "pling": 9943,
  "Governor": 9944,
  "defines": 9945,
  "ruin": 9946,
  "II@@": 9947,
  "patch": 9948,
  "Yunnan": 9949,
  "abuses": 9950,
  "fri@@": 9951,
  "educate": 9952,
  "fossil": 9953,
  "stop@@": 9954,
  "varies": 9955,
  "dedication": 9956,
  "gers": 9957,
  "detecting": 9958,
  "compiled": 9959,
  "nodes": 9960,
  "Croatian": 9961,
  "short@@": 9962,
  "SC": 9963,
  "Hungary": 9964,
  "oming": 9965,
  "quota": 9966,
  "va": 9967,
  "warrant": 9968,
  "elephant": 9969,
  "ests": 9970,
  "streams": 9971,
  "vascular": 9972,
  "calculations": 9973,
  "developmental": 9974,
  "atism": 9975,
  "brethren": 9976,
  "Brothers": 9977,
  "Thai": 9978,
  "cos@@": 9979,
  "Under@@": 9980,
  "Algeria": 9981,
  "edi@@": 9982,
  "compatibility": 9983,
  "insert": 9984,
  "ker@@": 9985,
  "architectural": 9986,
  "counts": 9987,
  "lasted": 9988,
  "vivid": 9989,
  "gh": 9990,
  "Dong@@": 9991,
  "bored": 9992,
  "tian": 9993,
  "exceeds": 9994,
  "See": 9995,
  "polar": 9996,
  "run@@": 9997,
  "lest": 9998,
  "elaboration": 9999,
  "pick@@": 10000,
  "summarize": 10001,
  "privilege": 10002,
  "Ta@@": 10003,
  "researcher": 10004,
  "traveled": 10005,
  "bin@@": 10006,
  "chapters": 10007,
  "graphy": 10008,
  "Virginia": 10009,
  "francs": 10010,
  "dwell": 10011,
  "illing": 10012,
  "Taliban": 10013,
  "impetus": 10014,
  "chem@@": 10015,
  "plas@@": 10016,
  "Shi": 10017,
  "suspicious": 10018,
  "bic@@": 10019,
  "scor@@": 10020,
  "merit": 10021,
  "striving": 10022,
  "Senior": 10023,
  "lev@@": 10024,
  "Guatemala": 10025,
  "interval": 10026,
  "cheek": 10027,
  "ption": 10028,
  "ref@@": 10029,
  "supervisor": 10030,
  "appearing": 10031,
  "BA": 10032,
  "Tal@@": 10033,
  "Serbian": 10034,
  "Ken@@": 10035,
  "ho": 10036,
  "Did": 10037,
  "completing": 10038,
  "spy": 10039,
  "Blair": 10040,
  "ben@@": 10041,
  "pig@@": 10042,
  "controversy": 10043,
  "racing": 10044,
  "Kate": 10045,
  "targeting": 10046,
  "fairy": 10047,
  "tivity": 10048,
  "benefited": 10049,
  "paste": 10050,
  "ester": 10051,
  "traits": 10052,
  "timber": 10053,
  "cheer": 10054,
  "amongst": 10055,
  "Status": 10056,
  "occupy": 10057,
  "blo@@": 10058,
  "cart": 10059,
  "cellular": 10060,
  "viewing": 10061,
  "vir@@": 10062,
  "buffer": 10063,
  "FC": 10064,
  "mir@@": 10065,
  "stipulations": 10066,
  "Hom@@": 10067,
  "ripe": 10068,
  "Black@@": 10069,
  "cour@@": 10070,
  "eries": 10071,
  "doctrine": 10072,
  "concluding": 10073,
  "Ren@@": 10074,
  "pond": 10075,
  "prob@@": 10076,
  "During": 10077,
  "seemingly": 10078,
  "prevents": 10079,
  "Communications": 10080,
  "insured": 10081,
  "ares": 10082,
  "locking": 10083,
  "globally": 10084,
  "individually": 10085,
  "benchmark": 10086,
  "wrap": 10087,
  "devastating": 10088,
  "grati@@": 10089,
  "Performance": 10090,
  "bankrupt": 10091,
  "umb@@": 10092,
  "exported": 10093,
  "smo@@": 10094,
  "patrol": 10095,
  "stein": 10096,
  "arrow": 10097,
  "ured": 10098,
  "attributed": 10099,
  "Lam": 10100,
  "whereby": 10101,
  "Cuban": 10102,
  "Ross": 10103,
  "gir@@": 10104,
  "speci@@": 10105,
  "arrives": 10106,
  "grip": 10107,
  "Che@@": 10108,
  "explaining": 10109,
  "disciples": 10110,
  "ventilation": 10111,
  "rang": 10112,
  "implies": 10113,
  "boarding": 10114,
  "pil@@": 10115,
  "corrupt": 10116,
  "fu": 10117,
  "insight": 10118,
  "Tunisia": 10119,
  "angi@@": 10120,
  "CI@@": 10121,
  "weaknesses": 10122,
  "itch": 10123,
  "trad@@": 10124,
  "Chemical": 10125,
  "ruler": 10126,
  "Montenegro": 10127,
  "Here": 10128,
  "vulnerability": 10129,
  "bargain": 10130,
  "wipe": 10131,
  "lastly": 10132,
  "dest": 10133,
  "broadly": 10134,
  "Forms": 10135,
  "nal": 10136,
  "ladder": 10137,
  "surprisingly": 10138,
  "triggered": 10139,
  "thereafter": 10140,
  "avian": 10141,
  "Marius": 10142,
  "stays": 10143,
  "exceptions": 10144,
  "massage": 10145,
  "Golden": 10146,
  "Sachs": 10147,
  "calories": 10148,
  "Forces": 10149,
  "thermo@@": 10150,
  "dreaming": 10151,
  "convening": 10152,
  "itable": 10153,
  "mini": 10154,
  "after@@": 10155,
  "correspondence": 10156,
  "lad@@": 10157,
  "1967": 10158,
  "bush": 10159,
  "ultra": 10160,
  "fur": 10161,
  "inserted": 10162,
  "livelihood": 10163,
  "spheres": 10164,
  "Lady": 10165,
  "airplane": 10166,
  "aters": 10167,
  "gardens": 10168,
  "Lin@@": 10169,
  "consultancy": 10170,
  "Zimbabwe": 10171,
  "nom@@": 10172,
  "prec@@": 10173,
  "notwithstanding": 10174,
  "24.@@": 10175,
  "census": 10176,
  "xi@@": 10177,
  "parliamentary": 10178,
  "reminds": 10179,
  "scratch": 10180,
  "disagree": 10181,
  "ille": 10182,
  "rounds": 10183,
  "wavelet": 10184,
  "relaxation": 10185,
  "CE": 10186,
  "discriminatory": 10187,
  "ensured": 10188,
  "aliens": 10189,
  "shadows": 10190,
  "privately": 10191,
  "Ev@@": 10192,
  "bands": 10193,
  "Anti@@": 10194,
  "machining": 10195,
  "cing": 10196,
  "suspects": 10197,
  "know@@": 10198,
  "lap": 10199,
  "pencil": 10200,
  "ora": 10201,
  "Powers": 10202,
  "ender": 10203,
  "deepening": 10204,
  "ini": 10205,
  "Promotion": 10206,
  "foam": 10207,
  "lawn": 10208,
  "Steven": 10209,
  "Hurstwood": 10210,
  "keeper": 10211,
  "positioning": 10212,
  "grand@@": 10213,
  "you.@@": 10214,
  "compassion": 10215,
  "disturbing": 10216,
  "ecology": 10217,
  "scales": 10218,
  "platforms": 10219,
  "wid@@": 10220,
  "pertaining": 10221,
  "risky": 10222,
  "odi@@": 10223,
  "LE": 10224,
  "I.@@": 10225,
  "EP@@": 10226,
  "metallic": 10227,
  "Learning": 10228,
  "equipments": 10229,
  "satisfying": 10230,
  "Liberation": 10231,
  "Radio": 10232,
  "longing": 10233,
  "duplication": 10234,
  "squeeze": 10235,
  "shortages": 10236,
  "perfection": 10237,
  "fraction": 10238,
  "processor": 10239,
  "Wat@@": 10240,
  "phy@@": 10241,
  "goodness": 10242,
  "gic": 10243,
  "li": 10244,
  "high@@": 10245,
  "attained": 10246,
  "itating": 10247,
  "searched": 10248,
  "etting": 10249,
  "ature": 10250,
  "statue": 10251,
  "ST": 10252,
  "template": 10253,
  "Final": 10254,
  "ament": 10255,
  "salad": 10256,
  "closest": 10257,
  "settling": 10258,
  "1000": 10259,
  "wan@@": 10260,
  "Type": 10261,
  "ticism": 10262,
  "animation": 10263,
  "gaze": 10264,
  "highways": 10265,
  "planets": 10266,
  "glow": 10267,
  "underwater": 10268,
  "grams": 10269,
  "sliding": 10270,
  "cam@@": 10271,
  "Add.1": 10272,
  "prote@@": 10273,
  "Music": 10274,
  "dium": 10275,
  "Jimmy": 10276,
  "Mun": 10277,
  "stre@@": 10278,
  "Or": 10279,
  "aluminium": 10280,
  "crowds": 10281,
  "fore": 10282,
  "bility": 10283,
  "min": 10284,
  "weaker": 10285,
  "graphics": 10286,
  "ech": 10287,
  "canal": 10288,
  "extensively": 10289,
  "hated": 10290,
  "Haitian": 10291,
  "get@@": 10292,
  "lowered": 10293,
  "donations": 10294,
  "intimate": 10295,
  "sac@@": 10296,
  "starch": 10297,
  "adhesive": 10298,
  "tain@@": 10299,
  "labels": 10300,
  "Would": 10301,
  "Chai": 10302,
  "bble": 10303,
  "Cases": 10304,
  "exhibit": 10305,
  "yst@@": 10306,
  "pretend": 10307,
  "materi@@": 10308,
  "Goods": 10309,
  "About": 10310,
  "s--@@": 10311,
  "Win@@": 10312,
  "age@@": 10313,
  "Chongqing": 10314,
  "heels": 10315,
  "uranium": 10316,
  "accountant": 10317,
  "hazards": 10318,
  "Shandong": 10319,
  "ling@@": 10320,
  "dialog": 10321,
  "Rice": 10322,
  "Bol@@": 10323,
  "calibration": 10324,
  "deaf": 10325,
  "circum@@": 10326,
  "bolt": 10327,
  "Cam@@": 10328,
  "optimized": 10329,
  "acks": 10330,
  "countless": 10331,
  "simplified": 10332,
  "Awards": 10333,
  "Adam": 10334,
  "airports": 10335,
  "peculiar": 10336,
  "ification": 10337,
  "tial": 10338,
  "Wa@@": 10339,
  "slowed": 10340,
  "polite": 10341,
  "urine": 10342,
  "angels": 10343,
  "108": 10344,
  "scholar": 10345,
  "Mexican": 10346,
  "Case": 10347,
  "spinning": 10348,
  "p.m": 10349,
  "corners": 10350,
  "downward": 10351,
  "AI@@": 10352,
  "interpreted": 10353,
  "robots": 10354,
  "gaps": 10355,
  "lau@@": 10356,
  "diversified": 10357,
  "qualitative": 10358,
  "struggled": 10359,
  "outset": 10360,
  "agging": 10361,
  "gging": 10362,
  "senses": 10363,
  "adviser": 10364,
  "idence": 10365,
  "practiced": 10366,
  "dental": 10367,
  "rooted": 10368,
  "toe": 10369,
  "unchanged": 10370,
  "fal@@": 10371,
  "workload": 10372,
  "regimes": 10373,
  "ark": 10374,
  "prey": 10375,
  "dynasty": 10376,
  "hits": 10377,
  "overtime": 10378,
  "Pu@@": 10379,
  "Those": 10380,
  "SM@@": 10381,
  "beg": 10382,
  "rains": 10383,
  "originated": 10384,
  "nos@@": 10385,
  "ea": 10386,
  "ation.@@": 10387,
  "ety": 10388,
  "aut@@": 10389,
  "receiver": 10390,
  "ult": 10391,
  "Shan@@": 10392,
  "sciences": 10393,
  "inity": 10394,
  "reb@@": 10395,
  "upcoming": 10396,
  "Care": 10397,
  "Merrill": 10398,
  "UNAVEM": 10399,
  "advisers": 10400,
  "prospective": 10401,
  "Romania": 10402,
  "lakes": 10403,
  "Expo": 10404,
  "wallet": 10405,
  "conversations": 10406,
  "Len@@": 10407,
  "releases": 10408,
  "envy": 10409,
  "UNIDO": 10410,
  "Credit": 10411,
  "License": 10412,
  "fer": 10413,
  "Standards": 10414,
  "Mos@@": 10415,
  "F.": 10416,
  "cia": 10417,
  "udes": 10418,
  "airlines": 10419,
  "Chi": 10420,
  "jeans": 10421,
  "darling": 10422,
  "fixing": 10423,
  "fruitful": 10424,
  "organisms": 10425,
  "Rachel": 10426,
  "ligh@@": 10427,
  "alled": 10428,
  "house@@": 10429,
  "bombs": 10430,
  "Multi@@": 10431,
  "J.": 10432,
  "warmly": 10433,
  "Internal": 10434,
  "rally": 10435,
  "departed": 10436,
  "wow": 10437,
  "poorest": 10438,
  "diary": 10439,
  "cross@@": 10440,
  "conceptual": 10441,
  "exert": 10442,
  "malaria": 10443,
  "strings": 10444,
  "contamination": 10445,
  "bers": 10446,
  "warfare": 10447,
  "cheerful": 10448,
  "antly": 10449,
  "definitions": 10450,
  "deleted": 10451,
  "preserving": 10452,
  "Yan@@": 10453,
  "）": 10454,
  "ageing": 10455,
  "jewelry": 10456,
  "appliances": 10457,
  "speeches": 10458,
  "hormone": 10459,
  "Potter": 10460,
  "chin": 10461,
  "toast": 10462,
  "While": 10463,
  "mist@@": 10464,
  "sporting": 10465,
  "allocate": 10466,
  "particulars": 10467,
  "aping": 10468,
  "fighter": 10469,
  "nation@@": 10470,
  "pel@@": 10471,
  "earnestly": 10472,
  "Costa": 10473,
  "loudly": 10474,
  "indexes": 10475,
  "stiff": 10476,
  "bud@@": 10477,
  "leakage": 10478,
  "activation": 10479,
  "lec@@": 10480,
  "sore": 10481,
  "premise": 10482,
  "metabolism": 10483,
  "batteries": 10484,
  "intervals": 10485,
  "earning": 10486,
  "Consultative": 10487,
  "arians": 10488,
  "6,000": 10489,
  "dream@@": 10490,
  "Comprehensive": 10491,
  "ven": 10492,
  "tribe": 10493,
  "cheat": 10494,
  "mes": 10495,
  "q": 10496,
  "frustration": 10497,
  "youngest": 10498,
  "Madame": 10499,
  "icate": 10500,
  "Appeal": 10501,
  "nor@@": 10502,
  "ouring": 10503,
  "illusion": 10504,
  "accelerating": 10505,
  "ting@@": 10506,
  "ox": 10507,
  "earnest": 10508,
  "Plant": 10509,
  "disclose": 10510,
  "path@@": 10511,
  "coding": 10512,
  "AM": 10513,
  "bloody": 10514,
  "poorly": 10515,
  "pressive": 10516,
  "Xi": 10517,
  "Register": 10518,
  "ICAC": 10519,
  "AIG": 10520,
  "Arabic": 10521,
  "mobility": 10522,
  "traction": 10523,
  "strang@@": 10524,
  "avi@@": 10525,
  "Dem@@": 10526,
  "Pakistani": 10527,
  "chy": 10528,
  "subjective": 10529,
  "cel@@": 10530,
  "Electric": 10531,
  "yo": 10532,
  "Asst": 10533,
  "ape": 10534,
  "smallest": 10535,
  "slice": 10536,
  "y.": 10537,
  "administer": 10538,
  "openness": 10539,
  "chron@@": 10540,
  "dian": 10541,
  "bian": 10542,
  "finances": 10543,
  "arises": 10544,
  "detective": 10545,
  "erv@@": 10546,
  "inappropriate": 10547,
  "izer": 10548,
  "rail@@": 10549,
  "ounded": 10550,
  "formalities": 10551,
  "une": 10552,
  "tribunal": 10553,
  "diffusion": 10554,
  "qualify": 10555,
  "tless": 10556,
  "grains": 10557,
  "edges": 10558,
  "Mus@@": 10559,
  "incoming": 10560,
  "ual": 10561,
  "butterfly": 10562,
  "empirical": 10563,
  "UR": 10564,
  "fines": 10565,
  "Educational": 10566,
  "Buddha": 10567,
  "survivors": 10568,
  "Muslims": 10569,
  "spends": 10570,
  "Buddhist": 10571,
  "wax": 10572,
  "cups": 10573,
  "neglected": 10574,
  "mortgages": 10575,
  "predecessor": 10576,
  "Kosovo": 10577,
  "Tar@@": 10578,
  "IA": 10579,
  "Their": 10580,
  "tan": 10581,
  "dot": 10582,
  "Hai@@": 10583,
  "kit": 10584,
  "appe@@": 10585,
  "subsidy": 10586,
  "accessories": 10587,
  "Victoria": 10588,
  "Companies": 10589,
  "accountable": 10590,
  "Chin@@": 10591,
  "Libya": 10592,
  ".In": 10593,
  "Student": 10594,
  "procession": 10595,
  "Sales": 10596,
  "Channel": 10597,
  "queue": 10598,
  "spectacular": 10599,
  "ank": 10600,
  "smokers": 10601,
  "struc@@": 10602,
  "cured": 10603,
  "say@@": 10604,
  "pop@@": 10605,
  "Sarajevo": 10606,
  "Strip": 10607,
  "authentication": 10608,
  "FA@@": 10609,
  "ei": 10610,
  "sai": 10611,
  "gum": 10612,
  "posting": 10613,
  "hosting": 10614,
  "marriages": 10615,
  "floods": 10616,
  "oven": 10617,
  "deer": 10618,
  "tire": 10619,
  "3.": 10620,
  "motive": 10621,
  "Developing": 10622,
  "fe": 10623,
  "turnover": 10624,
  "taxpayer": 10625,
  "monster": 10626,
  "hoo@@": 10627,
  "Solomon": 10628,
  "coral": 10629,
  "clarification": 10630,
  "coins": 10631,
  "horn": 10632,
  "ached": 10633,
  "transplantation": 10634,
  "Ty@@": 10635,
  "viral": 10636,
  "tuition": 10637,
  "exemption": 10638,
  "insulation": 10639,
  "conductor": 10640,
  "1970s": 10641,
  "itan": 10642,
  "terminated": 10643,
  "businessman": 10644,
  "travels": 10645,
  "1.3": 10646,
  "san@@": 10647,
  "ula": 10648,
  "securing": 10649,
  "honestly": 10650,
  "ald": 10651,
  "distortion": 10652,
  "More": 10653,
  "deposited": 10654,
  "CM@@": 10655,
  "undergo": 10656,
  "illustrated": 10657,
  "flats": 10658,
  "disturbance": 10659,
  "utes": 10660,
  "pleas@@": 10661,
  "merchandise": 10662,
  "muc@@": 10663,
  "retailers": 10664,
  ".But": 10665,
  "ix": 10666,
  "Amendment": 10667,
  "lor@@": 10668,
  "reintegration": 10669,
  "keepers": 10670,
  "7th": 10671,
  "quotas": 10672,
  "refuge": 10673,
  "Bear": 10674,
  "notified": 10675,
  "contradiction": 10676,
  "fru@@": 10677,
  "illed": 10678,
  "Temple": 10679,
  "past@@": 10680,
  "sank": 10681,
  "Like": 10682,
  "Kennedy": 10683,
  "protesters": 10684,
  "inj@@": 10685,
  "neighboring": 10686,
  "bug": 10687,
  "pad": 10688,
  "jokes": 10689,
  "offerings": 10690,
  "lip@@": 10691,
  "prostitution": 10692,
  "boot": 10693,
  "gang@@": 10694,
  "cakes": 10695,
  "good@@": 10696,
  "hospitality": 10697,
  "jam": 10698,
  "teaches": 10699,
  "parti@@": 10700,
  "opposing": 10701,
  "earthquakes": 10702,
  "Ric@@": 10703,
  "ultrasonic": 10704,
  "sed@@": 10705,
  "ACC": 10706,
  "hesitate": 10707,
  "hunter": 10708,
  "practicing": 10709,
  "idity": 10710,
  "challenged": 10711,
  "triumph": 10712,
  "Moon": 10713,
  "admiration": 10714,
  "forehead": 10715,
  "uding": 10716,
  "ni": 10717,
  "spacecraft": 10718,
  "bay": 10719,
  "inland": 10720,
  "lah": 10721,
  "outputs": 10722,
  "hereinafter": 10723,
  "thunder": 10724,
  "theres": 10725,
  "vague": 10726,
  "interactions": 10727,
  "sequ@@": 10728,
  "circulated": 10729,
  "penny": 10730,
  "aur@@": 10731,
  "OC": 10732,
  "Municipal": 10733,
  "CA": 10734,
  "ov": 10735,
  "exams": 10736,
  "interact": 10737,
  "acker": 10738,
  "urging": 10739,
  "exporting": 10740,
  "Framework": 10741,
  "pillars": 10742,
  "Xiang": 10743,
  "anchor": 10744,
  "quotation": 10745,
  "ali": 10746,
  "heroes": 10747,
  "remedies": 10748,
  "balancing": 10749,
  "cred@@": 10750,
  "chi": 10751,
  "Qin": 10752,
  "folder": 10753,
  "lunar": 10754,
  "tricks": 10755,
  "stressing": 10756,
  "superiority": 10757,
  "Gordon": 10758,
  "occasional": 10759,
  "ulate": 10760,
  "ridiculous": 10761,
  "gation": 10762,
  "tant": 10763,
  "warnings": 10764,
  "Yuen": 10765,
  "documentary": 10766,
  "utilizing": 10767,
  "sunset": 10768,
  "Peru": 10769,
  "tariffs": 10770,
  "cows": 10771,
  "computation": 10772,
  "hardship": 10773,
  "（": 10774,
  "hurried": 10775,
  "poisoning": 10776,
  "angles": 10777,
  "Jeff": 10778,
  "builds": 10779,
  "week@@": 10780,
  "Yellow": 10781,
  "acked": 10782,
  "administrator": 10783,
  "Summer": 10784,
  "invoice": 10785,
  "sins": 10786,
  "tablets": 10787,
  "tness": 10788,
  "openly": 10789,
  "exam@@": 10790,
  "comparatively": 10791,
  "melting": 10792,
  "modules": 10793,
  "revenge": 10794,
  "PE": 10795,
  "ance@@": 10796,
  "interviewer": 10797,
  "spokeswoman": 10798,
  "centred": 10799,
  "clip": 10800,
  "crush": 10801,
  "160": 10802,
  "actu@@": 10803,
  "drawer": 10804,
  "LC": 10805,
  "enforced": 10806,
  "Annual": 10807,
  "cares": 10808,
  "Lebanese": 10809,
  "unite": 10810,
  "squad": 10811,
  "drawings": 10812,
  "ancestors": 10813,
  "sey": 10814,
  "vac@@": 10815,
  "extends": 10816,
  "jing": 10817,
  "see@@": 10818,
  "kil@@": 10819,
  "lid": 10820,
  "elevator": 10821,
  "lightly": 10822,
  "attachment": 10823,
  "vely": 10824,
  "realm": 10825,
  "pains": 10826,
  "hub": 10827,
  "Milan": 10828,
  "gn@@": 10829,
  "wonders": 10830,
  "inging": 10831,
  "outlet": 10832,
  "stry": 10833,
  "excluded": 10834,
  "businessmen": 10835,
  "Sig@@": 10836,
  "solemn": 10837,
  "antenna": 10838,
  "LDCs": 10839,
  "meditation": 10840,
  "Lam@@": 10841,
  "deed": 10842,
  "Prov@@": 10843,
  "famine": 10844,
  "submarine": 10845,
  "Fer@@": 10846,
  "fuck": 10847,
  "IBM": 10848,
  "Ad": 10849,
  "damp": 10850,
  "memorial": 10851,
  "conceived": 10852,
  "physician": 10853,
  "unpleasant": 10854,
  "domin@@": 10855,
  "geography": 10856,
  "pass@@": 10857,
  "approving": 10858,
  "interviewed": 10859,
  "soaring": 10860,
  "180": 10861,
  "SAR": 10862,
  "altar": 10863,
  "belly": 10864,
  "concurrently": 10865,
  "physiological": 10866,
  "Interim": 10867,
  "atoms": 10868,
  "symptom": 10869,
  "lan@@": 10870,
  "Arsenal": 10871,
  "careers": 10872,
  "author@@": 10873,
  "chers": 10874,
  "SS@@": 10875,
  "fighters": 10876,
  "peers": 10877,
  "allegedly": 10878,
  "thumb": 10879,
  "tar": 10880,
  "ects": 10881,
  "secretly": 10882,
  "Hui": 10883,
  "ush": 10884,
  "Nov@@": 10885,
  "Lev@@": 10886,
  "Table": 10887,
  "inspire": 10888,
  "Chang": 10889,
  "feudal": 10890,
  "excellence": 10891,
  "sne@@": 10892,
  "jur@@": 10893,
  "propaganda": 10894,
  "allowances": 10895,
  "Aaron": 10896,
  "someday": 10897,
  "tured": 10898,
  "dock": 10899,
  "Wi@@": 10900,
  "icon": 10901,
  "righteousness": 10902,
  "Arthur": 10903,
  "ballot": 10904,
  "uttered": 10905,
  "churches": 10906,
  "mam@@": 10907,
  "tious": 10908,
  "innovations": 10909,
  "logging": 10910,
  "boiling": 10911,
  "itary": 10912,
  "er.@@": 10913,
  "amend": 10914,
  "var@@": 10915,
  "Climate": 10916,
  "Jiangsu": 10917,
  "nets": 10918,
  "combines": 10919,
  "Film": 10920,
  "frost": 10921,
  "prohibition": 10922,
  "gel": 10923,
  "gol@@": 10924,
  "possesses": 10925,
  "watches": 10926,
  "olive": 10927,
  "sam@@": 10928,
[...]
